#version: 0.2
Ġ a
d e
h e
m e
a r
a l
i o
Ġ i
c o
Ġ s
n g
io n
r o
e t
i t
t o
= "
n d
r i
t a
Ġ <
i s
n e
Ġ =
Ġ o
c e
t ion
t he
a s
p e
Ġ f
- -
u r
v e
ĉ ĉ
r a
Ġ p
Ġ the
e d
i l
l i
n s
l o
Ġ c
Ġ "
Ġ w
m a
u t
Ġ b
e l
i ng
č Ċ
Ġ r
0 0
n a
) ;
Ġ {
u s
Ġ (
c t
u e
i d
m p
g e
l a
< /
/ /
Ġ e
Ġi n
Ġ co
r t
u n
u l
Ġ d
s s
h a
C o
Ġ to
e a
t r
h o
i c
n o
r s
Ġ }
* *
Ġ 0
m o
Ġ S
Ġ *
t ri
c k
i g
-- --
Ġ v
h t
Ġo f
na me
Ġ 1
Ġ '
e x
" ,
Ġr e
p o
me n
Ġa nd
as s
b l
Ġ I
e m
" >
c h
p a
Ġ T
k e
y pe
Ġf o
f o
2 0
Ġ A
( )
= =
Ġ de
t s
h is
u b
c tion
i e
g et
e ct
Ġ -
R e
i r
i f
il e
a ta
u m
a d
l ass
Ġfo r
de r
u p
o l
tri ng
Ġ $
bl e
/ >
men t
et ur
Ġi s
t his
Ġ m
al ue
a tion
Ġ y
Ġ P
a me
us e
to r
' ,
Ġ< /
Ġ C
n ce
s o
ex t
etur n
is t
ta t
i z
m s
e f
ve r
: :
Ġ l
Ġb e
b e
r ea
it h
Ġ [
Ġ M
mp o
Ġ g
l l
# #
fo r
li c
co n
t ype
a ge
b o
I n
al l
Ġ no
Ġi f
- >
ĉĉ ĉĉ
d i
Ġ D
Ġ L
Ġ N
p p
Ġ n
ar t
e e
t ra
---- ----
co m
y s
p tion
n c
Ġ Ċ
o u
as e
i ne
e c
ha t
v i
Ġ 2
Ġ ma
. .
) )
ur e
q u
Co n
e ss
it y
t p
i me
Ġc lass
â Ģ
Ġ F
1 0
ul t
s c
Ġ name
o t
Ġ h
Ġ this
Ġ //
Ġ ne
Ġp ro
j ect
Ġ B
Ġe x
q ue
t em
** **
v a
ro m
Ġ E
( "
r g
f f
Ġ :
i ve
l y
d a
t ext
iz e
Ġ mo
p ro
Ġco n
Ġr eturn
ar a
ht tp
e rs
( '
ns t
l u
it e
1 2
s et
o w
" :
Ġo n
== ==
el f
o c
mpo rt
Ġ +
Ġ O
: //
t hat
_ _
f a
al s
Ġ that
Ġ lo
Ġs e
ub lic
) ,
N ame
c he
" />
Ġs t
Ġ me
pe r
1 1
t ed
r y
Ġ @
Ġ G
p ut
n k
be r
o s
Ġ W
Ġ |
I N
3 3
c a
( );
Ġw ith
i a
il l
i nd
r ef
un t
Ġa n
mp l
ms g
w o
Ġ li
ve n
Ġ R
e g
Ġa s
p t
s tr
ns e
E R
Ġa r
1 6
Ġ H
ig ht
ur ce
T ype
Ġin t
Ġc a
M a
ã ģ
1 9
ar y
a ck
la y
00 00
3 2
ut e
r ro
m l
Ġ he
Ġ x
e nd
un ction
P ro
d ata
ĉĉ ĉ
use r
Ġv alue
Ġ />
1 5
d d
p r
Ġs o
di v
) .
O N
Ġi t
Ġ V
g i
i mport
Ġno t
po rt
ie w
Ġ #
Ġo r
ul l
Ġne w
Ġw e
ar e
la t
t d
Ġ ha
t ro
de l
I d
Ġ &
Ġ U
Ġf rom
i m
as t
n al
s pa
M o
r d
Ġi d
ma t
f ig
a y
b ject
it ion
n de
Ġ .
Ġ `
1 4
Ġ j
Ġd o
Ġ 3
Ġy ou
r k
tat e
E x
b u
1 8
a nd
rro r
o ut
vi ce
1 3
Ġ= >
Ġ /
ys tem
s tring
Ġre s
2 5
ng e
Ġ type
Ġ Co
> <
f e
t ime
ar d
sc ri
t y
ce ss
t ing
1 7
T o
i p
Ġ ĠĊ
als e
6 4
f ile
ĠT he
u nd
9 9
p h
ie s
Ġp ublic
Ġb y
S e
r c
m i
R E
Ġa t
f i
ke y
que s
http s
f t
ul e
o o
Ġ tr
A T
lu de
Ġar e
li ne
o id
p y
` `
lo w
Ġ* /
Ġ el
w w
po s
a c
il d
S T
Ġf i
t ho
rea t
g ht
el d
ro w
2 2
Ġa l
r r
n ts
", "
so urce
] ,
p ara
Ġ 4
p s
ro up
Ġ Ð
Ġ get
is s
-------- --------
mpl e
b s
ä ¸
M E
Ġ k
e ar
I D
pe rt
lo r
D e
Ġw o
i ce
ge r
Ġs elf
i de
**** ****
, ,
i al
Ġ 20
ve rs
Ġ un
S tring
D ata
Ġ= =
e rt
co de
N A
Ġ \
5 0
gi n
p i
ra y
Ġ _
p ri
ma ge
âĢ Ļ
ĠI n
" )
Ġ Re
Ġd ata
a ble
ad d
N o
ï ¼
e ction
he r
lo g
u ct
r vice
da t
the r
o ur
Ð ¾
ar s
b el
Ġ !
ul d
4 0
r m
v al
Ġf unction
pa t
it l
reat e
## ##
ã Ĥ
00 0
Ġ ta
Ġ %
Ġco m
' )
ven t
Ġp ri
itl e
Ġs et
3 0
id t
r ee
O R
us t
Ġ u
Ġe n
idt h
lat e
v alue
Ġca n
tra ns
Ð °
Ġb o
r eturn
A R
e mp
c al
n ing
ã ĥ
for m
==== ====
L E
ta tion
ques t
Ġco nst
li e
2 4
dat e
Ġ ho
tri b
Ð µ
F o
Ġp o
) :
spa n
2 1
8 0
o rg
r ess
Ġ J
> </
ns ta
w e
d y
Ġ us
ne r
de f
na t
Ġo ut
A L
e p
b r
pe c
I T
S E
t ar
d o
Ġf ile
e nce
3 4
Ġ la
[ '
ir e
P a
Ġ" "
tat ic
Ġv ar
c lass
à ¤
n y
g ra
6 6
ra tion
c l
L ist
pert y
Ġ --
um ber
Ġd is
V alue
a va
Ġ 5
d ule
m it
] (
2 7
ã Ģ
fe r
para m
// //
Ġ ĠĠĊ
nc lude
lo ck
tr y
vers ion
n u
ur r
E N
g s
n et
ar k
' ]
Ġha ve
Re s
Ġw h
( $
va t
6 0
2 8
a ct
mi n
men ts
de n
} ,
n it
Ġs ho
e ment
" );
i v
msg str
msg id
3 7
ht ml
p x
w a
s elf
Ġ ĠĠĠĊ
s ize
wo rk
Ġs tring
Ġw ill
o k
Ġc h
5 5
Ġ use
ers ion
so n
D E
In t
" ;
t itle
Ġp r
C T
b a
ur l
T he
Ġ ra
to n
s p
tor y
s h
Ġ time
g o
ra me
.. /
Ñ Ĥ
Ġp a
tat us
pat h
ri ght
Ġ >
e y
# :
Ġn ull
Ð ¸
t art
vat e
e ng
ce n
Ġy our
Ġel s
he n
de d
2 9
à ¸
urr e
Ġe nd
Ġels e
it em
scri ption
a pp
trib ute
Ġv oid
3 8
r ite
as h
lie n
ce ption
4 5
3 5
Ġ up
u g
3 9
Ġw as
Ġtr ue
A ss
lien t
n i
Ġ )
fa ult
Ġa pp
Ġ} ,
po nse
l d
S et
e ri
e w
T e
m ary
Ġh ref
rs t
el l
Ġa ss
r der
L o
Ġ K
2 6
ro id
v iew
u al
ha n
ea d
4 8
u c
il t
ï¼ Į
v ar
Ġa ll
u to
a mple
U L
all y
t ch
o ne
0 1
Ġde f
u d
ke n
0 5
Ġint e
R O
et e
ç ļ
it o
A N
U s
P o
ig n
co l
Ġ ro
pe ct
ea m
co unt
çļ Ħ
Fo r
0 4
li nk
p pe
7 5
c c
V ersion
i x
urre n
y t
l ist
urren t
6 8
no t
S ystem
ar ame
tar get
Ð ½
mpo ne
ne w
ma nd
to m
Ġf alse
j s
lo ad
b ack
m d
p lay
ta ble
if ic
x t
arame t
Ġf a
ty l
eng t
engt h
E n
ic h
nsta nce
' s
lo a
ke r
t t
bl y
s um
co r
el ect
pe n
e ve
x s
Ġs tr
S S
T ext
ra t
t al
V iew
Ġ âĢ
Ġa dd
F ile
iss ue
p l
= '
b ase
] ;
ss age
de s
Ġ// /
6 7
ha nge
O bject
6 5
r ver
tyl e
4 9
r ed
user name
' );
de x
ow n
u ment
ind ow
I tem
Con fig
Ġ! =
i nclude
t emp
g a
il s
to p
rea d
Ġh as
ut ton
ea n
n der
ww w
s ta
B u
Ġco mp
Ð¾ Ð
) );
Ġb u
ess ion
ne l
Ñ Ģ
et s
T ime
Ġ z
p ublic
cen t
ith ub
F F
s ho
la ce
ur ation
i nde
h i
Ġ per
2 3
U T
Ġ pe
ma tion
wo rd
Ġs rc
u i
s ub
I C
Ġ1 0
Ġa c
l t
' ;
. </
In fo
A t
Ġde s
F i
9 8
I ON
Ġin c
M A
' :
ne d
G et
a ng
7 7
g roup
Ġ 8
B o
ef t
Ñ ģ
E rror
he ck
ption s
C a
Ġ Y
her e
ĠM a
tho d
ĠS tring
m b
o f
g l
ro und
d is
g t
s k
Ġs a
, "
ne ction
ars e
4 4
Te s
fa ce
Pa t
is e
co nst
g ithub
un c
. "
å ı
em bly
i ns
0 8
Ġs tatic
Ġ- >
Ġr el
, -
la bel
d oc
ph p
6 9
la ng
0 7
ic al
`` `
inde x
Pat h
Ġs u
ri ng
pr e
e ns
O T
Ã ©
a b
con fig
e ase
ro n
as k
S o
() .
sum mary
ilt e
******** ********
Ġ ge
lo s
cor e
tr ue
Ġb ut
ãĢ Ĥ
] .
ea t
Ġp os
o b
Ġ key
tro l
Ġc ase
co nd
h ing
con t
ĉĉĉĉ ĉ
ri e
y l
Ġo ne
Ġ& &
Ġ 7
mo n
K ey
t eg
ĠP ro
u age
t ity
Ġd a
o m
T ra
ma p
ä »
Ġpri vate
=" -
spa ce
Ass embly
S tate
pa ck
4 7
Ġ ?
no w
.. .
mo del
Ġwh ich
Ġv al
lic ation
s a
0 3
ilte r
NA ME
+ +
0 2
Ġan y
Ġ text
0 9
ma i
Ġw a
e b
I L
s tart
Ġc all
Ġ ĠĠĠĠĊ
ot e
nc y
Ġinte r
com ment
def ine
mo ve
Ġmo r
loa t
E S
Ġco ns
A r
Int e
A dd
eve l
i mage
Ġw hen
Ex ception
ma n
ra tor
ve rt
f rom
D I
n put
ĠIn t
C O
ä º
Tes t
C h
i nput
ie r
yt e
0 6
mpone n
mponen t
2 00
Ġ ĠĠĠĠĠĊ
Se rvice
ic s
ff e
Us e
r eg
v oid
li ng
8 8
iz ed
fer ence
al e
lay e
ir ed
E T
Ġa bo
A D
laye r
\ "
Ġ trans
ic k
Ġg o
æ ľ
d b
() ,
ll e
d ir
A C
UL L
Ġl et
cont e
"> <
à ½
Ġmor e
ist e
tor e
are n
Ġo rg
U R
ĠT his
co lor
Ġs ub
/ *
f unction
L i
v o
w idth
Ġre qu
Ġ ì
D a
3 6
Ġs pec
Ġcon t
Ġso me
Ġwo rk
---------------- ----------------
c s
no de
mai n
Ġ 6
up port
Ġo ver
ta ine
Ġ/ **
fi eld
] )
rat e
ri d
#### ####
lo b
Ġst yl
Ġa d
f alse
lo c
Ġ **
i ble
Ġ: =
ice nse
M em
u tion
Ġ-- >
E l
P I
co mp
ĠS ystem
ic ro
de rs
Mo del
\ \
N T
ver y
j o
ft e
qu al
Co m
Ġpr e
9 5
Co mp
li b
e rror
al t
he ad
D ef
ess age
ĠM o
$ {
pe nde
n fo
9 7
======== ========
y nc
G e
E D
ho r
den t
Ġw idth
Ġstyl e
Ø §
tra i
b i
um n
I G
conte n
No de
å Ī
Ġm y
for e
Ġo ther
o bject
aren t
m ber
M et
o g
Ġ ĠĠĠĠĠĠĊ
ur s
Ma p
conten t
Ġde fault
co rd
po i
20 20
ffe r
Ġs tate
u me
r n
S ize
Ġ user
bu g
Ġbo ol
Ġs ize
la tion
ra w
fte r
//// ////
Ġex t
temp late
D is
ma il
na ger
ve d
s tro
Ġ ĠĠĠĠĠĠĠĊ
Co de
a ction
() );
z e
Ġn umber
G roup
d uct
il ity
. _
a g
"> </
nd l
Ġsho uld
C H
C lass
} }
Ġ __
s tate
so ft
l p
ma x
it s
gl e
Ġma y
âĢ Ŀ
ri al
co ns
! --
i nfo
Ġ );
pri n
L a
j ava
ec tor
d ing
c ri
A pp
c ho
ion s
Ġe rror
que ry
3 1
ra ge
Ġl ist
prin t
Ġpa t
Ġli ne
L O
row s
ting s
ar g
Ġres ult
Re quest
Ġ} );
Ġp art
Ġ čĊ
E vent
a m
s ult
a ch
ar ch
nat e
5 7
' t
bo x
Mem ber
Ġa rg
ol e
for mat
f rame
d u
ç Ķ
Ġst art
Ġhe r
å ħ
A S
Con text
Q ue
Ġ< <
rea k
a pi
Ġl e
Use r
e rvice
1 00
P os
o ption
ĠE x
ou nd
M e
Ġthe y
teg o
v is
s rc
Ġo bject
å ®
M essage
ug h
P E
5 8
Ġb ack
ou ble
4 6
for mation
ĠD e
Ġ 9
ation s
val id
ia n
us h
Ġ version
ĠF o
Ġand roid
Ġi mport
Fi eld
Con t
Ġco de
c tor
b b
() )
Ġwe ight
I S
ĠL icense
Ġ ]
,, ,,
j son
ll ection
mo dule
T R
ĠS o
d f
Ġa ct
r ue
lle r
icro soft
Ð »
IN G
20 21
7 8
ig h
if y
aramet e
Ġe rr
aramete r
di a
O f
ic a
ndl e
A B
n um
S tr
a der
me r
Ġco l
pack age
tho n
[ ]
ie n
å Ĳ
i ed
B y
( (
ä ½
ast e
ge s
Ġst d
Ġre g
c i
Ġthe n
} ;
c reate
q l
r nal
ri de
Ġcon fig
In dex
taine r
Ġfi rst
eat ure
us ing
g round
w are
Ġ} ;
ri c
A G
tro ller
Ġm i
o p
5 9
Ġma ke
Ġabo ut
M P
l low
Ġthe ir
e rr
U p
ta i
un it
O ut
e sult
r it
Ġon ly
U S
Ġme thod
j a
r esult
[ "
Ã ¡
Co lor
Mo de
H and
ito r
na tion
pro perty
R o
Ġ his
Ġ| |
Ġthe r
ass ert
ĉ Ġ
m m
rie s
l et
ack age
l ength
ĠN o
At tribute
Da t
ut il
i nit
et a
Ġmo del
pa che
Ġus ed
D ir
Ġ[ ]
Ġun der
ut h
ĠN ULL
Ġ tra
il der
T I
li ck
etur ns
Ġther e
Ġw ho
A s
il y
Ar ray
{ {
Ġs h
& #
ra p
Ġpat h
Ġass ert
Pro perty
is h
Ġs ta
to rs
Ġus ing
4 2
å ¤
Ġ ,
n no
Cont e
Dat e
Ġ ed
con nection
=" #
d l
Ġfi nal
T E
m y
$ (
Ġr un
el s
ia ble
ea der
me ssage
poi n
Ġal so
k a
è ¿
i b
Ġin to
O n
D oc
e qu
de fault
s tyle
R a
ex port
tra ct
lo cal
Ġo ur
Ġ/ *
t l
Ġ ve
33 33
Ġex pect
P O
Ġc reate
" ]
if ied
Ġlo g
Ġme ssage
Ġ X
Ġne ed
Ġc l
Ġli ke
de scription
d s
f l
æ ĸ
ĠI f
f unc
ppe nd
Ñ ĥ
Ġd ir
ve s
poin t
cri pt
Ġd oc
U N
', '
e q
Ġdes t
Ġn il
nat ure
s i
Ġpo i
Ġbe e
ul ar
c us
ĠV alue
bo dy
e rn
5 6
if act
uc cess
ul ts
8 9
s g
ear ch
L I
ge n
s tatus
H E
ĠI t
e quest
7 9
Ð° Ð
Ġ ;
ol s
P r
r equest
Ġc urrent
ĠU s
lay out
bl ed
it ial
che ck
Ġs i
/ **
4 3
s tatic
A c
( {
im g
h read
r l
Ġj ava
æ ĺ
bu ild
Hand l
los e
Ġcont e
g n
Ġbee n
= {
nst all
Ġ( )
indow s
t ive
ĉĉĉĉ ĉĉ
M L
Res ponse
ar ray
p art
Ġc heck
e rver
El ement
me ta
Ġar ray
ff set
b ar
æ Ī
Ġpri n
Ġo pe
lu gin
L oc
Ġs ee
Ġ target
trai n
e rm
n v
Ġma x
e rnal
Ġ ce
Co unt
t n
a ult
C E
ic l
Ġpro vi
Ġ qu
lo t
W ith
N ot
ien t
eri al
Po i
ĠâĢ ľ
Tra ns
r el
co pe
Conte n
Ġfi eld
a nce
gra m
m iss
aste r
out put
icl e
Ġ( =
Lo g
Conten t
na ble
b lock
8 7
aramet ers
../ ../
Ġ right
Ġi ts
; &
x ml
e vent
ig nature
ara ct
Handl e
ree n
C lient
e ight
Ġa uto
Ġin put
Ġmi n
ar gin
0000 0000
5 4
Ġfo n
8 6
d own
iz ation
w it
mo d
ut hor
ch ar
han nel
io r
ang uage
ĠT e
o pe
cl e
cent e
end s
v ing
p ng
Ġwo uld
Ġw hat
io us
ne ct
la n
ass word
S ub
Ġfon t
o d
L ine
rm al
Ġso urce
Ġ Con
Ġi tem
men tation
li ce
s m
Ġch ar
art ifact
z ure
": "
ect ed
Ġo b
lob al
it ies
me mber
ra n
scri pt
c all
Ġhe ight
I s
Ġco lor
P ri
pro ject
Ġj ust
id a
Ġof f
-- -
à ¥
s ts
l eft
br ary
## #
ha pe
tego ry
Ġ"" "
Ġ( !
ĠG et
Ġ+ =
t hing
a p
) {
b utton
is ts
Ma nager
ig ned
pert ies
s ervice
cente r
pl e
è ¯
oo gle
ta n
t han
I mage
nno tation
ve lo
u a
k i
r face
da y
Ġ1 2
and roid
r et
Assembly Version
Ġprin t
na v
å ľ
de pende
Ġre quest
Ġd if
ĠT o
oo k
Ġtr y
In put
h ro
ar ed
Ġfo llow
D O
Ù Ħ
4 1
ĠB o
} )
source s
S tyle
w s
ar gs
id get
ĉĠ Ġ
E d
x y
Ġout put
ow e
pa ge
O L
lat form
Ġ ë
ĠW e
Ġw here
as o
f ul
m ark
Ġc hange
C ell
ec tory
as ed
Ġp ara
9 0
B e
O ver
Config uration
y n
rea ted
Ġin dex
ine d
7 0
Ġ than
8 5
S tatus
T able
pos t
Ġ Q
Ġi mage
ì Ŀ
li ght
if ier
Res ult
A A
p u
. /
lo ng
c lient
F a
m t
Poi n
gra ph
S t
Ġa head
Ġwe r
Ġbu ild
V al
Ġpro cess
C L
> (
Ġ url
Å ¿
ĠI nclude
)) )
h row
he ight
T H
Poin t
il ed
Ġdo e
Ġi nd
tai n
el y
iste r
Ðµ Ð
r u
For mat
Ġthe m
Ġdoe s
Ġconte n
os t
ĠY ou
T rue
ro p
_ {
Ġ https
] [
ĠFo r
t ic
< ?
Re g
rs o
" "
Ġ tho
s elect
F I
C ON
we b
to rage
Ġg ive
f low
w i
s td
Ã Ń
Ġk now
Ġi nstance
' ),
w n
æ ķ
a pache
c ase
P RO
nd ition
Ġconten t
ĉĉĉĉ ĉĉĉĉ
unt ime
B ase
N ew
g r
Ġrequ ire
So urce
Ġb reak
A ction
Co l
b y
w rite
w ard
wa it
ir it
AT E
Ġse rvice
lo y
ec ur
w ith
Ġre f
ee n
ck et
Ġge ne
ce pt
e ed
Ġb et
W o
~ ~
L ay
Ġ title
ĠA N
r ld
Ġy ear
pro to
ific ation
F rom
Ġ ĠĠĠĠĠĠĠĠĊ
Ġr ead
F O
à ¦
Ġstr uct
B utton
ra nd
Ġin formation
ĉĠĠ Ġ
mp ty
fo n
Ġ1 00
Ġdo n
Ġinc lude
ho s
Ge ne
t wo
o ver
) "
å Ĭ
ite r
} "
Ġx ml
c urrent
ca n
C l
ri s
Ġwer e
Ex t
na ge
U E
A P
6 2
che d
S a
ä¸ Ģ
ĠG e
str uct
Ġlo cal
A rg
ho d
el ement
I P
n ull
bs p
r un
ide n
Ġa fter
c pp
c u
Ġ1 5
E nd
ĠL anguage
çĶ ¨
To ken
F ilter
T his
vi der
ĠI N
m ic
u id
a ted
S ta
u ch
n bsp
Re ference
Ġho w
N a
ĠN one
% %
me thod
iv ity
8 4
pp ing
Que ry
7 4
a ny
nu me
fon t
Ġno de
Ġ1 6
rt ual
l der
s ponse
T Y
Ñ ı
Ġ http
E X
0000 00
Ġp age
DI R
Ġs upport
C C
Ã ³
Ġlo ng
Ġf ill
bo t
.. ..
up date
ut ed
ft ware
ar get
p g
P ara
ĠC a
Ġi ns
P age
D o
9 6
a ppend
U t
ol ution
arse r
Con troller
ito ry
t ile
Ġde l
ĠN P
Ġf ind
M O
c ro
H T
F A
Ġe vent
Bo x
s pec
Ġ ĠĠĠĠĠĠĠĠĠĊ
ä ¹
S ignature
ta g
Ġst ro
Ġres ponse
ĠO R
Pro ject
b yte
ha ng
A nd
n ition
Ġmo dule
Ġcon text
no r
ĠC h
ing l
N umber
qu a
K E
A ct
ecur ity
V ar
artifact Id
; "
t hro
5 2
Ġ2 00
å °
Co mponent
Ġi mp
not e
7 6
py right
Ġpro ject
IN T
Ġm ust
z o
oo d
ãĢ ģ
ĠD a
c d
tri bu
ĠH e
ho ut
sc he
Ġwa n
els e
bi n
pr ession
M S
o ple
F rame
Ġ( (
5 3
U n
ra g
we r
Â ł
U I
ge ne
A l
O P
ol d
Ġcom mand
Ġu i
ingl e
I nstance
Ġb ase
Ġe ven
Li nk
æĺ ¯
p arent
Ġd i
: "
qu ot
to ken
ss ue
li n
5 1
å Ń
A ll
l ast
( &
Ġv iew
bo ard
9 4
IN E
Ġla bel
Ġta ble
Ġha d
ĠA pp
o rder
Ġv is
â Ķ
f s
Ġ Ø
> >
r equ
tion s
ĠS et
D el
7 2
tri x
pa ce
il able
c ity
ex ec
T itle
t tp
ĠU n
g ed
bo ol
r v
ra ted
group Id
a nnotation
el e
con text
ç »
Ġ< !--
Ġco unt
the n
mpo r
a k
pre s
Ġe ach
r em
h as
Ġno w
Ġbe fore
> \
f ind
ãģ ®
frame work
__ __
p lace
Ġup date
p tr
ra ph
ĉ Ċ
he d
ad min
Ġwh ile
D B
( [
ref e
C reate
Ñ ĭ
æ Ĺ
Pr e
Ġma i
B i
be rs
Ġ ĠĠĠĠĠĠĠĠĠĠĊ
us tom
' ).
W rite
La bel
ĠL a
Ġthe s
o me
V ER
W eb
men u
f loat
P L
h r
g ing
ĠT ra
ĠL o
a a
Handle r
ĠL ist
n umber
ĠN ame
C all
Bu ilder
l ess
t hrow
Ġda t
et work
Ġmai n
è ¡
Ġg roup
**************** ****************
ck e
Ġpoi n
h y
N O
n try
de v
Ġthes e
P e
lo ud
p c
Ġs ystem
bo ok
Ġse rial
li gn
6 3
Ġ two
ne ss
Ð º
Ġrequ ired
Ġsu per
Ġvalue s
Re source
C K
Co llection
H O
s v
ute r
Ġ= ==
s earch
mpone nts
ub e
B U
ui n
Ġfor m
Ġlo ok
Ġw k
Ġ ĠĠĠĠĠĠĠĠĠĠĠĊ
å į
refe r
nd ing
aract e
tan t
aracte r
ud io
Re f
8 2
è ®
ĠD ata
ng l
Ġ( $
Ġse cond
pa n
pos itory
y e
t mp
o pen
y thon
if t
la ck
r ep
Ġ ke
ne s
R eturn
pr ess
Ġa ction
c r
Ġl ast
doc s
Ä ±
f ill
ot h
å º
í ķ
T ask
Ġ1 9
EN T
t ected
S ho
mo ry
S tart
ob j
na bled
######## ########
che s
å Ľ
Ġp ass
F ac
Ġn um
Ġ$ {
a ns
Ġs ame
Ġr ea
e ch
Ġm sg
ĠUs e
file name
Ġs elect
lic y
Ġb a
Met hod
8 3
Ġ layer
u ments
; ;
ĠF ile
Out put
t u
Ġal low
! [
ure s
ĠA r
Ġf loat
Ġ Z
H el
e po
name space
Ġpoin t
Ġfo und
Ġ thro
Ġ} )
Ġher e
Ġhe lp
Ġex ample
" ).
20 22
s ee
un i
` ,
Ġui n
M M
ĠA s
pres e
aso n
F alse
A d
Def ault
rro rs
Ġpos ition
cke r
k ing
E CT
nse rt
E qual
c ss
7 3
he ader
Ġ" \
S P
Con trol
Ġp lace
> ,
//////// ////////
T O
stro ng
C heck
t ur
Ðµ Ð½
I t
ta ct
Ġuin t
vi ron
O ptions
Ġb lock
c lude
à ¼
me dia
Ġto p
uin t
Ġla ng
stro ke
ĠN ew
Ġo ptions
Com mand
che ma
Ġ{ }
n n
Ġ ĠčĊ
T arget
ĠRe g
Ð ²
pro cess
qua n
Ġor der
dis play
Ã ¤
t tribute
Ġra nge
E L
la g
e sponse
s erver
fer e
* /
Co ns
Ġ et
// /
Ġwan t
s ection
r esponse
c ha
Ġ à¤
Ġco uld
ca use
] ]
ref ix
b it
cal e
con trol
é Ģ
hos t
s ol
p ush
Ġr ed
ff ect
e sts
Ġfollow ing
Ġdis play
a uto
w een
ri a
å ¼
ro ot
Ã ¼
A M
m ily
iden t
S I
a x
Str eam
S h
ĠT ype
Ġ tri
owe r
Ù ħ
C D
o i
no ne
que nce
c f
Ġs tatus
Ġd own
ens ion
Ġ} }
t x
æ ī
Ġsu ch
ĠO F
it hout
Ñ Į
Ġ1 1
o ptions
Ġr et
N S
M icrosoft
Ġpe ople
ult ip
h s
Ġde scription
fi rst
ce ll
ca t
S ON
Ġi mple
i con
la nd
Ġe s
P ackage
Ġne xt
e ntry
co me
Ġ que
nd ard
t erm
va ilable
jo i
{ "
Ġpro perty
AT A
Ð ¼
Ġsho w
ice s
co ding
u ns
c hange
pos ition
Ġd u
ta ins
Co r
Ġstro ke
Ġo p
Ġfor mat
Member Signature
s y
gi ns
ed ge
S C
sp irit
s ystem
Ġs he
Ġapp lication
B lock
ne xt
c y
ce d
wit ch
ga i
9 2
ĠI D
pe rs
i nstance
ar ning
Ġs c
un k
Ġmo d
R ow
tr u
W indows
Ġ ...
me d
Ġl evel
ER R
n ly
mo unt
t hi
al a
Ġmo s
Over ride
w h
ta nce
Ġch ild
ing s
ĠÐ ¿
Ġel ement
ce ive
nsta n
ãĥ ¼
Ġli nk
} );
ĠP a
ng ine
joi n
refer ence
nd o
} {
I O
pos e
T P
Ġs s
Ġbe cause
En tity
Ġi ssue
t tr
Ġco mpl
ĠA dd
ĠâĢ ĵ
6 1
sc a
Ġw ay
U nit
Lay out
g oogle
depende ncy
< !--
pri ng
Ġ[ '
ĠInt e
fere n
Ġn p
f r
und l
com mand
Ñģ ÑĤ
Ġe cho
U rl
æķ °
Ġbo rder
la gs
end if
Ù Ĩ
Ġext ends
para ms
I f
Ġmos t
nstan t
ust e
feren t
p la
ĠA ss
ĠC ON
Ġd ouble
Ġac cess
Comp ile
x e
Ã §
a tive
mo t
lo pe
et ch
Se rver
j pg
p lugin
r ec
n is
Ġfile s
Ġl eft
undl e
pe ri
9 3
bu f
l ease
Ġpe rso
Up date
u de
Ġc lient
ĠW o
dl e
log y
ä¸ į
Ġ throw
ĠR o
åľ ¨
Ġco rr
8 1
H ttp
Ġma t
it al
pri vate
Ġta ke
w ay
ta ils
Ġthro ugh
Ġ ::
com mit
O pe
tr e
Ġco py
Ġex ec
ee k
Ġ 50
n p
Mo dule
B ack
Ġs p
Fo rm
image s
f ilter
ĠS t
ize r
pa city
æľ ī
bl em
che r
Ġlo c
.. \
Ġ1 4
V is
Ġd ay
IN FO
De bug
à¼ ĭ
" ),
Ġw rite
a uthor
Ma t
x x
O r
ĠTe s
t xt
Ġse rver
viron ment
ë ĭ
Ġby t
sho w
Bi n
å ¾
99 99
ic tion
a ttr
No ne
Ġha ndle
ine ss
el ection
Ġo pen
æ Ŀ
a ttribute
ha ndle
Ġo ption
rea dy
Ù Ī
Ġle n
. ,
= >
Ġw ithout
++ )
r epo
ĠA nd
Ġbyt e
ĠD o
uste r
trib uted
t ests
Ġli mit
urs e
p ha
UR L
ition al
à ®
Ġma p
Ġback ground
Ġgive n
Ġw ell
com mon
ho me
Ġ thi
Ġa wait
scri be
ps e
e ner
s he
Q L
loc ation
Ø ±
ĠD E
ĉĉĉĉ ĉĉĉ
o ri
n ner
e move
hang ed
à ¹
ra ct
pro duct
d c
n tity
w rap
r emove
) ]
ut ils
L ength
mat ch
P art
str eam
nde d
F T
() :
ch ild
all e
py thon
ration s
j e
M i
Ġc ar
C A
Ġadd ress
ce s
ea ch
ĠA l
Ġi nstall
Ġv i
Ġserial ized
R el
L INE
S ER
velo p
add ress
nage ment
7 1
OR T
Ã ¶
u mentation
N ull
U P
V AL
tt e
Cor e
å ¯
De scription
' ],
Ġbool ean
] );
Ġa rt
ä¸ ª
file s
S lope
d k
s eg
================ ================
ner al
A SS
( _
Ġdat e
os e
ä¸ Ń
it her
alt h
Ġc al
ff ff
z z
Ġ ],
ma ke
V E
s po
ample s
c ar
I M
c ard
f ra
Ġma ny
Î ±
as ic
Ġpre s
F unction
ĠM e
l it
Ġ1 8
e source
Pe r
oi n
Ġf ac
ive rs
S H
ĠB e
} /
e nv
} \
Fac tory
t hread
9 1
r esource
quan tile
de bug
mot e
im um
C P
C hange
R A
s tri
ĠS a
Ġdif ferent
S elect
Ġw rit
Ġen t
rt h
pt e
Bu ffer
) </
Ġo s
) \
g ress
L P
is o
y a
Ġpos t
ngl e
ĠN OT
sho p
id den
Ù Ĭ
alt e
add ing
X X
ra nge
TI ME
ut ho
f y
P arameter
ur a
L evel
W e
b f
b tn
p arse
us iness
: #
lu gins
nat ive
s u
S pec
ho ne
Ġm argin
ĠTes t
UL T
li p
Ġbet ween
Ġ q
Ġbe ing
t ech
k o
: \
g h
Ġd id
å ĩ
ns o
Ġp i
Ġlo ad
define d
Bu ild
O ffset
T emp
scri p
W idth
Ġs m
Ġa gai
AT ION
ult i
H eader
Ġ1 3
Ġma tch
Ġ thing
Ġ template
l evel
Ġserialized Version
me s
e mail
gi nal
é ĩ
R ead
wa ys
Ġi nst
up l
Ma x
if f
col umn
ĠA PI
lice nse
Ġinter face
ĠCo m
=" _
v ious
r di
pr ite
ĠC lass
Ġb i
Col umn
Ġthi nk
Ġp ackage
AL L
pe a
J son
c p
ib ility
ĠS e
O S
pect ed
Add ress
me m
ri ver
20 19
train t
h rows
Pro vider
is ion
Ġarg s
prese n
pte r
ct x
s cope
å Ĩ
ine s
" ))
l s
da ted
Ġspec ific
b ility
zo n
n ue
meta data
Inte rface
eature s
O rder
ĠL i
Ġdoc ument
r nate
Pos ition
Set tings
m un
Ġo ri
ve ctor
un try
s ig
to tal
TY PE
R AN
del ete
Ġvar iable
Ñ ĩ
S D
OR D
r eturns
vi de
w here
c ast
mpo s
Ġ" <
G L
Ġin itial
E qu
bl is
V M
al ign
no n
e ro
B yte
Ġ ~
Type s
ĠI NT
Ġs k
ra d
ĠO bject
ĠD is
s ting
, '
Ġi m
Ġp h
di ct
U M
ĠI s
Ġ ĉ
{ \
Ġre move
ol ume
ta sk
nd s
con tainer
Ġun i
ä ¼
u mp
I B
no s
Ġ very
Ġe very
n line
AB LE
de vice
tl e
Ġm ark
mo de
00 1
he l
app lication
s tore
ro ss
ĠF i
Ġat tribute
Ġ$ (
Ġde vice
0000 0
Ġ3 0
25 6
= \"
c ur
Mo d
uc tor
Ġa vailable
T ag
25 5
âĶ Ģ
b ind
ç Ľ
e nume
bs tract
U B
mb ol
20 18
Ġf e
Ġ na
ĠI S
al i
ĠBo ol
ĠC reate
Ð ´
12 8
T a
æ ł
mat h
Ġ 32
mpor tant
na mic
Ġu ns
R un
ME NT
comp ile
B ar
ãģ Ļ
i nue
S i
Ġlang uage
type s
Ġh igh
g u
Ã £
Ġc ur
module s
w idget
P latform
B undle
now n
xs d
ĠB u
ĠT HE
be gin
ca che
e nder
Ġpro duct
Ġg ood
,,,, ,,,,
Ġno n
co mpl
á Ģ
Ġpo ss
Ġre port
En try
a v
} </
li ed
if e
emp ty
g it
nc ies
ĠDa t
W eight
Ġ query
miss ion
Ġ" /
s ide
è ¦
ĠR E
Ġ row
ĠÐ ²
e v
Ġre al
s l
=" /
j ar
Ġf l
F L
ï¼ ļ
) (
r ms
=" "
H S
bs e
Ġ> =
tr uct
o rdi
ne rs
Ġf rame
å ¹
t hrows
so r
nk s
g ger
ne y
Ġs ur
ĠS tate
å Į
rows e
upl e
Î ¿
Ġwo rd
Ġl ength
c b
pe d
() ->
li d
Ġpo rt
IT Y
Ġ Ã
ron t
3333 33
s ha
ãĤ Ĵ
ven ts
Ġ late
Ġs uccess
; /
ee p
m aster
c lose
Ġ Ñģ
Ġcon f
List ener
æ ³
N et
ida t
Ġsa id
âĢ ¦
ĠCo pyright
we ight
e i
To p
t eam
ca tegory
I mport
set tings
o ffset
for ma
i nition
âĢ ľ
Ġmo de
s ql
ve rage
Ġ ../
Ġg a
nge r
Ġp arent
A pi
ro l
ote r
J ECT
ĠU p
pt im
Ġxml ns
ĠT O
tru ction
æ Ń
á ĥ
Ġa lign
to s
g g
ĠD ef
Ġ' '
ho t
ed it
u x
ific a
ĠP o
Ġj son
t f
Ġ1 7
co mponent
Ø§ ÙĦ
Ġover ride
Ġal t
D eta
ial og
idat e
con f
Ġ ê
Ï Ħ
R L
ä» ¥
Ac cess
Ġval id
ark s
ute s
ĠS ee
ĠCo mp
ĠV ersion
ar m
A PI
20 17
co mponents
Ġso ftware
tt ern
Ġro l
Ġta sk
u ght
ĠA ll
Ġpro tected
P R
å ¸
C ase
bot tom
Ġ< =
$ /
O ption
e sting
ĠE X
il i
Ã£ o
ST R
ĠDat e
# .
å ·
Ġclass Name
d t
A uto
enume ration
io s
u ally
Me nu
la ted
L L
vo ke
Ġc ref
Ð¾Ð ²
Ġ ĠĠĠĠĠĠĠĠĠĠĠĠĊ
S O
tri e
Ġl ea
Ġob j
Ġdis tributed
E MA
e ps
s pring
Ġexpect ed
Ġp ay
Ġad ded
Ġ 00
u then
Ġre source
' .
nce l
tr uctor
Ġcon trol
Ġp lay
Pro cess
Î ½
no ther
con nect
ri z
sta mp
a uth
Ø ª
act ive
Ġbo dy
# ,
Ġp adding
H eight
Ġca tch
io d
SE T
! !
ĠC O
pe ed
m id
` .
App lication
Ġcons ole
ress ion
ar i
Y ou
Ġ{ {
Loc ation
G E
ur ed
ule s
\ +
mo s
d ouble
-------------------------------- --------------------------------
Con nection
r ved
ãģ Ĺ
' ))
to ols
ĠP ri
Ġm uch
m as
v m
Ġtho s
S A
æ Ģ
ĠUse r
=" &#
Ġthos e
ker n
Ġb oth
he s
w ire
ve l
ta x
AR T
x html
r eq
a mp
Ġbe s
Ġg ame
ĥ ½
ĉĉ Ġ
Ġex ist
ir d
ce ne
tr ee
value s
g ree
B a
á »
Ġ20 20
Ð Ŀ
Ġmo ve
Def inition
åı ¯
trie s
à °
Ġpro blem
Ġe ither
Ġapp ro
s end
Ġcol umn
bs ite
4 13
ĉĠĠĠ Ġ
Ġspec ified
O pen
Ġi dent
pa y
na n
p assword
o us
Ex ec
nor e
è Ģ
ar ies
Ġwo rld
s ession
um ns
Ġ ĠĠĠĠĠĠĠĠĠĠĠĠĠĊ
vis ion
Ġex p
Ġc ho
( *
Ġde c
Ġyear s
Ġrol e
p loy
Ġta g
Ġc ha
Ġg u
to ol
s hape
ets y
he lp
ide o
Ġ Î
et t
Ġco ndition
T hread
bu ffer
Ġa m
h ref
à¤ ¾
ĠV P
us to
sa ve
x f
h ip
t ars
C lick
Mi n
ut ure
äº Ĩ
ens o
ta b
" .
ran ch
n x
e ments
Ġas ync
h ash
Ġp ar
fa mily
nge n
i nc
k it
ma ven
ck s
u ng
ir ect
ian t
el ector
alte rnate
id s
requ ire
per cent
ĠN ot
G ET
^ ^
ica t
n ta
ultip l
view s
ĠR a
back ground
Ġma de
æ Ķ
ä ¿
Ġf ree
æ İ
Ġres ults
Ġde a
r p
t ep
12 5
um b
Ġoff set
T D
KE Y
S chema
å ½
Assembly Name
Ġro ot
item s
ĠA n
vers e
Equ als
% ;
B O
æ ŀ
ur al
? >
Ch ild
o ff
Ġin it
ta il
Ġ? >
ä¸ º
Con tainer
Temp late
li brary
Ġal ready
r mi
ãģ «
ç ½
e rface
m u
t erface
Ð° Ð½
la ble
los ed
ic ally
AT H
Ġ ri
Assembly Info
I R
ĠA d
Ġb it
Ġpres e
h ree
Ġbes t
ch ine
tribu tion
h kern
W indow
icat e
n terface
im al
t ial
è §
Ġs y
k s
V ID
Ġdea t
Ġto ken
Ġst ill
Loc al
fi n
Ġli ce
L ast
it ive
ultipl e
Ġ\ "
â ĸ
bo rder
um i
Ġre ference
] :
Ġ* )
e sources
Ġloc ation
; </
i nterface
Z E
Se rial
Lo ad
Ġc reated
velop ment
å® ļ
mat e
b j
Ġto tal
d p
Ġex cept
Para ms
De vice
ar ge
r esources
ĠT rue
D ec
print f
f ic
E mpty
P tr
z a
Ġs um
ĠAN Y
ĠT ime
Ġs ite
p lugins
Ġho me
Ġ ĠĠĠĠĠĠĠĠĠĠĠĠĠĠĊ
Ð° ÑĤ
Ð ¿
. \
s tars
FF FF
pro ps
è¡ Į
t ernal
As ync
ha v
net work
a f
ĠP e
Ġre cord
b c
ĉĉ Ċ
Val id
s ec
ol der
P arameters
v as
lu ding
Inte r
Ġme ta
b ed
us ed
ce r
é Ĺ
model s
Po rt
Ġ2 4
ec ho
A RE
pro file
ãĤ ĭ
V ector
âĶĢ âĶĢ
Ġf ull
i ct
n ternal
b reak
333333 34
EMA IL
IT E
i nternal
Ġse r
sc ale
li mit
Ġ2 5
Ġdo ne
nu x
N E
ĠReg ion
Text ure
Ġpro gram
P RE
ut f
A n
ens ions
ex ample
C I
m argin
T ER
Ġ' <
s tep
Ġse arch
lo ne
Ġs ure
W a
Ġex peri
rea ct
=" @
Ġst u
w indow
Ġf unc
Ġ20 19
ppe d
Se arch
rowse r
A Y
Ġdeat h
ĠH T
Ñ ħ
ie nce
ed itor
e sh
Ġw he
Ġo ld
Ġpoi nts
^ {
pat ch
ĠÐ ½
r b
[ :
h al
e al
ĠO n
rol e
L IC
sp lit
L eft
Ra nge
no rmal
nit o
N um
Ġs tore
' >
O K
tri ct
Ġp ut
N ULL
ce l
Ġac count
Ġ( '
Ġ[ "
Ġwe b
c ing
Ġ ĠĠĠĠĠĠĠĠĠĠĠĠĠĠĠĊ
repo name
iction ary
C S
Ġ ),
Ġf un
é Ļ
R ight
BU G
IG H
Ġgo ver
Ġsho rt
i i
ãĥ ³
Re cord
Ġp ython
g rid
Data base
Bo ol
ĠA D
gen t
ĠW AR
ĠS ervice
I E
po n
ex ception
Ġorg a
lang uage
? :
ĠIn itial
p k
is try
Ġfi x
b la
s ite
ERR OR
m ar
Ġdel ete
ç «
ys is
> &
~~ ~~
so rt
Ġre ceive
è¦ ģ
et ed
Ġs to
AN D
Ġo wn
C urrent
e rms
Ut ils
sca pe
> .
Fi rst
me ri
e port
B A
20 16
I ns
r ge
Ġcall ed
ry p
enso r
i nline
Ġce ll
i et
H e
B R
Ġconfig uration
Ġf n
Ġme a
S tore
na ged
s w
ic i
r eport
à ´
C R
Ġx link
co py
up p
Ġp arameter
doc ument
Pro perties
t b
ĠE n
it ed
de sc
å Ģ
ãģĹ ãģ
f c
x a
Ġin fo
N ET
ordi nate
d raw
: (
Î ¹
r ect
D own
F E
sv g
pt h
ed ia
Ġ' /
T ree
S y
eri ng
Ð ¡
Ġvi rtual
z y
Ġc ustom
Ø ¯
Ġb ook
ĠTra ns
FA ULT
Ġs im
to col
ac count
Ġ20 18
æĸ ĩ
cus tom
sh ip
ĠL og
Ca che
l ue
EN SE
ç §
1 10
nc hor
\\ \\
p ar
ĠMa t
Ġhref lang
S cript
id x
s ys
Bo dy
-------- ----
A CT
lic a
pi n
t el
FI LE
Ġcon nection
li pse
eg a
Ġpara ms
ĠAr ray
æĹ ¶
as ure
ad o
go n
Us ers
u ri
a ders
co s
Ġabo ve
rep lace
ar p
ĠP r
sho uld
Ġco r
ĠP R
Ch aracter
ĉĠĠĠĠ Ġ
n ch
ä ¾
ta gs
Ðµ ÑĢ
n tial
Ġs ingle
Î µ
Arg s
Ġ" $
Wo rk
Ġli fe
N D
Ġh im
Ġb ased
sche ma
S ession
tr al
c md
for ms
un ts
Ġto o
V e
âĢ Ķ
t esting
s to
Ġp ol
ra ble
ĠF alse
ac cess
ĠT ext
s top
f d
Ġ ques
h igh
Ġs prite
H ash
Ġg ra
AG E
ĠCo ns
x c
Ġn etwork
Ed it
cl ear
Ġv o
ĠF a
Ġra t
mo ns
w ise
æ Į
miss ions
To ol
i nsert
( -
G rid
ĠM icrosoft
Ġp ur
Ġa nother
Ma i
Ġprovi ded
s uccess
a bled
ĠÐ ¸
go r
Pos t
rem arks
n to
Ġwith i
Ġwithi n
ĠA c
name s
u ro
p arameter
ior ity
ĠAN D
Ġdu ring
ä» ¶
AC K
Ġ{ "
Ġw indow
us r
e cond
Ġe ffect
D raw
i nation
ea ct
d ow
> =
s ign
li f
ta ch
D U
Ġsi nce
ho lder
Ġco mponent
Ġun it
Mai n
t ern
K e
äº º
k t
Ġmo n
ho to
Ġ% }
I dent
Ġbe gin
Ġdef ined
nsta nts
Ro ot
f ull
p ub
c hannel
Para m
ir cle
20 10
Ġ20 21
5 00
scrip tor
ä¸ Ĭ
b d
ye s
å ±
ex p
mo r
Ġnot e
c loud
M D
ale s
ĠA zure
Ġinter nal
rel ease
å ¿
æ į
Ġchange s
ns ion
OR M
. *
t w
ì Ĺ
=" $
ke ys
Ġs ide
Ġp u
ni mation
ç ī
IN D
p ts
pl it
RO M
Ġe mail
t ers
fi nition
Ġs ession
ãģ Ħ
g gle
è ĩ
Ġtrans form
ind ing
Ġhe ader
ig ation
P arser
Ġb tn
Ġp arameters
poi nts
Ġm ight
ĠE d
ame ra
. âĢĿ
Ġe as
Ġl ear
Ġf ilter
" }
ON LINE
Ġho s
ĠJ a
Ġ ĠĠčĊ
M y
ĠS i
u la
Ġdir ectory
D F
Ġs pace
Ġla w
R untime
arg ument
Ġal ways
Ġ center
H i
Value s
Del ete
I F
t erms
yt hing
Ġd b
Ġre nder
Ġ ty
fi x
Ġf r
1 20
W R
A zure
de cl
bs ol
N ext
ĠB ut
co der
t hree
l n
ad a
Ġno rmal
ro s
c lick
wi n
ëĭ ¤
)) ,
ass ets
Ġtype s
Ġ' ./
Ġ í
AC E
gor ith
oc ia
template s
Ġp la
Ġ throws
a i
Ġse ction
u ne
Ġfa il
O ne
() {
L e
Ġse n
ĠE rror
la b
ĠWAR RAN
Ġpro du
Ġcont inue
ä½ ¿
W ORD
e que
%% %%
Ġs cript
_ .
Ġa cc
Ġg lobal
Ġsome thing
Ġ ver
Ġcon nect
=" {{
Doc s
Ġe mpty
H HS
Ch ar
f n
Ð ŀ
line s
e ded
Ðµ ÑĤ
ĉĉĠ Ġ
s upport
Ġass et
Ġp l
Ġp arse
IG HT
å Ĵ
Ġde tails
Ex pression
Ġ â
3 00
Ġbu ffer
Ġselect ed
G raph
Ġh u
Ġes t
C hannel
b t
ĠS ub
Ð¾Ð »
e cord
ro ll
Ġ io
Ġcl ear
y namic
PRO JECT
Ġr eturns
ot tom
Ġposs ible
Ġo w
ques ts
Ġs ig
Hel per
lic it
å ¦
ff ic
cons traint
Ġ Â
m icrosoft
h u
} $
EN D
Ġ+ +
U D
s econd
H ER
Ġ2 2
é Ŀ
Ut il
Ġ2 1
f it
Ġact ive
oo m
Sta ck
-- >
G ame
N LP
Ġdata base
ir m
ra ft
{ }
é ¡
net framework
å ĳ
ot al
e ntity
Ġprese n
(' /
g lobal
P S
Ġc r
ä¸ ĭ
> ();
Re port
ãģ §
P C
ĠThe r
M T
use rs
è¿ Ļ
Ġ( -
G B
Ġke ep
Ġ" ,
Inte ger
et ing
Ġma n
Ġ2 3
LO G
Ġinc luding
ð Ł
Ġstr eam
t ick
ĠÐ ¾
C al
ĠS ho
S c
ve c
P ER
ĠC heck
Ġin v
bo ut
Ġre ally
E ngine
1 000
j i
o pt
ue s
pa dd
Ġprovi de
Ġ( "
yn tax
à¥ į
tra teg
r ecord
Ġinc r
lu ci
Ġb usiness
ĠE l
ng o
t ip
Ã³ n
P T
w p
åĪ °
be fore
b ile
=" ${
Ġperso n
' m
Collection s
U RE
Ġname space
)) ))
Ġe qu
ĠÐ ´
4 64
Ġthing s
Ġlice nse
20 15
it a
u table
ĠS ta
C RE
.... ....
ma nager
ar r
'] )
Ġ vert
lo gin
Ġ ×
Ġgo ing
ĠTher e
g ame
Ġcom mun
T ri
Ġed itor
Pro duct
4 00
ãģ ¯
u ce
ĠW IT
Ġs ay
Ġc lose
Re pository
W idget
" },
d rop
Ġen try
play e
z one
Ġ< -
Ġp lan
ĠM et
reg ister
pr ed
ad ata
____ ____
ol ve
" ],
I nd
u k
mb da
ro ute
tra p
playe r
") );
ION S
12 7
mp loy
forma nce
field s
Ġ 60
Ġo cc
N N
Ġa round
Ġs ign
add r
Ġd ie
ar io
ndo r
å ī
Ġ' ',
' '
P i
S torage
bl ue
æĸ ¹
et ime
ĠÐ º
å¤ §
Ġ Ø§ÙĦ
iss ion
Ġno ne
d iff
In clude
P ATH
e sol
Ġcall back
fi nal
reg ion
ĠA ct
po p
Ġen um
( :
r ender
I mpl
Ġw i
Dis play
Ġme m
Ġwrit ing
r esol
åĴ Į
ĠB a
Ġg reat
ĠW hen
it ude
æĪ Ĳ
P ORT
Ġse nd
Ġ tech
æĪ ĳ
Ġmon t
R ed
Ġ( *
Ð ·
ngen t
ivers ity
R eader
S L
S he
oo p
Ġen coding
Ġra nd
al ance
MA X
requ ired
Q U
C ur
so me
Act ivity
I con
Ġan al
y ear
i k
il la
Ġ ĠĠĠčĊ
C e
n ia
f ree
cho ol
x ref
LE CT
Ġd ri
o rd
y y
v id
Ġst ep
config uration
Ù ĩ
Ġ20 17
e rved
ett e
she et
p m
R ule
Ġdir ect
vi rtual
ig a
r ve
n f
Ro ute
B E
Ġ tests
nd a
ìĿ ´
S R
DE BUG
å İ
x ff
Ġ4 0
Dir ectory
Ġhe ad
rom ise
x is
D ialog
Ġitem s
Call back
Ġso rt
valid a
ca ted
Doc ument
sho rt
ç İ
r ule
m ut
Ġhos t
Ġs ec
Ġcon vert
exec ution
di us
et o
è ¾
X ml
Ġ 33
S cale
Ġb ro
P H
Item s
Ġ unt
Ġco nce
bo und
< <
Re qu
ns ed
# "
sta ck
c m
Û Į
ĠU nit
ĠM y
ĠV AL
è ĥ½
Ac count
e qual
æ³ ķ
iv id
Re nder
Ġ 64
ges t
Ġp assword
..\ ..\
Ġs cale
) /
ĠNo de
(' #
Co mpl
ne rg
hr e
Ġc rea
Ġwhe ther
Ġ tur
Gene ric
Ġa ppe
b ra
Ġb utton
__ (
Ġli brary
use s
i der
o pacity
p lot
ĠSo me
) '
Ġ` `
Ġg ot
ë Ĭ
N OT
Ġe ver
Ġj s
ĠS T
J SON
ker nel
a e
20 14
Q u
Ġk ind
Ġc y
Ġbyte s
o ther
f ect
Ed itor
ĠW a
A uth
u lation
Ġuse rs
A ny
nation al
Ġta ngent
Ġmsg id
rag ment
Fo n
* )
mon t
Ġen vironment
O UT
ĠA M
åĪ Ĩ
Ġ" #
Ġdoes n
e spo
ĠJ SON
Ġso lid
iste n
TI ES
Ġset tings
. $
ç ¨
Ġ Å¿
ĉĉĠĠ Ġ
S pace
pro perties
p ass
l g
ex e
By Id
ifica t
me t
uthen tic
p refix
Ġtext ure
to String
Ġre presen
action s
Ġservice s
Sho w
PO S
V ert
Fon t
ĠU RL
z ip
Ġex ception
; ->
Ġa ble
X ML
' =>
Ġw eek
W i
e rmi
ar ea
s ults
å¦ Ĥ
å¯ ¹
Ġj ob
ac y
D R
pr ec
ers o
cro ll
TE ST
al pha
li ance
Ġbet t
tri c
ĠM i
Ġuns igned
b lob
ĠW eb
Ġbett e
ĠSo ftware
lo rs
b il
E nabled
Ġbette r
B C
ç Ĳ
E E
eg al
Ø§ Ø
U ni
fo o
Ġright s
c n
va nce
Ġgene rate
Ġ ^
a zure
Ġagai n
ra ting
ãĥ Ī
iter al
pe line
l ar
br e
Ġp ub
a fter
Ġc hannel
P layer
r al
= $
' r
'r e
e dent
Pri n
ly ph
A da
37 5
Ġwork ing
Ġcan not
padd ing
In valid
Ġex press
s ted
é ģ
e rrors
Ġ{ },
ĠInte r
r eal
SI ZE
CD ATA
time s
jo r
ts trap
Ġ[ [
mo ck
Ġrun ning
Ġsen t
ke ns
ãĤ ¹
Ope ration
Ġ three
4 25
ificat e
h idden
N e
æ Ĭ
i mpl
che dule
sh ared
ä½ ľ
( \
ce p
S ION
Ġexperi ence
SER T
mod al
ash board
Ġa ns
M B
66 66
late s
) |
s ur
t ermi
F loat
Ġcon tains
service s
ar n
P AR
O B
us s
It e
Ġli ght
n ary
ĠAss ert
à¤ °
i ally
Ġcon tainer
Re move
it tle
á ½
ĠO pen
utho riz
tation s
4 19
> "
i nstall
ion e
rie n
wi ki
Ġ$ \
do nly
e ger
the rs
} .
Ġchild r
bl ish
D S
Ġcom mon
O bj
ĠC e
ç ¬
d ist
b g
Ġco llection
trans form
tte r
Ġchildr e
ation al
)) .
Ù ī
Ġchildre n
license s
Ð ¢
è ¨
ST AT
File s
ĠPr e
hav ior
ä½¿ çĶ¨
ĠCo ndition
ĠP RO
di al
Ï ģ
us ic
Ġapp ly
0000 000
fa c
r f
Ġpr ed
rand om
Ġl ess
ec lipse
un ch
va n
m ask
iz ing
Met adata
blis hed
ĉĠĠĠĠĠ Ġ
ĠO ption
Frame work
ĠEx ception
Ġ men
S QL
lo o
ĠR eturns
PO ST
ĠM ay
Ġin Slope
Ġout Slope
__ _
den tity
i eld
Ġra ise
Ġtangent Mode
h ird
: </
ĠA pache
Ġh ash
do main
rap per
Ġre c
Ġbe low
10 1
L icense
Pa nel
ar ing
Ġs witch
Ġpre vious
Ġ qual
ta ge
" `
Ġs ha
Ġlo s
á º
) ->
j ob
a ded
Ġs pe
Ñ Ĩ
ra ction
Ġcorr ect
For ms
h l
G R
Ġs top
è¡ ¨
ĠA meri
ĠJ o
ix ed
ĠUp date
Que ue
åĩ º
ves t
Ġin line
FL AG
F ound
ut t
ï¼ ī
ĠS O
Ġfield s
; ">
Ġ{ @
W S
X T
Ġ thread
P P
Ġa pi
ï¼ Ī
Ġun ders
U ES
Ġrel ease
Ġre v
Ġa p
ss e
"" "
Ġsa ve
t eger
Ð¾Ð ´
40 98
ĠK ey
uthentic ation
b lack
On ly
N ote
RE G
S ecurity
å Ł
Ġ temp
ega t
å ¥
li a
ive s
# ~
Ġs election
Ġ! ==
Ad min
ris t
br aries
il ar
Ġi de
ll ect
Ġf eature
C hanged
n teger
Ġ ĠĠĠĠĠĠĠĠĠĠĠĠĠĠĠĠĊ
U ID
li m
po ly
Ġinst ead
ĠO ut
ve ndor
, $
ha nks
ëĬ Ķ
C F
C ard
ke rs
i als
ne n
Ġcom mit
Ð¾Ð º
: /
ç ®
R ole
Po licy
ç Ĥ
nerg y
ĠN a
art icle
//////////////// ////////////////
v s
iss ing
Ġ20 16
i nteger
ne x
Ġfa iled
S hape
P ay
t ea
\ _
Var iable
Ġde pende
Ġope ration
Ð ±
S upport
Ġ> >
bsol ute
egat e
fra c
ç ¤
gorith m
Ġsi mple
++ ;
n l
Ġg raph
P lace
Ġmethod s
à ¯
class e
f ri
C ustom
ĠWARRAN TIES
Ġ ];
word s
/ .
Ġs cope
RE AD
'] ;
Com mon
Ġco me
M I
al k
Ġtr ee
Ð¸ ÑĤ
à ²
Act ive
e k
Ġun defined
Ġf ew
ur t
D D
æ Ľ
Ġ( +
urre ncy
á ŀ
byte s
Ġb ig
ĠThe y
t k
Ġ tmp
Ra t
Ġne ver
IN SERT
ì Ħ
v c
æ ı
Ġ2 55
T L
s core
Ġit e
b ri
Ġm ultiple
Ġn et
Attribute s
_ ,
M sg
################ ################
Ident ifier
zon tal
ãģ Į
n ization
Ġ" ",
uns igned
ee r
15 0
s erial
classe s
ma trix
Ġha nd
mo v
ĠL O
tat ist
co ver
s ample
ist ration
al low
çĲ Ĩ
it ing
ON E
Ġme ans
include s
trai ning
ill e
Ma ke
Ġv ia
v g
wh ite
na ps
> {
P h
ur n
ãģ ¨
Ð¾ ÑĢ
Ġhe l
N etwork
oin t
Ġ 80
oc ial
sc ala
Ġ team
No n
Ġpro perties
Pro file
Ġ ĠĠĠĠĠĠĠĠĠĠĠĠĠĠĠĠĠĊ
Ġmea n
ca p
LIC ENSE
Model s
i ms
Ġp ower
Ġe rrors
Ï ĥ
S Y
Ġf ri
Ġbo x
> ;
Ġi mportant
r ker
d r
Style ID
. <
nso r
ĠH o
Ġan no
init ial
H ost
m k
Log ger
ge x
ç ľ
tai ning
de tails
i na
æľ ¬
( !
Ġme mory
4 68
que ue
P ublic
bo s
Ġi g
b all
ia g
O p
ĠDef ault
12 3
ÐµÐ ´
ĠA t
[ $
s torage
Ġsub ject
Ġo nce
Write r
Ġen tity
usto mer
ĠINT O
ĠPro ject
r tain
æĸ °
ir c
A V
ĠI nd
ri fy
Ġv a
ĠM em
r esh
S u
cha i
R I
ĠC l
ãģ ¾
var iable
ke s
Ġha ppe
d ot
ja vas
e sults
Ġco s
b ad
ryp to
Ġtime s
De sc
eg i
ope rator
Ġori ginal
w d
c reated
è µ
e as
Ġa ge
us ion
Ca tegory
') ->
N G
ut ing
ï »
UT F
h umb
qu are
Arg ument
Ġrand om
Ġde r
y o
fl ex
æį ®
ĠMa p
Ġa li
her it
lic able
P erm
Ġdon t
r esults
In it
F older
pri mary
H as
i ma
vo ice
Byte s
A rt
A lign
O F
ĠE vent
Ġneed s
Ġname s
wa t
ĠCo unt
ç½ ®
"/> </
tego ries
Ġmodel s
nde f
M edia
Ġ" -
Ġsm all
h n
Ġi con
(" #
W hen
Ġ1 000
ĠR eact
B it
des t
j up
ER T
16 0
Ġwe bsite
Member Type
Ġc la
è ½
à §
ä¸Ģ ä¸ª
Ġat t
W arning
Met a
i ation
log ger
is m
20 13
ÐµÐ½ Ð¸
H ea
yte r
bo o
ĠH a
doc umentation
ta ngle
US ER
Con vert
Ġca che
ex pr
f b
W h
i nu
ocia ted
) ">
ï» ¿
ĠR ead
A X
Ġal pha
c la
íķ ĺ
ĠF e
S U
c losed
Ġcom ment
O M
HO UT
Name s
T ab
= (
equ als
Ġeven ts
ĠV iew
Service s
6 00
è ´
Ġrat e
RO OT
package s
Ġres po
Ġp lease
Ñ İ
H a
l b
E ach
ä¼ ļ
Str uct
Ġext ernal
ĠGe ne
Ġad min
u ation
x d
t ell
Ġcall Package
ĉĠĠĠĠĠĠ Ġ
S ha
10 7
ĠCo de
ĠMo del
e o
pe rso
tom ic
Rel ease
æ ĭ
ĠP h
Lo ng
M ask
j ust
ĠI P
Ġ2 8
S p
javas cript
/ "
F unc
f p
h icle
a u
s ident
x b
spring framework
. __
Bool ean
F low
åĲ į
Ġe nable
De pende
pa nd
1 12
CT ION
VAL UE
Ġnot ice
10 5
Ġfl ex
no logy
Ass ert
oo r
Ġ tal
ordinate s
P assword
Return Value
ation ship
Ġa rea
Ġco urse
select ed
etur ned
Ġex port
Ġ1 99
Ce n
x FF
e num
b log
Ca n
En t
ĠR ed
u ring
n code
ĠF unction
Ã§ Ã£o
Ġcondition s
up load
e nable
il ing
Ġme mber
r untime
é ¢
Ġfunction s
lu g
T otal
åħ ¥
Ġrel ative
si mple
t ly
Ġh ard
ĠW hat
Ġagai nst
Ġ ĠĠĠĠĠĠĠĠĠĠĠĠĠĠĠĠĠĠĊ
Ma trix
ì ł
IC E
Ġper missions
ĠT H
egi n
à¸ ²
ĠW indows
Ġp y
cs v
Ġ[ ],
Ġsize of
Ġe ar
"/> <
ĠN S
i ver
D IT
T C
IL ITY
æ µ
ç ±
j j
ck ing
c li
ur ch
Ġme dia
rea ch
Ġunt il
end ar
D ATA
Ġda ys
media t
ĠI nc
ĠP ublic
Ġa mount
F eature
ĠE nd
B B
Ġlo ve
pa d
Pro ps
äº İ
rid ge
Ġle ast
åı ĸ
Ġ20 15
En um
ound s
æ ¯
10 9
sm all
j unit
d uration
ex pected
C lose
to ries
AN T
ç º
Ï Ĥ
pea t
Ġm ar
data base
Ġpro t
I V
I ST
Ġinte ger
Pa ttern
ilt ers
no m
Return Type
Ġe val
ĠU I
") ]
Ġimple mentation
M IN
ra i
na nce
li very
St ep
Dis tribute
k w
e et
Ġact ual
Ġp ack
ĠI mage
Ġel ements
G lobal
lie r
Ġhe alth
ul lable
Ġ" %
A nal
ful ly
E C
Ġuse s
ĠâĢ ĺ
AL SE
S k
V B
f lag
ia t
Å Ł
Ġ` ``
Ġe ns
Ġarg uments
ife s
Mo ck
ĠS he
de c
trateg y
Ġwa t
Ð ķ
ĠÐ¿ ÑĢ
Ġcomp any
Ġd raw
tro ll
nu al
Ġ nav
e nc
ĠVAL UES
F IG
Ġsta ndard
O cc
ca de
ze r
Ġapp licable
ĠInitial ized
Ġse em
ro ve
i nner
G G
co llection
Ġ' @
VER SION
ĠT ask
Ġre q
H ub
Ġ html
P ack
do m
Ġa uthor
ä¹ ĭ
p ic
cond ition
F C
CO L
Ġs ample
ãĤ ¤
Ġ ..
s is
ĠWIT HOUT
co unts
t ensor
10 4
pri ce
wit t
Ġs hape
Ġto ol
CE SS
t il
Ġpo r
Ġs olution
Ġob tain
pa nel
all et
Ġlo t
s li
bu ilder
ome try
Ġf eatures
No rmal
pro vider
{ %
Ġin voke
10 8
l ed
Ġ ĠĠĠĠĠĠĠĠĠĠĠĠĠĠĠĠĠĠĠĊ
' ll
ĠB ase
W hat
ment ed
me rs
Ġs ys
p df
ba tch
Ġadd itional
Ġope rator
Ġo k
æī Ģ
ĠâĢ Ķ
co rr
ìĹ Ĳ
Na v
Ġre place
æĿ ¥
S uccess
Ġc tx
ĠCo r
. ",
Ġfa mily
Ġl ittle
16 8
witt e
owe ver
fa il
Ġpr et
o nly
D A
Ma nagement
Ġp layer
Ġspec ial
ĠL oc
) }
chai n
bool ean
ri ve
S cope
ub y
ge o
Ï Ģ
Ġ2 7
ë ¥
å¼ ı
t uple
witte r
Ġc ard
il o
Ð Ķ
ol ver
p arser
trai nts
S K
ãģ ª
(' .
ĠCe n
nito r
ie nts
ĠC ar
ifes t
Co py
Hi n
Ġunders ta
P arent
E mail
10 2
pro p
ç¨ ĭ
AR Y
the me
Ġre ason
lie s
con tact
Ġfor each
Ġho sp
Ġpa i
) *
bo r
IG N
Ġde t
Ma tch
Deta ils
Q ual
T A
Ġfi n
+ "
Ġli b
F lags
P UT
Ł ¥
ĠD el
æ ĥ
Âł Âł
ĠS erver
ĠA S
åĲ İ
ba t
> :
Ġc lick
ĠP P
c ut
i um
e ver
ë ¡
P lugin
EX T
Ġ terms
Ġs it
do cker
D C
J ob
Ġ{ '
Ġex tra
S tatic
e set
Ġcomp a
èĩ ª
L A
Ġb ar
Ñ Ī
t hird
sc reen
æ ±
ĠF OR
Ġse ver
t ex
Ġk o
ĠA R
æ ²
Ġwork s
| |
cat e
co gn
Ġdoc umentation
åŃ Ĺ
ĉĉĉĉ ĉĉĉĉĉ
18 0
cons ole
Ġ und
w t
cus s
Ġne eded
Ġmodule s
co very
åī į
s ecurity
åĬ ł
e ncode
it ch
Ġcomp ile
Ġstruct ure
ĠN ote
mer ge
app ly
print ln
n tion
Ġde bug
di m
mat erial
Ð Ĵ
T r
Ġarg ument
' ve
Ġ2 6
iv ation
ang l
f eature
Si mple
x i
ĠF ROM
Hin t
Ġbe come
S ql
tt l
PE CT
r eset
Ù Ĥ
Ġse g
ĠU S
Ġex pression
In itial
Ġent e
e vents
ie rs
ĠUn iversity
M ar
ãĤ Į
ĠS tart
Ġy et
top ic
line ar
ga t
Po ol
ĠT hat
Ġobject s
=" .
f mt
tal og
I I
ĠL ice
mb ed
pro du
Ġwh y
W N
ea k
Ð» Ð¸
åı ĳ
Ġdont Distribute
iag nos
Ġde cl
/ )
R ad
çĶ Ł
Ġpresen t
sub mit
yn ch
P ASS
ro ng
00000000 00000000
em ma
H is
Ġwh ite
Ġj o
Ġ< ?
, âĢĿ
Ada pter
Deta il
ĠN O
Ù ģ
con troller
ãĥ¼ ãĥ
ĠP art
ì ļ
âĢ ĵ
Ġve ctor
CO DE
ll umi
out h
Ã© s
exec ute
U SE
ra dius
ĠPa t
Ġre p
ni pp
Ġ( _
P ar
ction s
ê °
ÑĢ Ð°Ð
Ġreg ister
ĠR un
a nal
S V
ult ure
U NT
Lay e
ç± »
ry pt
Ð ¹
ĠV e
de tail
Ġas k
à ¨
x A
po r
angl e
, \
Ġme d
art e
æ ¬
mont h
J o
C ha
F S
******************************** ********************************
Ġr df
pe nd
Ġr eturned
Ġch aract
ĉĉĉ Ġ
Ġset up
Ġcompl ete
Me mory
Ġpro ba
p b
Comp a
call back
handle r
ing e
Ex p
ĠK IND
11 5
lt e
Ġca tegory
Ext ensions
Ġcons ider
Li brary
HT ML
Laye r
ext ension
A fter
Ġrea donly
ç¤ º
ãĤ ¯
t ics
E Q
Ġs torage
Ġr untime
Ġne cess
Ġm id
pa ir
Ġf ur
vide o
4 49
Ġe lif
W E
ĠV al
ex ists
nan t
( `
CH E
ĠV ector
Ġc he
a ws
11 7
Ġl ead
ab ility
C ar
ì ŀ
sho ld
ĠH el
1 33
Ġpara m
jup yter
ç Ń
Ġcons tructor
Inte rnal
å ĵ
ĠMat h
Ġke ys
Ġallow s
Ġ{ :
s tar
åŃ ĺ
Ġ20 22
Ġm aster
Ġ( >=
Ġd iv
Ġ[ ];
ac c
Ġlog ger
al ert
fo oter
C N
Ġb lack
m c
Ġlate r
Ġty p
ward s
data set
o ns
ĠIn put
lo n
Ð½ Ñĭ
hre shold
ĠTO DO
Ġf uture
me a
ç ´
ic ular
Wi n
Ġass ociated
> -
ĠDE FAULT
J a
Ġ util
Na N
for ce
down load
li ke
RE S
]( #
Ġsh are
ĠT a
cord ing
Ġ' \
T T
Gene rator
Ġgene rated
Object s
Ġup dated
Ð¾Ð ¼
Wo rd
åº ¦
Ġimp lied
t c
8 00
Ġv ideo
ĠG od
MA KE
Ġph ys
loa der
SE LECT
1 32
and om
ho l
ĠD B
T here
pa ges
n il
Ġr g
Ġsp irit
Ġex it
( @
. '
li nux
æķ° æį®
( __
ĠM essage
nis hed
Field s
2 000
ĠW h
f lags
ĠD oc
ĠW ith
åľ °
P U
Tes ts
Ġd ig
eri e
Ð ł
A ME
Ġc um
W ARE
S eg
D ouble
rad ient
Ġcon tact
F R
Ġe nabled
11 4
d ig
Pro gram
S um
Ġg row
Ġ ÑĤ
e quence
ok ie
99 9
Ġind ivid
lo ss
"> "
s dk
ar row
S elector
Se cond
Time out
Ġg l
issue s
å »
dial og
child r
p latform
19 2
ìĿ Ħ
Ġasset Bundle
Ġj e
f g
e sp
ee s
a nchor
Ġch aracter
h pp
rg b
14 7
Do main
i mportant
à¸ Ļ
T hat
s im
Ġcal cu
Ð ³
é Ľ
_ ;
s q
Ma pping
i co
æŀ ľ
ĠI nde
ol y
Ġs core
Control s
Ġexist ing
Ġvis ible
childr e
f x
Ġart icle
childre n
Ġ3 1
Ġissue s
Item Group
Ġuni que
p arameters
Li n
æ ģ
Ī ëĭ¤
n b
c ircle
ul y
$ .
valida t
,, ,
ĠS h
)) );
Ġve c
11 1
ĠS c
as ync
ic ation
naps hot
\ ":
Date Time
s equence
isten t
s ingle
ĠN umber
dir ectory
O ff
to ggle
De scriptor
ãģ Ł
t m
V P
validat e
mp a
lay ers
Ext ernal
Ø ©
nc ip
llumi nate
F ull
J ava
To String
Ø ³
Ġperso nal
bo n
Ġar ch
Ġa b
Ġ2 9
G a
n ment
10 3
ĠF ound
ell e
ill s
proto type
Select ed
ì Ĭ
S end
e pository
Å ¾
gr eed
Ġauto mat
H ome
r epository
fo rt
mpos e
Ext ension
æİ ¥
Ġim g
po ol
D ATE
Ġques tion
K ind
Ġl arge
Ġmessage s
ex it
200 1
get her
Ġ ĠĠĠĠčĊ
P arse
Ġ Config
! (
20 12
xe s
pr et
f un
e rv
R T
Ġme t
Ġd ist
k u
') );
' d
G o
Ġs w
nv as
Ġpo p
ĠPro perty
æĢ §
ĠCo l
Ġcor e
ki n
Ġg r
Ġd ue
Ġvariable s
Ġint eg
pos ed
trans late
set up
Trans action
Ġsta ck
ho ver
fa ct
wat e
gra de
export s
? .
Ġde scribe
count e
Ġse quence
Compa t
Ġet c
Name d
ri eve
Ġf u
Ġsc reen
> ',
ĠWo rk
ume r
Ġcomp liance
C r
no ugh
ĠÐ ·
bo ot
Ñ ĸ
tri cs
ĠHT TP
Ġde part
Ġha ving
MO DE
Ġlo aded
d ll
} '
p ull
åı¯ ä»¥
AA AA
ol l
be s
S ec
Ġid x
G M
Ġce rtain
Ġinclude s
tra ce
B inding
ei n
for med
Property Group
ĠPe r
: `
ja x
Ġjava x
mos t
Ġreg ion
red it
e val
B egin
po t
> )
Ġ" ${
Ġen v
Ġre view
cf g
high light
11 8
mp t
b ased
å° ±
utt e
10 6
com mons
âĸ Ī
Ġline s
Pre s
Ġf ar
éĿ ¢
Vis ual
Ġe mploy
ĠSo urce
TE XT
ĠA rg
ol ved
Ġre sources
ill ion
> ${
Ġan i
Ġse para
Ġc hanged
ç ł
Ġsh all
(" /
ma ps
ha m
r ch
Ġma trix
Ġsupport ed
25 0
ĠÐ ¼
00 2
ĠM ar
pat tern
A SE
R R
bla nk
F ORM
Ġf lag
Ġoption al
Re sources
è¿ ĩ
ĠThe s
Ġa greed
wate r
Ġrel ated
Ġact ually
Ġs ug
Ġde velopment
ĠThes e
20 2
Lo ck
Å Ĥ
loa ded
" </
å ŀ
decl are
tro y
ma zon
== =
Ġlo ss
Ġp lugin
ho w
ãģ ¦
'] ['
na nc
ĠS QL
ĉĉĉ Ċ
fo reach
E rr
13 0
Ġg rid
Co nstants
Ġp latform
n ic
mit ted
B LE
R ect
p id
Ġco nstant
FT WARE
ĠRe s
s witch
ang o
11 9
tor ed
con tains
ĠLice nsed
ĠJ ava
Ġa long
ra m
Ä į
Ġc md
erso n
e nded
5 12
et ion
mark down
fo lder
Ġ menu
ass ign
ific ations
Ġma king
mor e
gr e
]] ></
low e
= [
Ġs l
e ased
L im
Ġv ote
ĠV is
Ġpart icular
é ĥ
rai n
Ġinclude d
ĠC al
O D
Ġmake s
Ġres erved
F l
k ind
edent ials
ĠP lease
Ġp arser
bos e
Ġdata set
Ġ( :
option al
Ø ¨
Ġp refix
t it
FLAG S
u f
ew ay
ex clude
boo tstrap
A nnotation
h ide
åĽ ŀ
Ġd s
f ront
Ġz ero
wrap per
ĠRe quest
( ()
AB ILITY
proto buf
Ġsim ilar
our nal
DU LE
sta ndard
Rat e
() ).
pl us
resol ve
p hone
Ġr ule
di um
G u
lor e
Ġon line
i no
Ġmem bers
un ded
S ync
j ection
æ ¨
sh are
ka n
Ġmo ck
ire s
å Ļ
ĠFo rm
=" '
ce ed
\ /
/> <
to ns
ĠG o
Ġce rt
R ea
ight s
` )
Ġhu man
à ¾
m g
do ne
Ġ ĠĠĠĠĠčĊ
ĠS y
N U
nk nown
D b
M ark
Ġc are
Ġco untry
Con f
@ @
Sa ve
Name space
ete r
Ġpo licy
ÐµÐ ¼
gene rated
" ?>
Ġsi mp
Ġ ##
Ġpass ed
lin t
Back ground
pri s
eng ine
Mo n
lica t
act ivity
Ġho ld
. )
Ġp ract
c v
port s
Ġf il
Ġstart ed
ĠB y
ĠInte ger
ma g
Ġpa ttern
Ġf act
y cle
Ġa gree
Ġm s
ĠI O
l ea
6 25
Ġset ting
F ind
iat e
Ġ20 14
D K
c mp
ro om
E M
Ġimage s
m is
ĠO N
Ġhe aders
Ġcurrent ly
æ Ħ
ĠG L
iso n
Ġex ists
ë¥ ¼
Ġwat e
t v
P A
ba ts
erie s
P Y
Ġreceive d
Occ urs
Ġother wise
compl ex
p ref
ne ctor
Ġde n
LO C
ma c
de t
Ġ lat
H o
Ġe nough
ns ive
ì §
L anguage
m ine
ĠH ow
Ã ł
no des
ĠA rt
Ġqu a
Ġ Ñ
Ġco pyright
Ġde finition
Mo ve
O ri
Ġext ension
hel per
di men
HT TP
DE F
h h
rat ure
ase s
ze ro
w arning
Ġre cent
tri p
A nimation
A rea
da ble
ĠT OT
ä¿ ¡
ĠA uto
Ġlo op
tatist ics
Ġclass e
graph y
con vert
b eta
ĠBu ild
ë¡ ľ
ta ck
Sc reen
Ġre quests
li g
proto col
Ġe ngine
r net
pla i
Ġori gin
ê ³
= &
ra nk
Se quence
è ·
Ġwrit t
Ke ys
gra ms
Ġwritt e
lie nts
n z
åĻ ¨
Ġwritte n
ç ĥ
ur y
Ã ª
ER S
Ġcos t
V ENT
nce s
sche mas
w l
Reg ister
Ġ. /
ra tors
č čĊ
t ml
çĤ ¹
L java
Cl Compile
æ Ļ
local host
Ġmont h
14 0
Ġdef ine
Se ction
Ġp ull
Fa iled
mo us
CO MP
Co ndition
=" {
g uid
Y PE
i va
lp ha
Ġde term
11 6
uc ation
Ġwi n
V S
taine d
lo ok
Ġpur pose
bse r
t is
pt ure
ite s
ext ern
E vents
LI B
Å ¡
ĠB AS
( ['
åĬ ¨
Lo ader
Ġ training
: '
co untry
åŀ ĭ
ĠP age
Ġlimit ations
Ġmo v
Ġf ig
tr eam
bats man
J S
Ġfo lder
rien tation
age n
Ðµ Ð»
ha nd
Ġ Ùħ
HER E
R et
N UM
èĢ ħ
ĠH owever
Ġhis tory
AN G
Ä ģ
Ġdo ing
OR Y
Ġfix ed
Ġpro f
åŃ Ĳ
éĢ ļ
12 2
Ġwa it
men to
ĠG roup
i nst
Ġhandle r
15 9
æĹ ¥
log ical
Ġof t
f u
P y
CH AR
MO DULE
t humb
u tor
P ass
Ġcase s
à ª
ĠBool ean
åĲ Ī
Ġgover ning
Ġcl uster
Fa il
rg a
34 5
ph i
uthoriz ation
su per
Ġli ve
å¤ ļ
ĠH is
ĠCo lor
Ġo thers
Ġs chema
Ġs cal
output s
Ġno des
I VE
Ġper iod
à¥ ĩ
pe s
å¹ ´
al loc
ĠHe r
Ġac ross
ĠN e
Ġb ad
== '
Ð½ Ð¾
Ġì ŀ
s eq
mea n
v oc
>< ![
ro ad
ĠMem ber
sta ts
al f
Ġtho ught
Ġ( <
web kit
iet y
> '
ĠCa n
S top
> ",
Ġwate r
l edge
à½ ¦
In formation
50 9
j ango
tr as
Ð¸ Ð¼
çĽ ®
loo r
l ear
ix el
ĠP y
Ġì Ŀ
ĠCON DIT
Ġed ge
Ġh ig
app s
Trans form
Lo gin
depende n
Ġ" .
Tra ce
ĠO ne
'] );
Ġinter e
× Ļ
OL D
ude nts
Ġoft e
Ġplace holder
Ø ¹
å Ŀ
ĠD ir
comp a
Ġe qual
åĢ ¼
"> &
Draw ing
Ù ĥ
å® ŀ
cen tage
Ġf etch
Ġfe el
Ġ ĠĠĠĠĠĠĠĠĠĠĠĠĠĠĠĠĠĠĠĠĊ
12 4
Ġe m
de velopment
Ġb r
Ġproduct s
Ġs ecurity
ĠG oogle
so cket
ea ns
Ġofte n
Requ ired
Ġper formance
pk g
xs l
12 1
s tu
P M
un ity
ĠY our
de code
gene rate
Ð¾Ð ³
ĠA ny
20 11
ĠS pec
B ut
Ġfo cus
Ġbe lie
Ġf mt
sk ip
Ġimple ments
o rs
ba n
ĠÃ ł
Ġra w
Ġm ys
S ig
Ġde ploy
Mat h
Ġro ute
ĠCONDIT IONS
Ġknow n
Ġu na
f ire
Ġed it
Ġ Ã©
Ä ħ
Ġ' {
ä» ĸ
H ow
Ġo ptim
Ġlo w
13 5
Ġw ar
12 9
Ġde pe
à¸² à¸
ĠI d
f eatures
ag ing
Ġword s
ç Ļ
ãģ ķ
Ġ um
RE Q
ĠT R
ive n
Ġ3 5
ĠBAS IS
me nd
Ġ ĠĠĠĠĠĠčĊ
ĠL I
L Y
it ation
Ġprovi des
Ġweight ed
ress ed
ep are
ĠGe neral
is ed
W rapper
velo per
ĠP ython
cl uster
i po
So rt
e nabled
Ġtho ugh
Ã ¨
c to
Ġcl ean
å» º
ãĥ ĥ
WR ITE
trans lated
Ġmeta data
ĠL ine
éĹ ´
40 99
ĠH and
Ġfile name
Ġm is
ĠO pe
RE F
me mory
ĠS H
Ġpoint e
ãģĻ ãĤĭ
Ä Ł
Ġdid n
G O
D T
Pro xy
ab c
14 4
Ð Ł
ri cal
la tor
E ffect
ĠF rame
it ect
é ĺ
g reen
Ġbu ilder
ĠI nst
Re c
Ġallow ed
Ð° Ð»
S M
ëĭ Īëĭ¤
alle nge
tra ck
ĠP M
æ °
å¼ Ģ
SO UR
18 8
Ġsa ys
00 5
C B
: **
ĠR el
Ġb ound
s tat
Ġpointe r
Ġ$ ('#
Ġget ting
attribute s
ĠEX PECT
B ook
la mbda
å §
Ġdown load
Ġbu ilt
ime nsion
è °
åĲ Į
Ġto gether
Ġm ask
Be fore
[ [
rie r
Ġa way
Ġin vest
C rea
Ġto day
Ġtra ck
Point e
= \
Ġ tf
Pri ce
w hen
ç ¼
ĠC H
\ -
:// $
And roid
np m
ig ration
Ġge neral
s b
åħ ¶
ica tor
U ns
P refix
Ġb ranch
Ġlook ing
ĠW rite
Pointe r
Pres e
wh ile
ho ok
Ġdo main
S ample
qu ote
So cket
Ġclasse s
Ġd f
troll ers
Ġ_ ,
L ight
Ġi nsert
Na tive
G A
wo rld
Ġfor ce
Ġ term
Ġpri ce
a bout
ex pect
20 8
Ġbi nary
f etch
17 5
plai n
åĨ ħ
Ġmod ify
ĠL e
Î ¼
Ca ncel
Ġins ide
Ġba tch
be rt
Ġ{ };
counte r
De s
licat e
B r
;; ;;
t ee
Ġb ottom
Ĥ ¬
15 7
; }
ìĿ ĺ
Ġof fer
b ut
13 7
ĠP romise
g z
Î »
ä» ¬
ĠI tem
a mount
va ble
Us age
gra dle
com ments
lowe r
Ġ ĠĠĠĠĠĠĠĠĠĠĠĠĠĠĠĠĠĠĠĠĠĊ
ĠG ame
Re p
ĠSO FTWARE
S core
il a
Ġre com
ili nx
i val
Ġapplication s
ãĥ¼ ãĤ
tr l
Ġv olume
Ġe nc
_ (
mat ic
wa p
compile r
Ġsever al
B L
Con nect
Ġbe ne
LO CK
Ġta b
iv o
P lay
Ð¾ ÑĤ
al ity
ori gin
Ge n
I A
Y e
Ġ( {
ass et
Pri vate
end ing
al lation
ax is
ĠG u
Ġin valid
s ync
compl ete
N ow
Bo rder
ition s
AD D
ha nk
ine r
Ġfa ce
d river
Character Offset
ip s
) ",
uni que
% (
ĠUn less
ĠC HE
ran t
Var iant
/ _
æľ Ģ
ce rt
S election
é ľ
utho rs
CON FIG
all el
Ġa ria
po licy
Ġ3 4
com ing
å° ı
V ec
Ġ ĠĠĠĠĠĠĠčĊ
Ġh i
ff f
Un ity
11 3
Ġ' ../
ãĥ ª
Ġ" _
ĠT ABLE
perso n
Ġl eg
~~~~ ~~~~
14 5
Ġre pository
agen t
Ġ4 5
Ġ tell
Pro gress
D et
Å Ļ
Align ment
ma cro
G ra
Ġle s
\ ">
ĠH ttp
\\\\ \\\\
Ġcorr espo
I LE
ĠK e
na m
pro xy
Ġde al
ĠState s
Ġ{ %
Ġmo ney
sub ject
ig nore
object s
li ve
van t
ive ly
Ġcon tain
k g
he aders
æĽ ´
é ħ
pro tected
E Y
ĠI ns
ĠT able
ff ix
ĠM ark
Ġpro file
lates t
ãģ ĵ
Ġmark et
sy m
* ,
Ġtemplate s
ç Ħ
ç« Ļ
Ġl iste
utte r
go v
bri ef
ho use
D i
ĠS E
HO ME
b its
Ã ¥
PASS WORD
) [
× ķ
éĥ ¨
ĉĉĉĠ Ġ
IGH V
è® ¾
Î ·
vance d
Ġ( [
command s
á ¼
ĠThe n
Que s
Ġe v
IGH J
Ġcommun ity
Ġ\ \
ĠPat h
AR G
à¤ ¿
ida tor
Cen t
ĠK o
ea ther
25 4
Ġme rge
Ï ħ
if def
dependen t
D L
b us
Ġst udents
ra ys
2 30
fo l
Ġsh ared
=" <?
inge r
time out
S m
Ġ20 13
con trib
co no
TR UE
Ġpro tocol
F ree
Ġdir ection
LI ST
reate r
i cons
S plit
t body
00 3
b ash
Ġm ip
sc roll
Ġs chool
e u
gg reg
S ingle
Ġani mation
åĬ ¡
Pro tocol
b io
Ġs ocial
20 3
ĠDe scription
Ġy e
IN CL
Ġ à¦
Ġens ure
../../ ../
O ST
A UT
ca tch
INT ER
20 7
Qual ity
UN D
s amples
na tor
2 40
N C
Ġm issing
ç ķ
t z
lo op
F lag
ĉĉĠĠĠ Ġ
Ġdis cuss
U ri
trans lation
ĠFi eld
a bs
ä½ ł
style sheet
Con tact
type of
de pth
nanc ial
Ġ' #
ĠLa bel
i us
Ġp ush
âĸĪ âĸĪ
ze n
ua n
t cp
col umns
r ry
sha dow
ĠUs age
/ {
Ġres earch
Ġpro gress
label s
Ġa ppend
eque ncy
ĠRe sult
ĠS elf
i mp
Prin t
à º
all back
Sh arp
org a
Ġattribute s
Ġ ĠĠĠĠĠĠĠĠĠĠĠĠĠĠĠĠĠĠĠĠĠĠĊ
fe ed
Ġse ries
ed u
Ġdis tance
log o
è¯ ·
ef fect
æĮ ĩ
Ġe sta
Ar e
C M
Ġs us
The me
14 8
che me
h us
pp y
Hint Path
ars hal
Ġel ect
dy namic
Ġbu f
Ġdes ign
Ġpi n
é Ķ
ro r
Ġin Weight
Ġout Weight
Ġweighted Mode
Ġ" @
ID TH
Ī ĺ
A lpha
us tral
Ġalt e
Ġ train
CHE CK
ÐµÐ½ ÑĤ
C ho
Ġde v
fo cus
ĠUnit ed
Ñ ī
k ely
Ġex act
Ġnot hing
Ġm u
L S
20 4
ment al
ĠA ug
ĠR eturn
s up
S olution
Ġb asic
åº Ķ
ãģ ĭ
P lease
G T
Mo use
Res ults
sub str
Ġwho l
Ġ3 6
La t
} >
E nable
ON T
ĠP oint
à¤ ¤
D ynamic
Ġre set
( #
ica ted
Ġqu ick
j u
à µ
000 1
ĠCHE CK
Ġ layout
Ġwhol e
Ġat tr
Ġe r
] +
ĠH ash
Ġa mo
> ::
] ))
we s
fo und
yt ics
Id s
15 24
iv ing
cus to
G ER
ĠQ u
Ġ' .
Ġcharact ers
è¿ Ľ
ĠMi n
14 9
assert Equal
Ġf low
ĠS tatus
Ġf ront
To ols
mid dle
hy p
ree ns
19 0
id o
ua t
Ġr ules
15 8
Ġnull ptr
(" %
Ġset s
b asic
N P
W AR
w ar
ĠRe sponse
13 9
, </
v olume
Ġu ri
Ñĥ Ð¼
Ġre mote
V i
ri cs
17 2
ĠG it
Ġnecess ary
Ġ( `
time stamp
Ġ-- -
%%%% %%%%
ĠJ e
Com ment
ĠÐ ±
Reg ion
U nknown
Ġf it
if iers
Ġ ts
Ġst eps
TH ER
Ġma jor
A F
Ġco ver
vi a
ise s
em ale
de finition
Ġa ff
15 5
S can
ĠCo mm
æĪ ·
Ġstu dy
ĠC ha
b ig
äº ĭ
g y
16 7
é ĸ
p ital
lo ts
get Element
\ ",
li bs
Ġfor ward
type def
Ġ Ġĉ
Ġc li
Ġan ything
ma naged
Li b
S croll
æģ ¯
ga tive
ri ed
sc al
I dentity
Ġlo ck
rd f
Ġk a
Me sh
M ulti
Ġeas y
Ġ ng
ĠV ar
13 8
Ġins truction
20 1
Ġco mponents
ube rnet
Ġ9 0
Ġs ql
ĉĠĠĠĠĠĠĠ Ġ
lo ca
ven tion
4 10
Ġ username
Cent e
(" \
ubernet e
de ploy
Vis ible
user content
ĠI F
Ġ rows
Ġal ert
Task s
gra d
Ġente r
Ġs up
sy mbol
ubernete s
C reated
ĠP ost
assert Equals
H P
A bstract
ec tories
ĠApp lication
n valid
200 9
Ġ ĠĠĠĠĠĠĠĠĠĠĠĠĠĠĠĠĠĠĠĠĠĠĠĊ
= -
p lan
kw args
ĠO ver
Ġc ity
Ġs tory
w indows
eri f
Ġco nc
å° Ĩ
Ġh idden
ĠC LI
uthen t
ĠRe move
Ġto ols
ç¬ ¬
Ġb rowser
cl ean
çł ģ
ul ly
E OL
Ġdirect ly
rite ria
ĠCount y
æı Ĳ
2 33
åĪ Ĺ
14 3
i nvalid
ĠS ep
ĠMo r
H igh
16 5
E ST
ht docs
åĮ ĸ
Add itional
å½ ĵ
Ġw rong
um my
Ġassert Equals
( %
p d
Ġcol umns
ĠS u
Ġst ar
Ent e
12 6
Ġs upp
nde ring
So me
ĠO ff
C la
Ġvis it
V ideo
æĸĩ ä»¶
Ġm ut
Ġpe rs
Ġv ol
I X
Ġg it
æĪ ĸ
Not Null
Ġ' ,
Ġque ue
L IN
D ay
Cl Include
iv ities
Ġ tea
el low
NA BLE
Cl uster
ttl e
B Y
Ġpai n
Ġnum bers
Ġta gs
Ġ third
Ġun less
ä» £
Ġcho ose
co urse
Ex ample
ãĥ «
20 5
ĠW H
RE CT
Ġp ote
Ex port
t ure
pa i
ĠS p
v et
Ġro om
e mote
H ead
Ġgo to
up dated
Ġne ar
Ġa x
å ģ
Ma n
Ġ% >
ĉĉĉĉ ĉĉĉĉĉĉ
V AR
cri pts
IL D
& &
å¾ Ĺ
18 7
Ġreg ard
fin ity
Ġw arning
ha d
depende ncies
Ġp ick
ĠD O
ĠY o
as is
Ġ20 12
iste red
ra nce
C ert
Not ification
Ġan t
åı Ĥ
åį ķ
a ting
Ġ* ,
dis abled
Ġc ame
if ndef
=" ">
m ys
çİ °
Ġwo n
rro w
ope ration
dl ew
taine rs
k y
Ġ4 8
Vert ex
Ã º
ro t
d x
Ġass ign
âĶĢâĶĢ âĶĢâĶĢ
B IT
Ġ3 7
ĠOption al
ä¹ Ł
ta s
Ä Ļ
CO VID
r ew
e ign
Comp ression
ĠMa ke
ĠCom mand
% "
X FF
Ġs tat
Ġ"" ;
O ther
ĠMa i
Ġm ind
S pan
Ġaction s
S peed
Ġca ncel
Ġspec ify
] ),
Ġdi ct
Cente r
** :
$ ,
> `
Ġpro to
Ġundersta nd
mediat e
Ġp ad
Ġ$ _
" \
Ġc lip
¸ °
ro uter
ĠF rom
et c
Ġdest ination
? ?
Ġbuild ing
Ex pr
Ã© e
c han
pro c
é Ĥ
T S
DE FAULT
new s
I ME
ced ure
B asic
Ġat temp
if ies
Ġever ything
ĠO THER
d ashboard
Ġf eed
i nf
Ġma chine
ĠCh rist
is a
æ ¸
c pu
) ](
reference s
State ment
3 60
Dir ection
Ġf lags
} `
UR I
are s
ni x
Ġca use
a udio
ĠWo rld
b um
ĠInde x
++ ++
valid ation
P u
ya ml
Ġlog ging
r x
T ION
d ro
ĠHT ML
Ġ# [
Ġ âĶ
n h
fo ld
Sy mbol
Ġ" ./
poly gon
ri zontal
log ging
Ġis n
ë ¦
to Be
j et
ch ie
Ġp lot
40 4
7 00
ang ular
ĠØ ¨
con v
O ptim
ĠC hange
Ġexec ution
Dis tance
Ġprint f
Ġ Ñĥ
o ps
Ġs plit
scri bed
du mp
() ));
nd idate
R IGHT
Ġuse ful
ques ted
r um
em i
Ġto rch
Attribute Name
íķ ľ
Ġs tra
2 64
U DE
Ġmax imum
El ements
Ġco nse
Inter val
f il
13 4
his tory
dir ection
e rc
group s
ge rs
Ar ch
D ictionary
Ġtrans action
ve y
Thread ing
Ġde let
Ġremove d
A E
github usercontent
u uid
ars ed
; &#
Ġgroup s
n ies
Ġc ross
() ))
Pa ir
Ġ' %
19 9
Ġfur ther
OR S
ĠA ction
la pse
no me
åŁ º
ĠC lient
Ġva n
=" $(
As m
ì ĭ
Ð¾ Ð½
Ġres pect
n ight
s d
Mo r
Ġ testing
Ye s
local e
Ġseem s
STR ING
vis ible
cl us
Ġbe havior
F UN
co ordinates
SC R
Ġrequire s
b et
ä¾ ĭ
Ġtry ing
Ġres t
2 18
ë ĵ
o ry
F ragment
ĠFile s
17 0
)| $(
f lat
ce iver
i ny
a fe
Ġ" [
à¥ Ģ
message s
æ ¡
ãĢ Ģ
13 6
ro me
W I
Ð Ĳ
na ted
g oo
Ġ è
Ġf und
fra ppe
ori ginal
'] .
Ð ĺ
hyp hen
Ġri sk
lu a
l us
wa n
Ġper form
r uby
Å ¼
de p
ite rator
O w
wa tch
ven tory
ĠK EY
n r
Ġstring s
2 34
Ġd rop
s lice
Ġper mission
' "
Ġcrea ting
Ġlate s
Ġope rations
Ġ}} </
mo bile
Ġ" >
Ġimp rove
Ġa bsolute
Ġcon taining
B ottom
R C
B AR
Ġlates t
Reg istry
ĠN ational
Ġp ast
Ġcont inu
ara n
sident ial
ma ins
Ġs peed
pe rature
dis able
A K
de mo
3 64
ĠMai n
Ġof fi
g ui
Le n
15 4
tri m
Ġcon troller
Ġans wer
Mod al
fi ed
éĩ ı
BA SE
Ġho urs
ow l
Ġres p
che rs
Ġval idate
STAT US
t hreshold
Ġincr ease
Ġpr ec
Ġs tri
S ur
Ġa void
? "
Ġread ing
Ġsh ift
ON G
16 9
pri l
Ġthe me
no ny
ĠD ec
un der
po l
åħ ³
display Name
Ġtime out
Ġ5 00
pea ker
ĠB E
. ");
Gene rate
getElement ById
k k
Ġê °
Ġtake s
ma pping
ĠO ther
Ġfo ur
G EN
del ta
ĠF ree
i j
h ub
Ġmat erial
pi x
Ġd river
el a
one s
n herit
is tant
Ġlo wer
ie ce
t witter
Ġo pt
Ġgu ide
Ġprovi der
i nherit
* (
Ġind us
mo tion
ĠAmeri ca
A llow
Ġma g
LO W
Ed ge
ic ker
à ¶
Ġ# {
ĠM ed
a tt
Ġi l
38 4
Ġpri mary
f ast
ĠFound ation
Ġpro per
eri als
================================ ================================
m n
éľ Ģ
} _{
20 9
Ġp ress
be n
ĠA L
C md
I nst
loc ity
Ġac cording
Ġb l
n tly
At tr
Ġ[ {
ngl ish
15 6
ĠB ack
uat e
po ch
A MP
u ed
con n
Ð ¶
Ġlear ning
Ente r
Ġexec ute
el come
nis ation
Ġa xis
C loud
T AG
$ \
ĠÐ½ Ð°
Ġlo nger
à¸ Ń
F ALSE
16 4
M id
Ġ termi
No des
Ġco ll
fe rr
ĠV M
Ġma nagement
Ta gs
ĠMo d
19 7
M IT
Ite rator
c ame
ow ner
compa t
D uration
Ġtime stamp
17 8
I g
e view
rag ma
db c
Ð¾Ð ±
200 3
Ġvar ious
ea ut
ri n
ĠS tore
\ .
Ġa bstract
ä½ į
t uto
Ġp lt
Ġs ol
,,,, ,
A mount
Ġautomat ically
ĠE xt
2 32
rel ated
Y Y
Î º
à¤ ¨
Ġnew s
mb ols
ge nd
up t
> {{
ea ms
Ġtr eat
Ġho use
ãĤ Ĭ
Ġb ring
ç ©
ext ra
type name
Mat erial
Ġ ul
éħ į
Ġdif ference
pro d
nav bar
Ġ Content
Ġsecond s
nde rs
11 11
ãĢĤ </
] ['
VAL ID
14 6
ì§ Ģ
37 7
^^ ^^
T h
Ġide a
ĠOut put
la i
Ð°Ð º
ele ments
un defined
ĠC ity
Ġho pe
ä¸ »
r ra
S ee
r native
Ass et
sa fe
a z
="' $(
w ers
ìĦ ľ
per iod
fac tory
Ġits elf
ê° Ģ
] "
Ġbo ard
17 7
de co
Ġf s
Ä ĩ
pro gress
ĠU N
2 25
FI X
pre v
nit ary
} ",
R andom
N ume
ĠMet hod
æŃ ¤
ĠLo ad
bu ndle
ĠRe source
à½ ²
à¯ į
for Each
S UB
Ġdis tribution
al o
Ġ" {
Ġpay load
Ġint ro
Ġa da
r emote
fa ults
is set
Ġow ner
ĠP os
g lyph
ĉĠĠĠĠĠĠĠĠ Ġ
Ġh ar
ri f
ĠG ra
jo y
ĉ čĊ
g p
W IN
Ġex tract
Ġp d
19 5
Hea ders
Ġga t
Ġsee n
Con tract
Import e
Ġred irect
up licate
as m
Ð¾Ð ¹
Ġproba bly
i mate
nu ary
H tml
ta bs
15 2
Ð» Ñı
14 2
I mple
config ure
bil ities
process o
Ġco mes
bs erver
F ill
æł ĩ
Ġrel ationship
Ġcur sor
i Ã³n
zz y
ĠO r
Ġstate s
Ġs po
ext ernal
= %
Mon t
ro no
ç ³
Ġe nergy
t ele
Ġi p
Ġproject s
E nume
Ġra ther
ĠA fter
Ġ3 8
e sidential
go to
r esidential
rat ive
log ic
b ranch
pris e
t id
art h
åĪ ¶
Ġar r
18 5
Ġre po
am ily
nipp ets
blis her
ĠTe ch
ãĥ Ĺ
Ġro und
va cy
P ower
Ġ' ';
Ã¼ r
ex pression
IL Asm
oc iation
comp any
æŃ £
Ġ0 1
el ec
22 4
Ġstate ment
processo r
à½ ĳ
Ġpro ps
50 8
ot lin
cy cle
XML Schema
A udio
é ĥ½
B ound
a ml
Ra w
ãĥ ©
ĉĉĉĠĠ Ġ
ĠU SE
ga n
Ġques tions
-------- --
L D
ĠLi nk
li ct
r ules
Re al
Ġpo pu
N ING
17 9
Ġw rap
gu ide
ĠPro cess
IN ST
code d
Ġlear n
Lim it
co ut
00 7
ĠCo mponent
C UR
do r
________ ________
Ġa uth
- (
B D
x F
Sho rt
é ļ
ist ic
A gent
m ing
Ġ0 9
Ġm ulti
der r
éĩ į
Ġqual ity
prec ated
Ġv s
hes t
gra mm
ĠW HERE
Ġu pon
** *
Ġsub s
Doc Id
Ġ% (
C CESS
Ġ Ä
-------------------------------- ----------------
de livery
load ing
19 8
Ġma naged
EOL hyphen
g md
]( /
C G
pri a
åĽ ½
dlew are
Ġus age
4 48
Ġ ÙĪ
66 2
Ġ ÏĦ
Ð½ Ð°
mo use
Valid ation
Ġsho ws
Ġinstance of
Tra ck
16 6
Ġl ar
Ġ ĉĉ
pe g
T F
ĠP ar
h ar
Lin q
Ġ nat
rec tangle
m x
Ġlo gin
s bt
Cl ear
b and
d n
ĠE uro
Ġadd ition
arch ive
B ean
Y ear
66 7
Ġanal ysis
seg ment
ma ny
\ [
B l
File Name
Ġ3 9
ps ed
C MAKE
â ķ
17 6
Q t
D rop
Ġident ifier
CON T
ĠW i
Ġre fl
æ¨ ¡
yn the
ĉĉĠĠĠĠ Ġ
as p
åĽ ¾
Set ting
Ġa ir
Ġ'' '
Ġs ea
ÑĨ Ð¸
80 80
w all
Ġcommand s
r tion
His tory
lo od
J P
é »
Ġend if
i vate
Ġb ra
20 6
Ð° Ñģ
f et
Ð°Ð½ Ð¸
Ġve rify
Ġmo ment
ĠLo ng
G it
Ġh ide
A ST
Ġsk ip
Ġindivid ual
B ind
ĠEx ec
Ġ ut
---- -
Ġpage s
d os
key word
u ff
(" .
li der
Ġstro ng
Ġ 75
Ġig nore
RE D
u ck
ype r
Ġ0 8
Po p
ĠG ets
G radient
Ġs pan
lle ge
ĠG a
ist ing
x E
Ä Ľ
Wo rld
Ġact ivity
ĠS ET
nch mark
Ġsig nal
Ġr eader
å ķ
Ġx mi
Ġcompl ex
s erv
è§ £
V olume
S W
tach ment
itect ure
æ Ł¥
tho ugh
è ¢
Ġpos itive
Ġb ug
pria t
wes t
Ġma nu
pl t
Prese n
y ou
log ies
CO UNT
ffff ff
S im
A U
g b
get Name
em bed
Ġlabel s
ara nce
r eview
j query
if i
Unit s
Ġh y
Ġta ken
Ġstart ing
Ġsystem s
check ed
à¸ £
åħ ¨
mo z
ĠArray List
'=> '
Ġmin utes
Ġh alf
bse rv
SOUR CE
à ±
Ġtype of
comp are
Ġfri end
ĠAmeri can
Ġì ł
Ġcall s
Ġwa tch
Ġn ume
Ġp s
} (
pr iority
ĠD ep
el t
Ġ ðŁ
Ġ' -
Ġe spec
g ue
ia ns
iz able
lo p
Ġ$ ("#
00 8
00 4
p is
ile r
V ICE
ro o
Ġ ĠĠĉ
$ $
A uthor
Ġe q
arte r
äº Į
Ġ tro
Ġproblem s
é «
Line ar
Time r
ĠS erial
w eek
] *
Ġ tw
Exec ution
}} </
k nown
2 60
pp b
S G
ĠF l
we et
Ġdepende ncies
Ġrespo ns
Se ason
ãģĹãģ ¦
200 8
Ġpart ici
Ġ kernel
K it
Map per
Ġc x
A ppend
18 9
as i
ĠB lock
ĠC reated
' ">
ÐµÐ º
ãĤ ¢
ĠMember Name
Ġlink s
Ð¡ Ð¢
** .
CRE ATE
Ġgover nment
2 35
d ark
E NABLE
17 4
v p
ĠJ ust
ier e
æĺ İ
Ġy ield
Ġs ignature
å ĭ
Ġinstall ed
link s
ri ved
Ġtur n
U i
Ġb la
ĠA UT
drop down
ĠS upport
En vironment
bser vable
tem ber
Ðº Ð°
ĠN ow
ques tion
ĠMa x
cons truct
Ġex c
ul s
L ea
pay load
======== ====
Ġdis abled
p ies
Ġpo ol
du ction
lat ile
Ġi ll
çľ ĭ
[ -
ĠFi rst
èĢ Į
des ign
hos e
P hone
Ġwe n
ump y
rit ical
Ġd uration
Ġimple ment
æ¬ ¡
e mpor
Å Ľ
à¤ µ
ĠJ son
pa nded
ĠD eve
" ];
ex amples
tribu tions
Ġm usic
J oin
Ġb log
ãģ Ĩ
Ġfo od
4 55
co i
Ð¾ ÑģÑĤ
trans action
13 1
e stri
Ġj oin
En coding
pe dia
Sho uld
me rc
ĠS elect
Sta ndard
custo mer
ĠT r
ST ATE
AP P
h d
ec a
pay ment
Ġres olve
Ġ tick
ĠI MP
E s
V O
b old
Ð°Ð ²
ç» Ħ
éĻ ¤
Ġpackage s
un ce
Ġname d
15 3
ìĬ ¤
******** ****
are nts
Perm ission
po wer
Ġnote s
Ġcomp ression
W A
ru ns
t empor
ur ance
Ġ4 00
unk nown
Ġpe ak
pla ys
Ġf ire
W H
l iteral
18 4
Ba tch
lation Token
çĽ ¸
Ġs tored
et h
Ġs cene
mai ning
Ġsome one
ĠB Y
è ±
qu ad
AT CH
F ix
2 80
ĠH ome
Ġ cen
ĠService s
she ll
Ġtrans late
ct ure
il ling
pro t
Ġcon tract
ic ult
ĠYo rk
Ġsimp ly
Ġwrite r
Ðº Ð¸
ĠS m
Del egate
Ġw p
à ·
nde n
Ġ4 2
ĉĉĉĉ Ġ
Ġwen t
Ġm ass
a ce
Ġpar ts
D P
sta ge
æ ĵ
ĠB i
c lone
corr ect
-> _
Y ES
irc um
fl ue
rs e
Ú ©
U ST
ĠÐ ¡
` :
........ ........
ch art
Ġcha i
vo r
ĠB ar
Importe r
æľ į
* .
: %
ncip al
me tric
22 9
ĠPo rt
cen ario
æĸ¹ æ³ķ
Ġcur ve
ly ing
we some
ĠEx ample
ho ds
OR K
Ġ 99
; )
el ves
bes t
Ġye s
d m
coi n
G IN
à¹ Ģ
ĉĠĠĠĠĠĠĠĠĠ Ġ
Ġd ynamic
D river
var iant
cur sor
Ġwa ys
Sta ts
Ġ ).
å¦Ĥ æŀľ
Ġs can
] }
Ġtri gger
Error f
V o
Re set
for ward
ĠCon trol
Ġre aso
cro ss
ĠB O
Poi nts
16 3
B ig
B F
over ride
li de
t err
d art
Ġin k
Te rm
pro vi
S cal
z i
di n
v y
] \
ĠM O
cto ber
Ġ 65
Ġh it
ĠC all
e vision
p ho
Ġla nd
r esp
rea der
sq rt
ad os
ack son
Ġrea dy
F r
Ġco nd
c raft
ĠD A
Ġbelie ve
Named Cell
S ite
Pro to
A xis
ce mber
r evision
å· ¥
ione s
Ġfo o
() ),
ffic ient
Ġ7 0
ex tras
": [
à¸ ģ
Ġmont hs
ĠI lluminate
A li
i nv
ç³ »
Ġ- =
ĠHand l
Sa ns
Ġmin Occurs
åº ı
Ġamo ng
l emma
Cur ve
Ġout side
a nimation
I nstall
pro gram
Ġta x
Ġrg ba
ali as
graph ics
En v
ĠM arch
à¹ Ī
Ġf ee
Ġli braries
Ġreg ular
Ġsy mbol
sche dule
ĠCen t
ãĤ ī
Ġbu y
2 11
n iz
br u
Ġ20 10
c rea
17 3
------------ -
L C
q q
ca tegories
part y
IB UT
Ġli kely
ud it
ĠP i
ustral ia
å· ²
it t
ãģ¾ ãģĻ
T ile
me sh
Action s
è £
Ġ1 80
Wh ite
×Ļ ×
Ġapp lied
Ġc p
Ġprocess ing
K EN
gat e
err ed
)' =='
Message s
Render e
ident ifier
ç ¾
Ã ½
CO MM
19 4
LE TE
Ġwo men
Rendere r
ï¼ Ł
ĠN etwork
è ĭ
ç» ĵ
ve mber
d ri
head ing
14 1
Ġ1 28
ca ncel
ns ions
project s
ad ded
n ct
alle ry
Ġde velop
Ro tation
Filter Database
Ġm illion
) $
n ÃŃ
ck ets
it ution
ra cle
æ º
CO M
Ġear ly
graph ic
Convert e
Ã¶ r
alle r
ĠDel ete
I nsert
w rit
name d
3 50
Ch art
n teg
ard s
set s
ava ilable
M C
r estri
Converte r
H R
tr un
m ulti
x ilinx
AN CE
s pe
Ġhig her
p ragma
' }
bin ary
ceive d
Ø§ ÙĨ
no red
16 2
style s
Ġ ----------------------------------------------------------------
Ġs trict
Pro v
Ġ ĠĠĠĠĠĠĠĠĠĠĠĠĠĠĠĠĠĠĠĠĠĠĠĠĊ
is ta
im ing
è ª
prese nts
icate s
Ġcount e
Ġop port
n tro
S chedule
) -
à¤ ²
ĠG lobal
Ġ native
up s
had oop
ĠHe alth
for d
Ġsign ifica
ĠT ri
End point
Sh ared
3 65
Ġ} }"
b nd
dir ect
ĠO k
dat etime
L ook
wh ich
Ġmod ified
æ ·
ynch ron
and o
Ġ{ \
) +
G uid
ĉĠĠĠĠĠĠĠĠĠĠ Ġ
é ķ
we ver
åŃ ¦
Ġed ges
as a
è¢ «
ĠO UT
à¤ ķ
MA P
de lay
åħ ¬
da ys
Ġb lue
Ġc ut
a jax
Ġsug ges
ĠX ML
= {{
İ ·
hi n
0 25
% ,
i nteg
m il
t ence
); "
vo rite
s n
ĠS ie
è Ĭ
Ġappro ach
x min
ĠJ une
2 37
å¥ ½
s cene
SCR IP
fa iled
Ñģ Ñı
Ġn ight
Ġn umpy
nc ia
I Z
Ġp hone
Pro p
Y our
Bin ary
Å¿ t
Ġc ustomer
Ġa verage
22 8
S to
P D
P lan
Ġd y
Definition s
i ary
Ġp hoto
Ġ20 11
Ġvalid ation
éĢ ī
ds t
priat e
ĠS ecurity
å¹ ¶
Ġde sc
u ction
Ġfail ure
w hat
æ ´
M ed
Ġ3 00
I MP
ĠA nal
Ġ ĠĠĠĉ
vide nce
33 3
n coding
un tries
out ube
PI O
ĠH E
200 7
Ġline ar
s erif
AR D
d ash
S ign
ÐĶ Ð¾Ðº
v oter
y min
Ġdis able
c urrency
Ġali as
G oogle
Ġuser Data
Ġa go
Ġ ãĥ
Ġpl us
f lu
; \
Ġto ok
Z one
T ick
E rrors
r ase
Ġ tu
Ġcom ments
fig ure
> /
i ni
ĠT hanks
P erson
x max
L ower
Ġdo cker
Ġma nager
g ot
Ġapp s
ĠPro duct
Ġvert ical
ÐĿ ÐĿ
2 39
ĠD ouble
na da
pro j
ad oc
ct xt
R UN
=" ../
ĠF ri
UD ING
ro us
Ġpu blished
vis ual
Ġsuccess fully
å¸ Ĥ
ĠFrame work
ci Ã³n
ou ch
ro u
Ġversion s
ãģ £
r ns
Ex ists
Ġdec ide
AS H
Ġtrans ition
22 7
A cc
19 6
ist ence
y max
Ġde velo
mem bers
Ġcho ice
å ł
çŃ ī
v r
e ncoding
Ġinitial ize
gi nation
ĠHer e
iv y
gene rator
Down load
ĠG raph
×ķ ×
Ġso n
index of
UE ST
T eam
Co nstant
She et
Ġho wever
qu o
Ġsa ved
ĠB it
ĠMor e
---- --
Ġsepara t
Ĥ ¨
Anal ysis
Ġse nse
Link s
Ġdif f
27 0
ix els
n us
Ġtop ic
ut ine
HE AD
p itch
iga t
Ġde lay
Co ll
Ġ ĠĠĠĠĠĠĠĠĠĠĠĠĠĠĠĠĠĠĠĠĠĠĠĠĠĊ
Time s
v ars
2 38
à¹ ī
r val
nc ing
ĠHandl e
Ġprof ession
Ġde gree
is ing
Ġpa nel
e ven
W here
~ `
D iagnos
å® ¹
IM IT
ï ¿
Seg ment
vert ical
" ].
ar ison
rel ative
à½ Ĥ
time r
Ex tra
ĠLoc al
E P
ori zontal
op ts
K a
Ġsho wn
Ġ4 4
è¯ ´
2 10
Ġf lu
Ã µ
Ġper centage
v ue
ners hip
ĠC OL
Ġg lyph
scrip ts
N ECT
Ġ ns
ĠJa nuary
Ġb its
dis tance
et ype
ãģ į
Ġfu zzy
Ġconte nts
Cons ole
sig nal
Re fl
De v
loca tor
Ø Ń
B ra
="@ +
Ġ ../../
Ġpol y
Ġ[ !
åĮ º
ĠR ow
ĠWe s
k ed
m ma
ĠCon vert
Ġadd ing
æ± Ĥ
Ġ tx
æĥ ħ
Ġpro p
ĠCent e
] ->
} ^{
ĠMo dule
Ġop ts
ä¸ ī
Ġget s
She ll
B us
ĠA pril
> ()
! "
cel e
Ġpur ch
Ġac cept
oc us
Ġme asure
ìļ ©
ĠL ay
Conte nts
arg v
Ġre cogn
tribu tor
In finity
not ification
r w
p ing
truct ure
ch unk
Å¿ e
Ġtrans fer
ĠL com
æľ º
18 6
ĠS chool
Ġlea f
b rowser
Ġimp act
ve rify
30 7
c lip
ĠIn formation
T X
A ngle
the ad
ig ns
h ind
CP U
Ġdepe nds
Ġso cket
P ython
Ġe i
C ity
P ress
22 2
Count e
comp ute
Ġs pa
L oop
Not Found
^ {\
´ ë
r kers
Ġ- &
tra t
note s
32 7
K o
arg uments
g if
no mi
Counte r
,,,,,,,, ,,,,,,,,
Ġco llect
lo cate
åı ·
Ġsta ge
ĠCON TR
": {"
Ġf ast
40 9
Ġsa fe
Group s
Ø ´
ä½ ĵ
Re mote
eri fy
( /
Ġta king
å ¢
k l
RES ULT
ĠSho w
æĦ ı
R eturns
Ġprodu ction
]( ../
ãģ Ĥ
2 20
ĠCons ole
na tomic
Ġb us
los ure
) ?
Ġs chedule
lic ies
vert ex
] </
MA GE
å¸ ¸
ĠL android
ba nk
EL D
ĠF ind
Tri gger
table s
Ġ Query
Ġso o
O FF
ĠS k
Ð° ÑĢ
Ġj a
æ ®
g nu
ĠE RR
' \
app l
all s
Ġend point
30 5
fo ny
nce pt
ĠRe port
26 5
Ġ tem
u tation
Ġup per
co nstant
ic ht
Process o
å® ī
32 8
f its
Ġhe art
éĩ Į
éĹ ®
Instance Of
Row s
Ġen ume
me trics
Ġi ss
åħ ĥ
24 5
for mer
# [
o ptim
p al
ll s
V C
hi na
t bl
Ġdif fic
Ġcounte r
el li
Ġb ind
ura n
P red
ĠCente r
Format Version
ment e
f w
Ġpret ty
ĠDate Time
Ġb g
UL AR
ĠS earch
Mor e
24 8
draw able
Ġd ialog
Ġass ume
s quare
Ġvis ual
Ġlook s
Ġs amples
æĹ ł
t mt
Ġma pping
ĠG MT
s z
Ġw idget
up per
Load ing
spo t
C AT
ĠA SS
Ġtype name
.. ."
ĠÐ ŀ
"> {{
bru ary
so c
t eps
æľ Ł
ier arch
MA G
è± ¡
hav io
S ide
Processo r
A lte
Gene rated
Ġfin ally
r as
ĠE ND
} "/>
co llect
set ting
man tic
F e
Child r
V u
nen t
Ġ ÑĢ
ĠD ay
ê ²
ĠJ uly
Ġg ithub
Test Case
write r
Ġpro grams
Ġ ĠĠĠĠĠĠĠĠĠĠĠĠĠĠĠĠĠĠĠĠĠĠĠĠĠĠĊ
åĮ ħ
Ġintere s
rg ed
ul umi
Ġ" '
ĠB ig
Ġtask s
u als
unt u
Ġink scape
fix ed
ir ror
sh ift
bnd box
function s
Solution Dir
Ð¸ Ñģ
NA L
ĠCor e
f la
Ġ/> <
RE E
INCL UDE
30 8
Childr e
Childre n
Ġdiffic ult
âĢĶ âĢĶ
no rm
Ġme et
} :
Ġc v
i ning
ry ption
Pr iority
de nce
Ma chine
à¦ ¾
SS ION
ĠWa t
igat e
Ġinstance s
Ġe f
para tor
ferr ed
Id x
Ġra nk
s peed
ph y
PO SE
He r
Ġa gent
Ġpol it
à¤ ¯
30 4
file FormatVersion
ura t
ex cept
Ġmin imum
Ð½ Ð¸
des troy
ĠRo ute
EN V
rad io
æĶ ¹
si n
Ġca t
Res t
trans ition
s izing
LO AD
ä¿ Ŀ
ns ity
Ġinteres t
ad v
Ġpa per
ys ical
mit ive
IN IT
Ġd ia
ç® ¡
T hrow
ĠC L
ãģĹãģ ¾
Mont h
Ġb ot
] =
Serial izer
ì ľ
è Ļ
ĠL IMIT
Ġc usto
per mission
ĠO S
iden tity
! =
Ġre ct
à½ ĸ
e rval
ĠO f
hang ing
Ġchar ge
ĠMo n
back end
ĠÐ Ķ
ĠAd min
e peat
2 15
Ġ utf
ĠF r
che n
Ï ī
_{ \
li ver
s f
r epeat
ari n
rate s
ris e
Ope rator
complex Type
t erval
24 7
/ #
Add r
ì ķ
Ve r
x l
Ġact ivation
Event Args
24 3
Ġlet t
F OR
32 5
Compl ete
v b
ĠC ustom
em ble
cd n
DI S
F ol
ĠCh ar
F ONT
ĠB ook
æ³ ¨
V A
BU ILD
" ])
200 6
c ion
ct l
Ġpart y
Hel p
æ ¶
Option al
åı ª
S w
ä¸ İ
S yntax
Ġì ķ
Re place
co mpose
çĦ ¶
De sign
me asure
é« ĺ
point e
* -
n terval
åĲ ¦
P oly
los ing
r ders
cos t
c hat
task s
æ² ¡
Ġpro xy
35 8
é ł
N ullable
ival e
Ġge n
Ġqu ite
i nterval
fo nts
Ġen joy
Ġsub mit
Ġcomp uter
check box
Ġout line
åĬ Ł
ï¼ ģ
ĠG ET
ash ing
éľĢ è¦ģ
z h
S elf
Ġg reen
inde n
Ġ 66
." ""
ĠO rder
ss ible
Ġo u
Ġlea ve
am ma
] {
R GB
Ġm ix
ĠAc cess
Ġdat etime
Cons traint
Ġ4 3
Ġ 67
Ġdeterm ine
ĠCo llection
Ġch unk
Ġexp licit
w ide
appl e
C amera
Ġ1 98
s us
ito rs
Ġalign ment
} -
Cons traints
he x
reat ive
bo ost
Ġ] );
Ġp our
pe l
a bstract
Ġorga nisation
á ¿
Ġorga nization
pointe r
AR GET
ĠM IT
ĠEl ement
. ',
Ġ á¼
---- ---
ĠG rid
pi pe
N ONE
å§ ĭ
rt y
Ġ" ../
Top ic
ĠSep tember
v ol
Ġ; ;
ract ive
19 99
unit ies
Ġlett e
ä¹ Ī
~ /
ãģķ ãĤĮ
vet ica
Val idator
ĠH i
Ġma tter
des k
Co s
Ġs b
ĠP ower
à½ ¼
ef f
Ġat ta
è¿ Ķ
RA Y
P K
Ġ ĠĠĠĠĠĠĠĠĠĠĠĠĠĠĠĠĠĠĠĠĠĠĠĠĠĠĠĊ
r de
è° ĥ
33 7
ĠB yte
à¤ ¸
Ġcal ling
F D
ĠÐ ĺ
S cene
LI ED
æĪĳ ä»¬
Exec ute
27 5
Ġe p
G C
ic ial
Ð¾ Ñģ
ĉĉĠĠĠĠĠ Ġ
serial ize
Ġext e
2 16
Ġu ne
T y
SU CCESS
lo ur
ĠS outh
Al ert
Ġlette r
R S
ê ¸°
ar ation
ãĥ Ń
ĠAnd roid
A g
s r
40 7
code s
ĠK a
Serial ization
æľ Ī
ĠP ART
p f
NE SS
app info
Ġ ĠĠĠĠĠĠĠĠčĊ
H older
ha ve
La ne
å½ ķ
v l
mpa ign
40 5
Ġa chie
Ġmsg str
Ġë °
Ġ5 5
g ray
Ġde ep
Ġse nder
40 8
bound s
Ġrecord s
ho ld
ord s
h w
ref l
! /
ss l
r pc
DE X
ĠRe qu
ir cu
Pa ne
E nc
Ġpote ntial
F ixed
ĠL ea
Ñ Ħ
ĠTo ken
Ġrequire ments
ä¿¡ æģ¯
22 6
ĠO ctober
ok ies
Ma y
link ed
ĠT emp
nce r
de veloper
Ġexample s
ĠH igh
Place mark
a wait
] ],
oc ta
Ġsec ret
è ģ
Ġcompa nies
Ġappro priate
åĽ ł
sec ret
diff icult
ĠAug ust
ur acy
Ġ íķ
Ma ny
[: ,
tri gger
e rve
ip ment
Ġ Context
Ġen tries
ĠS ession
ile s
la bo
4 99
P ref
Ġdevice s
Ġc ri
Ġ' "
00 9
ST ART
tribu tors
Ġ Configuration
cl usion
ĠassetBundle Name
us age
Ġsuccess ful
Ġoffi ce
B ad
sh arp
COL OR
ĠT op
us ted
gramm ing
C u
s tmt
go al
e z
=" ..\..\
ĠC urrent
n tence
cho ice
ĠassetBundle Variant
Ġro tation
to kens
Ġc loud
2 12
Ġde pth
la ne
I AL
Fa ce
fa ctor
Ġ 68
f eat
nex pected
24 4
il ities
el em
ĠH ar
Ġ tile
string s
N d
Col umns
Ġsta y
Compile r
ĠData base
Ġds t
Ðŀ Ð
à¸ ´
RE WRITE
C Y
Ġrel e
Ġ4 9
19 3
e sted
24 9
28 8
D ict
Ass ign
Ġ mp
, %
é¢ ĺ
ASS ERT
o nto
ĠDe cember
çĶ¨ æĪ·
Ġent ire
fet y
F B
Ð¾Ð» ÑĮ
ĠSi mple
Ġc amera
msg ctxt
ĠN E
Ì ģ
22 3
L T
Ġcom b
E val
e ason
cl s
y our
A I
u late
Con tains
Ð¾Ð ¶
Ġ0 7
Ġframe work
à¸ ¡
Ġm b
c make
ĠSc ience
tl n
Ġind ices
Ġtech nology
ggreg a
red irect
26 8
80 7
Î ¯
Ġper cent
Fi nal
ÐµÐ½Ð¸ Ñı
tr ument
li j
Z ero
c art
15 1
product s
c as
ma nagement
Ġbi n
ĠS torage
Ge neral
Ġ1 50
Ġ 95
bad ge
rv let
Ġun its
is Empty
åı £
Ġa bs
Ġe ine
men ded
conte nts
Ġf ive
ĠS ize
Ġlevel s
ĠH ot
ĠOff ice
Ġ5 9
Ġ5 4
ãĤ ĵ
eas ing
Ġc b
à¤ Ĥ
33 5
60 9
ir l
x C
Ġup load
Ġimple mented
Ġmat ches
Ġ" ")
Mem bers
ĠC loud
Ġg reater
18 3
Al gorithm
y ml
der n
ca nvas
T wo
IT H
Ã¡ s
m q
30 9
O k
() `
Ġindus try
Ġa udio
ĠC OP
Ow ner
Pri mary
ho od
hel lo
lai n
40 3
line cap
Cons tructor
Ġe cono
Ġmen tion
Ġcomp ute
ĠNo vember
ME M
Wa it
n tel
nav igation
Ġg ue
è ī
ĠTR UE
O O
0 10
Ġatt e
C pp
Ġ| =
ĠD r
end l
E MP
B ER
Ġ" +
Ġma nage
Ġgat e
Ġca pa
Ġvar char
0 16
Cha i
C LI
; <
we bsite
Ġfi nancial
Co mponents
m bo
28 6
è Ī
} },
00 6
Ġpa ir
è ¶
b eans
ur g
Ġs al
Ġfac tory
p hoto
CL ASS
spa cing
ĠL IC
Ġcorrespo nding
let t
Ġ2 000
ĠR ight
t ie
mys ql
Ġin ner
H I
Ġe sse
200 5
: [
Ġjust ify
s election
Uni que
s elector
2 14
QU AL
row n
ri ne
Ca t
Ø§ Ø±
be e
Menu Item
Sum mary
Up load
Ġconsider ed
Ġinput s
ë¦ ¬
19 1
stri p
di me
' },
r espo
v n
Ġcert ificate
I m
Ðµ Ñģ
ĠComp any
Ġfor ms
ĠP arameters
ess e
Sha der
n na
iss ions
2 99
Ġpay ment
Ins truction
S tation
da n
MM MM
Ġne igh
Ġ& #
ê³ ł
4 50
Cur sor
bu cket
Ġ ĠĠĠĠĠĠĠĠĠčĊ
q t
Te nsor
25 8
Ø ¬
sca n
Ġ[ `
ul ta
Ġvo n
C ALL
Ġ4 7
Rad ius
Ġp tr
c ip
> ';
Ġr uns
Us ing
ì ĸ
Ð°ÑĤ ÑĮ
à¸ ±
ĠB UT
S PE
80 8
Ġv io
Set up
Ġd ro
Ġr eta
T x
ar c
Ques tion
(' ./
ta ke
Ġw ide
ç µ
è® ¤
ĠE ntity
> [
ph ase
mi x
ĠN et
/ '
26 7
ÑģÑĤ Ð²
no logies
) ',
pe nse
'. $
ni ma
Ġne gative
Ġus ually
eri s
s pi
Hel lo
Ġcompl eted
Ge o
View Controller
fic ation
XX XX
ĠO ur
Ġsur face
ul ed
Mo no
Ġde scribed
Ġno r
è¯ ¥
ge neral
ext ensions
EN CE
nony mous
è· ¯
Vi rtual
Component Model
ye r
Ġret rieve
å® ¶
IC ATION
the ta
iv ot
Ġcomp are
80 5
Ġweight s
Ġupdate s
Ġconfig ure
Ġwan ted
me try
E A
iso de
com mun
Ġm ig
ivale n
Ġstu dent
Event Listener
è® ¡
í Ĭ
Ġsoo n
s eed
Ġch allenge
pos ts
z u
Ġs ell
z M
ME TH
ivalen t
ch aracter
äº Ľ
6 35
åİ Ł
ven ue
Ġmay be
G ui
Ġ0 2
Ġp ref
li k
ĠJ S
I mp
Ġd as
=" ../../
ĠSt ep
= ${
e ne
Ig nore
29 5
Ġl ean
à¤ ®
ĠT h
ĠNo rth
Ġre ject
ĠWo rd
Des t
Ġ çļĦ
ç ¡
2 66
trun cated
Ġespec ially
ãĤ Ĥ
Ġtrans lation
A ppe
m ult
( .
Ð² ÐµÐ´
A rr
reg istry
Ġb alance
æĶ ¯
ĠS tu
s teps
n voke
32 9
B lue
à¸ ķ
ĠD own
9999 9999
30 3
cu late
lear n
ul k
Ã ±
Ġso ng
E B
ĠK ing
Ä± n
Ġal gorithm
O C
. ")
Ex pected
W ORK
SD K
29 7
å¤ ©
f ilters
Ga t
ĠRed is
N V
ize s
i ntel
Ġ5 8
ĠM edia
Ġhigh light
Ġco pies
MS G
e gex
28 5
na il
Ġ@ @
à½ ¢
cep ted
i nvoke
Ġis instance
ut ral
ts x
30 6
log s
sw ing
ĠF ix
Depende ncy
Ġyour self
% =
ado r
ga p
Ġ$ .
bu ilt
ĠAdd ress
Ġa ngle
Ġf ine
fo llow
annotation s
Ġm il
a w
ç® Ĺ
25 7
Ġe mbed
Ġpr ior
pan t
Ġfri ends
ĠV i
ĠG NU
S B
A ns
il ation
Ġal most
Res olver
ĠWat e
å¿ ħ
Ġload ing
39 7
Ġef fort
Ġn u
T uple
Ġì Ĺ
ĠE ngine
: -
ĠM ac
45 9
Fi n
iz ard
Ġgame s
Cert ificate
M ip
ĠT arget
art ment
r egex
}} "
el ess
å¾ ®
ll egal
Ġsource s
Ġ Ñĩ
cc cc
è®¾ ç½®
nc a
Ġ200 9
ĠLIC ENSE
pat cher
y z
Ġ" ^
ars ing
Ġ 69
g ar
ĉĉĉĉĉĉĉĉ ĉĉĉ
ï¿ ½
S tar
Ġone s
Ġg ran
77 8
ma nage
Ġra d
ni um
ĠM ER
27 8
ĠAl so
ne u
ĠPro gram
m iter
Ġb io
Ġsl eep
ĠPro p
S witch
ĠP UR
Ġconnect ed
s lot
Ġdelet ed
æĮ ģ
ĠP ara
", ",
éĽ Ĩ
da nger
Ġs ound
i ge
Ġc lients
Co untry
50 7
2 17
Ġsum mary
Time stamp
ĠS ha
Ġca ndidate
İ· åıĸ
Texture Size
ĠSta ndard
Bu f
Ġc losed
u ario
c x
input s
PAR AM
æł ¼
Ġtra ce
ot ing
Ġ! [
23 6
ĠCOP Y
wl e
vi n
b p
ĠCon troller
50 5
v v
åĪ Ļ
i nct
Ãµ e
å¤ ĸ
ä» »
_ ->
ito ries
De sig
Ġà¤ ķ
Ġpath s
Ġknow ledge
ma chine
De ja
l as
cont inue
AT ED
Ġ tempor
27 7
urr ed
26 9
à¥ ĭ
Ġpr ep
{ $
std out
Ġm it
_ )
Inte rop
co ll
Ġe e
Ġ5 6
ula tor
ĠLa t
G RO
Ġ ĠĠĠĠĠĠĠĠĠĠčĊ
ãģ ı
Ġs croll
ç Ĭ
ĠLO G
s al
Ġto kens
- .
ĠJo hn
Ġcompa t
ff ers
28 7
end point
33 0
ĠEn t
Ġa bility
ar o
index Of
uss ian
Chai n
py x
b ro
edent ial
ĠASS ERT
Ġs ix
em it
ĠR et
hol e
ĠÄ ĳ
Ġseparat e
Ãµe s
T ex
Se q
CH ANT
Per iod
Ġuni code
28 4
Deja Vu
rep ly
C ES
m ul
Ġm ult
Pack et
ĠLog ger
ar ma
Ġ0 3
ert iary
} ")
ac ute
line join
Ġse ar
F P
MA SK
ĠC he
) <
N I
Ġ0 4
oo tstrap
M aster
li braries
y outube
lle n
Ġ0 6
Ġchai n
ç¬ ¦
Ro uter
ìĿ Ģ
a ir
Ġtexture Format
Ġgo al
', $
aa aa
Ġse ed
27 9
ĠRe ference
nito ring
ca talog
Ġmax TextureSize
Sub ject
ette r
ä» İ
Ġ' _
Ġcompression Quality
man ifest
sk i
dest ination
Ġpu blish
z ione
Ġb eaut
Ġevery one
e sta
as ci
Write Line
å¤ Ħ
rt e
ilte red
sto ck
ve hicle
Ġm k
ct rl
De ploy
Ġr u
ë ı
Ġ(= >
get Value
ro ved
ĠF ALSE
ĠDe bug
de scribe
Ġsta nd
Ġpi peline
pre view
presen tation
de ep
18 2
S up
Ġo pacity
Pay ment
éģ ĵ
Ġinter val
ĉĉ čĊ
æĹ¶ éĹ´
ca ption
æľį åĬ¡
SS L
sli de
? </
@ "
Ġmat h
33 8
Ġ1 20
ĠWate r
ng a
Con v
Ġeffect ive
($ _
P ers
Ġto ld
ME SS
U V
Ġ0 5
Ġde fi
y c
ni n
34 7
Î ³
ç Ł¥
bind ing
Ġare as
r io
al ling
ec ast
IT NESS
ĠIO Exception
è¾ ĵ
A uthentication
ç© º
> ";
ĠO p
wle r
ag g
c rypto
F X
Ġn ice
b alance
Ġsupport s
67 8
Ġ" );
Ġp m
l eg
hal f
mpos ite
Ġyou ng
ĠO nly
Del ay
4 32
Ġphys ical
ĠFe bruary
sh i
c lock
AR K
25 9
over flow
ãĤ ³
for nia
> --
\ '
ç» ı
ext end
Ġ> >>
ĠPUR POSE
ĠC A
" +
38 8
Ġe ng
act ual
to ne
S tat
16 1
ãĤ ¿
eri a
Sec ret
side bar
Pro vi
Ġp as
fr as
Ġ tensor
ĉĉĉĉĠ Ġ
#### #
ĠM c
ha nce
Ġ4 6
vat ive
Ġ" &
Ġs elector
ĠDis play
Ġmat erials
åı ĺ
Ġê ²
va tar
Ġview s
Ġ 77
ç½ ĳ
Ġper fect
s olution
Ġ. =
à ³
i mple
F amily
ĠS BAR
ç±» åŀĭ
Int eg
)) {
3 55
Ġcom bi
99 8
gene ric
ĠNew s
Ġc lone
n tra
S trategy
ĠPART IC
Ġb ri
mp y
ĠP ay
LE D
Ġm d
ĠT ag
ues t
M ale
Ġ! !
ĠA bstract
ĠAct ive
ãĥ Ĩ
Ġ ur
uthoriz ed
Ġ cent
Ġde tail
DI RECT
Ġon Click
Con trollers
In cr
Ġmid dle
Ġl egal
I p
íĬ ¸
Ġ ĠĠĠĠĠĠĠĠĠĠĠčĊ
ĠF ire
Ġ__ _
ĠB utton
Ġdig ital
Ġpre v
Ġmo bile
Ġa g
li x
39 8
/ ${
V L
18 75
S pa
ĠHo use
Pa i
O rga
CHANT ABILITY
), (
2 13
al ed
Ġ( %
Ġ} ),
ef fic
Ġcons truct
29 0
4 80
C ustomer
Ġ4 1
assert True
L android
Ġhappe n
ĠV ec
fol io
dir name
v ation
ÑĥÐ¼ ÐµÐ½ÑĤ
Ġ" ;
D ig
38 6
Ġì Ħ
ĠØ ª
ĠMa nagement
Co rr
Ġgo e
j p
Ġshe ll
T ry
Ã ¢
P ush
Dec l
40 1
e mo
path s
face book
Ass ets
sur face
l ead
Ġb and
P ACK
: {
ä¹ ī
Ġs ex
AT OR
38 5
64 4
Comp are
ĠÐ °
ear ning
24 6
size of
H A
tuto rial
37 0
ĠR untime
bo wler
B I
Ġhis to
ote s
å® Į
m al
35 7
Ġde ad
Trans fer
cn t
28 9
co lors
ĠP HP
Dec imal
stri ker
37 8
FI ELD
æ¯ Ķ
ĠReg ister
m r
Ġ} ).
s lug
ä½ ķ
Ġrecom mend
Ġred uce
go ver
Graph ics
E F
é¡ ¹
34 8
B alance
Ġde mo
s ch
I ssue
ĠA fri
à¤ ¹
ĠY e
Ġfac tor
29 8
process ing
# !/
ria n
h ir
to Equal
ĠE rr
r nel
/ ?
c amera
AR CH
tte ry
| .
Ġrele vant
ind ices
Ġex pla
-------- ---
Ġcom ing
Ġb rand
land s
Ġexact ly
ç§ į
}{ \
3 68
Ù İ
as InstanceOf
ĠPARTIC ULAR
d as
22 1
Data Source
Project s
d w
produ ce
ĠS w
col lapse
Ma il
Ġs lot
Ġcheck ed
Ð¾Ð³ Ð¾
Ġs oc
Ġnat ural
met e
2 19
FA IL
37 9
Ġ' ../../
ĠS um
_ );
ãģĹãģ¾ ãģĻ
]( ./
æº Ĳ
á ¹
Ġc s
f R
ther n
"> @
T ABLE
U K
s ender
Re view
icle s
mpos ition
un wrap
ĠA ttribute
Ha ve
F ocus
à¸ ĩ
fa b
ĠN AME
Ġpart ial
HO ST
AT TR
] ).
ĠGe o
Ġco lors
Ġpr iority
Ġì Ĥ¬
Ġ" --
method s
Fail ure
p url
C ube
spec ific
Ġcons ide
åĲ ĳ
Requ ire
10 24
me dium
+ ,
ĠSet tings
ĠLi nux
Ġ" )
ĠA ir
T ouch
ĠS tream
ÑĢ Ñĥ
C V
29 4
ys ics
ĉĉĠĠĠĠĠĠ Ġ
æī ĭ
æł ·
çĶ ±
epo ch
ite mpty
Ġz a
Ð°Ð ¼
Ġ5 1
é Ĵ
let o
if ul
X Y
sk top
Ġ200 8
D iv
mar ker
9 75
om itempty
n vironment
ope ns
ĠD I
Dir ect
Ġm icro
ho rizontal
60 8
place holder
ĠB lack
ç» Ł
ãĤ Ī
der al
ĠEx p
Arg uments
33 6
å¿ ĥ
Ġstu ff
à¸ ª
Ð¾Ð ·
Def ine
ĠM AX
Ġc u
Sub mit
lett e
ĠL et
Ġs mo
Ġrat io
ĠMER CHANTABILITY
ID E
ĠVal id
Ġre quested
Ġdec ision
Ġf ully
l ey
rat io
m icro
w x
Class e
Ġcell s
Ġpack et
de g
< !
Ð¸ Ð½
Ġ" (
Ġgive s
# {
key words
Ġ ĠĠĠĠĠĠĠĠĠĠĠĠĠĠĠĠĠĠĠĠĠĠĠĠĠĠĠĠĊ
LE S
Ġme sh
St mt
Ġx si
Style s
Ġa ng
Ġgoe s
u ma
Ġs ync
D iff
ĠA ng
Ġpre vent
F n
Ġpract ice
Text View
ra c
25 1
ë Ĳ
C hat
e size
ĠLIMIT ED
0 12
bb bb
Ġme as
à½ ĵ
Ġre presents
con cat
Ġg round
n ne
ãĢ į
Ġident ify
Ġbook s
Ġì Īĺ
ad s
o nce
ĠPri n
Refl ection
Ð ļ
SER VER
19 70
35 9
Se ries
// !
fl ash
ĠInter national
ref resh
Ġis t
ud ies
mediat ely
30 1
F ri
Ġcrea tion
Ã ´
Ġc as
ali fornia
ryp ted
FFFF FFFF
ĠS ec
åĪ Ľ
ĠDe vice
Ja n
Ġtra vel
CH AN
Ġ? ?
33 9
A O
t ill
) `
Pi peline
ãĢ Į
tor ch
DejaVu Sans
ãĥ ķ
col s
loa ting
ĠVis ual
ys t
ars h
list e
') :
ĠÐ¾ Ð±
v ity
l arge
Sub scription
3 20
38 9
Ġblock s
oo ds
4 77
nc lick
39 0
Ġdel ta
na p
Ġshort cut
17 1
t derr
Array List
am arin
ef ul
= /
F eed
è¿Ķ åĽŀ
éĤ £
24 2
66 6
DE P
Ġtal k
65 7
Ġappe ar
Ġf la
è¿ ĺ
Ġse ason
Ġpa tch
Ġeas ily
Work flow
34 9
Ġask ed
Ġs yntax
ge ometry
rt u
Ġcusto mers
Ġfac s
c py
B ounds
39 5
leto n
dot net
Ġdepende ncy
LIN K
3 80
Ġun known
ima ted
Com mit
ĠU RI
Ġd Ã©
e nvironment
Ġreport ed
Ĩ Ĵ
Pay load
Ġlimit ed
Ġ ###
Ġno rm
spec ial
v als
u man
App Compat
ĠT hread
e pos
widget s
j ackson
Ġmea ning
vi m
åĬ Ľ
Ġchar set
a tom
Data Type
mpo und
U UID
pen t
il ability
64 7
Ġmo use
45 6
Ġbe hind
a h
b al
co ur
Me n
W IDTH
200 4
Del ta
Her e
åıĤ æķ°
y m
ĉĉĉĉ Ċ
ÐµÐ ¹
order ed
t hanks
Ġsta ts
ass istant
55 5
ä½ Ĩ
Ġl as
remove d
to l
ĠB usiness
ru it
ĠAc count
s tderr
octa ve
U Int
i nto
38 7
B tn
NO DE
ĠCo mpl
ĠT EST
Ġ tuple
ho ts
ĠF ac
PH P
T ARGET
r esize
é ª
Ġof fe
ĠA uthor
__ ,
Ġsto ck
ING S
String s
dia n
Ġc i
ll ed
M X
à½ º
vid ing
40 2
Ġo l
E VENT
Ġpret ix
Ġz u
sl eep
ĠGe r
trat e
RE SS
Ġcompl et
æĢ ģ
her b
,,,,,,,,,,,,,,,, ,,,,,
Ġf Ã¼r
Ġ hat
ĠT ree
Ġc ast
v ile
UR N
Ġtreat ment
B S
x o
sub field
l ean
nume ric
pos al
Run ner
45 7
R ules
Ġg as
pe nding
ĠE nglish
S rc
Ġc redit
he ther
Ġed ucation
ma z
READ ME
ĠâĶ Ĥ
5 000
Ġd ictionary
18 1
èµ ·
t ipo
âķ Ĳ
Ġ? ></
Ġre member
mo ngo
Ġd im
il li
star ts
Ġi dentity
D Y
n ie
l f
RE T
book s
Ġlos t
ĠGit Hub
R eact
Off ice
inden t
A vailable
ul p
uran t
Ġho ur
n ical
bserv ation
Ġany one
Ġ ):
Ġpop ular
un ion
Ġ utils
32 4
ilo n
Ġbo ost
Ġve hicle
45 8
ë ł
M R
Q ua
a ppe
ĠVar iable
ĠT itle
ĠIMP LIED
">< ![
connection s
Spec ial
r epos
Ġwho s
version s
Ġintro du
IO Exception
Ġtri ed
åı Ĭ
Ġa f
pic ker
fo x
Ġ vers
nta ge
Ġin f
Met hods
dis patch
H orizontal
clus ive
ĠS TR
ull et
s yntax
ĠRe al
a pos
Ġpopu lation
Ġli ving
get String
Ġz ip
ĠL eft
Ġrefl ect
Ġbegin ning
Ġsub sta
Ġcon n
C trl
D id
ke e
Ġregard ing
50 1
Ġfil m
Ġ ĠĠĠĠĠĠĠĠĠĠĠĠĠĠĠĠĠĠĠĠĠĠĠĠĠĠĠĠĠĊ
ĠMo ck
F ire
Line s
ut down
Struct ure
file ID
def s
pos it
Diagnos tics
n ut
30 2
Ġdoc s
Ġin herit
Label s
å¼ ķ
Input Stream
set Text
be rg
V R
Ġwhos e
RE NT
View Model
Ġover flow
ĠN av
L iteral
ce eded
Ġfig ure
W rap
Nd Ex
Ġrea ch
REQ UEST
Ġ1 97
P F
Up dated
fras tructure
a nno
pro mpt
64 0
s un
33 4
class Name
Ġ 97
ime nsions
Co pyright
ĠWIT H
å¯¹ è±¡
get Id
Ġph p
ĠWh ile
Classe s
SE D
( []
s peaker
å ĥ
Argument Exception
mo no
Ġm iss
ĠSho uld
part ment
ue r
Ġto uch
à¼ į
block s
éĻ Ĳ
66 8
Ġb inding
Ġba nk
Ġseg ment
23 1
Ġe li
ĠF ITNESS
ä¿ ®
ierarch y
Ġch art
L et
P G
Presen t
Ġ\ ]
ht m
mer ce
tl s
s ignature
Ġ5 2
Ġhe t
Ġver bose
ĠTH IS
e me
âĢ ¢
60 7
Ġa uthentication
target s
ç¼ ĸ
Ġw alk
xx xx
it ute
po ration
Ġres tri
ĠFa ce
Ġfo l
Pi n
ĠDeve lop
ĠSt udio
U ndef
ra do
application s
Ġa ffect
s tem
40 6
c urr
ex peri
h ard
ĠS end
ãĤ ·
å® ĥ
27 4
e na
ĠÐ½ Ðµ
io t
ĠT ertiary
m ime
ge nce
Ġp g
**************************************************************** ************
Ä ĥ
ĠCo s
Ð°Ð ·
Dec lar
ĠÑ į
Nav igation
lat forms
con nector
merc ial
Co nst
; ,
60 5
ĠAd ded
ndo n
49 5
l c
l ists
/* !
lette r
3 10
qu ick
Ġexp lo
Doc uments
3 15
Ġpat ients
B rowser
s id
Hel vetica
çī ¹
Ġcalcu late
p he
Image s
ĠS ur
CP P
f B
u v
ë §
F ROM
Ġmatch ing
Ex it
ir us
ast ic
é¡ µ
L AB
to ms
Part y
pri me
Ġlog ic
In ner
Ġ' $
Ġsa tis
pai n
S lot
CharacterOffset Begin
CharacterOffset End
Ġco uple
ffe red
q a
Ġha ppy
Ġa u
D to
b n
Ġr x
ÐµÐ½Ð¸ Ðµ
à¸ ¥
Ġw rapper
li fy
29 6
Ġconfig ured
stro y
Ġcorrect ly
not ify
Ġexte n
S F
vers ation
b rand
Ġanno tation
Ġda mage
Ð°Ð ¹
C U
F act
v t
Ġra dius
ame s
ĠFo n
Ġgrow t
60 1
Ġp ho
à¸ §
d uc
Ġe ase
PO INT
34 4
>< ?
Ġrel ation
g c
ĠCom mon
ĠAr ch
mis c
L ATE
D one
Met rics
si nce
Ġ" ="
Ġhe ld
pi ration
à¦ °
Ġd r
Ġdes troy
Ġa uf
Ġ- *-
ĠU ni
w arn
Ġd imension
Ġsignifica n
Ġliste ner
Ġg ar
ë ©
Ġnot ification
lat ing
LE ASE
call e
S pe
æ® µ
und a
han t
FF ER
Ġsignifican t
OB JECT
ĠS ch
åİ »
? ,
H os
Û ķ
ĠIN CL
Ġgrowt h
Ġro t
e rra
Ġdis ease
Ġ à®
A meri
ç« ¯
da ting
m f
P romise
P ixel
å¹ ³
C MD
pre vious
to do
to k
rono us
35 4
con tract
Tr ust
Ð¸ÑĤ ÑĮ
Ġme trics
Ġexten t
Ġw ire
ĠE ach
Ġge o
Path s
32 6
Ġco untries
RO W
Ġb undle
3 67
:: $
Ġwork ed
Ġrel eased
ĠSa n
ĠB asic
80 9
Ġc lock
Ġ2 56
A sp
Fac tor
lia n
ĠCO VID
3 99
ime r
¥ ¿
Ġreg istered
R M
ir med
ggrega t
ĠUs ing
Ġ ÏĢ
Ġdis patch
Ġv m
48 8
ĠP O
r vers
Ġs trategy
P icker
ãĥ ī
à ¬
He alth
ĠMa nager
Ġhe a
ist ers
ha ps
ra f
LE MENT
æĺ¯ åĲ¦
la p
channel s
Ra nk
Ġe a
Ġ tel
ĉĉĉĠĠĠ Ġ
Ġred is
ĠC SS
B ACK
... )
ĠP arse
Ġex erc
control s
ĠE VENT
Å ĳ
St udio
06 25
I l
Ġoff ers
e nch
Ġfa ils
B reak
ex pand
ggregat e
work flow
Ġ ĠĠĠĠĠĠĠĠĠĠĠĠĠĠĠĠĠĠĠĠĠĠĠĠĠĠĠĠĠĠĊ
Ġve ri
ï¼ Ľ
g iven
sa ns
t iny
Ġ% {
Ġi mm
part ial
-------- -
order Entry
37 6
u lo
C ast
per m
ri des
x D
ĠI nstall
Re q
ç Ŀ
ĠHel per
Ġspe ak
ç Ī
IL L
s pect
37 4
Ġs low
]( ../../
Ġeffect s
ĠCol umn
Ġvert ices
Ori gin
åı °
50 4
Ð ®
lim iter
M issing
Ġli ves
We s
la tors
e mon
àµ į
9 00
åĩ ½
Ġr s
ä¸Ń çļĦ
ynch ronous
To ggle
çº ¿
ess o
sli der
27 6
calle r
å £
à§ į
Ġprodu ce
ver bose
å± ŀ
Ġ[ -
L U
ĠP lan
stu dent
ĠL java
Po jo
na ma
u u
serv let
Ġsecond ary
Ġd ot
Pos ted
inc r
Ġhe ar
car et
\\\\\\\\ \\\\\\\\
Ġact ivities
frame s
Sh are
+ '
ĠO K
tat ed
)) :
B its
45 68
ĠFon t
< >();
LE N
PRE FIX
M argin
() [
Ġd ark
/ $
ĠT ry
TR GL
ĠO ffer
Sta ge
w r
tool tip
W M
(' <
Ġse ns
ick ness
Ġtra de
LE FT
nipp et
ing leton
ud get
Cal endar
Format t
Ġmip Map
t g
` ;
Ġsta ff
Exec utor
æĵ į
Formatt e
Ġs uc
Ge ometry
34 6
Formatte r
Wo rker
Ġrepresen tation
restri ction
ĠDo n
net ic
ĠWes t
cover ed
w ind
Ġd iagnos
Ġs cho
64 8
------------ --
ĠL ook
w allet
FORM AT
ir mation
Su per
upport ed
e ur
Ġplay ers
à½ Ħ
B T
ĠP erm
pi peline
Ġadd r
t ities
Ġpro m
struct ure
soc ial
[ (
nk ins
Ġprot ect
Î ´
Ġcon fi
Ġ8 5
Ġd t
ĠUn ity
Ġ5 7
ms elves
Ġm ultip
u el
is ions
Depende ncies
sub scription
V I
Ġkey word
hel pers
f as
Ġlo cated
i ro
æĮĩ å®ļ
la ve
BO OL
i ntro
Se rvlet
Ġcompile r
ĠRe cord
× ¨
nation s
ĠCOPY RIGHT
tre et
Ġd x
UB LIC
sa nitary
69 5
1 0000
sp ark
ĠS tyle
åį ģ
ĠA C
/ %
B lack
back up
Ġlead ing
F it
Ma g
M ill
Ġdes igned
Ġattemp t
ìŀ Ĳ
äº ¤
åį ļ
ĉĠĠĠĠĠĠĠĠĠĠĠ Ġ
t erra
Ġdri ve
Ġda ns
) =
Ġinstruction s
V T
li fe
| \
Ġ(< =
Ġtime r
ron ic
ĠP lay
Ġ@ "
ĠDoc ument
ĠT ho
Ac cept
ĠS ection
Ġstar ts
a na
H our
éħį ç½®
A ge
ÐĴ Ðķ
Ð Ľ
DO M
Ã¡ l
Mod ified
T ip
ir y
Ø§ Øª
æ¶ Ī
I lluminate
ĠFor mat
Ð°Ð ¿
ca des
Ġex clude
Sur face
Ġval ign
æīĢ æľī
O nce
gr pc
Ġha ndl
IN VALID
25 2
S N
wo rker
Ġeas ier
p ick
è ©
ma ts
ĠIn valid
s ame
64 5
Ā Ā
f m
Ġinte n
Ġ] ]
ac iÃ³n
Ġs z
ve ri
Ġu ma
sl f
la psed
ĠPo licy
CT YPE
- %
St u
Ġc rate
SP ACE
Ġlo gs
emp loy
Ġim mediately
è ¥¿
to uch
urat e
Co uld
Up per
E mbed
ec ycle
wa gger
Val idate
De pth
PRE SS
get Instance
ĠS Y
v ie
Ġb asis
67 7
F uture
work space
ics earch
Ġk ill
artifact s
TR Y
fr eq
initial ize
ark us
I o
_ [
W T
n formation
68 8
S ame
Ġthe mselves
ust ers
Pre vious
{ },
mo l
Ġsort ed
variable s
h m
Ã§ Ãµes
Second s
69 7
user Id
limit ed
lore r
Ġph ase
ĠN ext
s eries
l v
wa m
P IN
ÐĶÐ¾Ðº ÑĥÐ¼ÐµÐ½ÑĤ
Ġma cro
Ġcy cle
p et
Ġ5 3
ÑģÑĤ ÑĢ
For ce
** /
z oom
conf irm
ç®¡ çĲĨ
Ġelement Id
un its
Ġre fer
Ġjo bs
look up
Ġm us
sur name
mete r
ĠA pi
ĠSi nce
w k
sto ne
W D
Ġdis k
cu da
è Ń
55 7
åĨ Ļ
ce a
æ¯ ı
Ġme chan
Ġz one
CON ST
b ing
ĠRe search
!! !!
ĠLI ABILITY
çĽ ´
Asp Net
Ġis o
ĠÐĶ Ð°ÑĤ
Unit ed
ss h
Ð¡ Ð²ÐµÐ´
Vert ical
nge s
VID ED
t un
h it
Ġwo rth
qu i
Ġmov ie
urch ase
i nformation
ext ract
u na
Pa tch
MESS AGE
ĠNa N
ãĤ £
ff ee
string ify
onto logy
Ġ ĠĠĠĠĠĠĠĠĠĠĠĠĠĠĠĠĠĠĠĠĠĠĠĠĠĠĠĠĠĠĠĊ
C Make
Ġex pert
Ġpartici pa
n tries
Ch unk
x mm
æ²¡ æľī
lo cated
ed a
fo ot
Ġpro viding
Ġre ce
} ]
ĠInd ia
ĠDep artment
I ES
ch ines
Ġexternal Objects
iga tor
S UP
Ġa z
Max imum
Ġdo o
3 12
Ġg uid
Ġcreate s
uni code
A bout
port al
Ġpro cedure
Ġ' ')
Ġprocess o
ç ¥
MAG ES
r eason
ĠBo x
æĵį ä½ľ
i bly
Ref resh
P lot
39 6
Ġ national
35 6
ĠÐĶÐ°ÑĤ Ð°Ð
ĠT eam
Ġ tex
e ast
Ġla mbda
ea pon
ai n
red is
he alth
role s
ãģ ł
75 7
Ð°Ð ´
miss ing
ĠMo de
n im
Ġfollow s
eca use
pack et
ëĵ ľ
e nant
ìĭ ľ
P ut
ãģĹãģ Ł
ĠLi brary
åĵ ģ
S cheme
s em
NE W
alt hy
V EL
Ġse q
ĠIt e
B ot
C he
In voke
w ill
âĸ ¡
A IN
ans wer
WAR NING
Ġd jango
ĠP ark
50 6
ĠEn vironment
è¿Ļ ä¸ª
t um
f loor
Ġvert ex
tter ns
c url
iv il
Ġre mo
ar ios
so und
0 15
cons id
Ġ/> </
Ġcons ume
ĠCon nection
Ġs quare
Ġig nored
Ġper mit
è½ ¬
à½ Ķ
wo od
E O
Ġfunction ality
al one
ĠS DK
vis o
Ġwho m
NS String
', \
Unity Engine
S napshot
ge om
ise cond
C AP
it able
consid rd
k ubernetes
k otlin
80 4
Ori ginal
e rtion
Dis able
Type Name
Ġw ish
Ġv oc
ÑĤ Ð¸
S trip
N L
ut ive
no natomic
ch r
ĠU INT
the s
De mo
pro g
p ur
200 2
second ary
65 6
nst e
Ġd type
Ġsub scription
mut ex
User name
Ñħ Ð¾Ð´
Ġreport s
Man ifest
cep tor
w ell
a ults
Ġsent ence
ĠW ar
èĬ Ĥ
text ure
View s
Change s
sh ield
e nance
state s
Ġdoc uments
Rel ative
# '
mp s
Ġalte rnative
Ġweek s
Ø ²
UT E
Ġsi n
Ġde mons
n tities
Ġk w
Ġconce pt
sw ift
Ġgene ric
åĳ ½
æ ¢
æŀ Ħ
æĻ Ĥ
15 00
413 5
__ )
Ġ20 48
Ġfa de
åħ Ī
Ġ ----------------
hin t
N ON
t enance
m ultip
ĠT YPE
UP DATE
3 18
SH A
Ġp t
mat ches
Ġb ir
Ġro tate
'] ))
fin ite
Ġs ales
Wa t
Î¿ Ïħ
Class Name
ĠEnt e
A uthorization
t enant
Ġcheck s
S prite
Ope rations
Ġtra d
60 6
çī ©
Ġsa w
t ub
Ġquick ly
Ġdisplay ed
e ntries
ĠS im
LO AT
Ġc d
ĠÐ Ŀ
G r
ç§ °
for all
è¯ ģ
IC K
Ġgene ration
Ġf lat
D ot
pro blem
55 8
Ġ7 2
s upp
Si nce
à½ ĺ
R oom
ida de
ha el
Ġproper ly
Ġce l
ĠTo ol
çī Ī
Ġwo rker
trans port
(" <
Bit map
Me rge
second s
á Ł
H it
67 9
Br ush
Ġwo nder
Ġinst allation
Ġl ed
60 4
LO B
ĠD IS
t ially
ĠS ets
ĠP OST
jo bs
ĠYe s
External Task
c sharp
åĩ½ æķ°
ä¼ ł
Ġ 98
So ftware
ÃŃ t
48 4
Ġcomplet ely
ĠA mazon
< '
rea m
48 5
Vis ibility
a ma
EN TI
Ġtarget s
í Ħ
Ġfi nished
V oid
c hanged
39 4
F allback
Ġs igned
mp i
ex a
Target Framework
Perm issions
ke ep
read cr
è¿Ľ è¡Į
n tially
ĠArg ument
Ġma il
ìł ķ
cal endar
44 4
d ra
t ested
Ġmys elf
å¤ į
position s
ĠH eader
Ġl ists
Ġ thanks
now ledge
e ntence
ExternalTask Pojo
ri g
Ð §
ci pe
ug hout
Res po
ĠS chema
ĠJ ob
Pro t
//////////////////////////////// ////////////////////////////////
In line
B la
Sig nal
O pt
Ġgue ss
pa per
o rders
Ġmed ical
× Ķ
u ced
t ei
Ġp arsed
ĠCo py
cha ble
Ġatte ntion
havio ur
ct ype
P hoto
Ġa pt
à¤ ª
co nstants
tri al
linear Gradient
ĠS to
ous el
Ġpred ict
j dbc
Ġas pect
ca m
ĉĉĉĉĠĠ Ġ
qual ity
ĠMa n
fa ke
æĥ ³
ĠE s
Found ation
ĠL ast
Ali as
g ood
el ling
Ġho t
ashing ton
Ġr c
I mg
get Message
Sh ift
ä¸ ļ
un ted
å¾ Ī
Lat e
Ġover rid
gai n
Ġ tip
Ġvar iant
ĠD ATA
49 7
66 9
fri end
e ra
åĪĽ å»º
çĬ ¶
Ġcha nce
=" +"
Mo bile
u lated
I ZE
C XX
Data set
ĠMay be
> #
Inte n
49 8
L ow
our ney
over view
urs ive
AUT H
ĠRe nder
et ition
ess ment
Art icle
zo na
Ġmo ving
pe ated
Ġ10 24
f ragment
R B
create Element
ORD ER
48 7
ĠâĢ ¦
ud ience
99 7
s entence
Ġp lugins
å¤ ±
ĠDevelop ment
D N
'=> $
trans fer
H ook
us a
à¾ ±
F emale
66 5
E mit
69 6
Ġ ÙĦ
}, {"
Ġqu i
3 14
B ridge
44 7
G S
TR AN
Check ed
0 33
ok ed
ĠV ert
; -
simple Type
Ġtable s
Ġ` ${
æ Ĥ¨
g d
Function s
ĠÐ´ Ð»Ñı
ĠA WS
è¯ ķ
Ġite r
t if
Project Reference
Inten t
Â ·
à¸ µ
Ł ³
Ġsome times
ç ¦
Ġì ĭ
h ri
param ref
erso nal
MA IN
'] [
Ġa nchor
Ġassert That
Ġli n
ĠF loat
Fa de
ĠInter net
u ta
tre me
Ġpos ts
vo latile
Ġser ve
Ġj ud
AD DR
Ġìŀ Ī
Ġ6 3
B ag
ĠG over
Ñ Ĭ
em b
} ',
è ³
nu mpy
Input s
ãĥ ¬
id l
à½ ł
a ff
Ġrep ly
AT T
Ġo m
'' '
ĠD i
) **
ĠPrin t
e ma
âĸ¡ âĸ¡
Ġplace s
Ġpurpose s
Ġc hose
sc ho
Ġp arents
t hus
Cos t
26 2
B IN
valida tor
F IN
Ġrg b
âķĲ âķĲ
pr epare
ĉĉĉĉĉ Ġ
Ġ threshold
connect ed
ĠÎ º
SR C
FFFF FF
TO KEN
68 75
Module s
Ġsite s
y zer
à§ ĩ
Ġass igned
Ġ< >
de ps
eg round
èī ²
L eg
Ġco sts
V G
ÑĤ Ð¾
Ġn n
Re po
la d
release s
Ġ" </
a mazon
ne ed
ĠProp Types
i gen
Fa tal
S ys
MA C
c ube
Ca nvas
68 6
ea ble
26 3
ag ed
Ġhappe ns
H ar
IR Q
=" --
tur al
Ġgran ted
ts pan
Me asure
ĠS treet
è Ĥ
ĠAD VP
T w
Ġde faults
red uce
} _
Ġë ³
ë ³
Ġres ize
Ġwas n
C rypto
ĠA T
ra pped
Î ¸
D rag
Met ric
åĳ Ĭ
ĠD ictionary
ĠÐ¾ ÑĤ
Ġee n
ĠIN FO
J e
gra n
ĠI mp
List e
Ï Į
DO CTYPE
ĠÐ² Ñĭ
Set t
77 7
ra b
go als
ĠÐ ³
Î ¬
Mar ker
Page s
is co
ĠI I
Ġconf lict
b ys
éĢļ è¿ĩ
ia ted
ĉĠĠĠĠĠĠĠĠĠĠĠĠ Ġ
Ġme eting
Ġla unch
Ġo nclick
presen t
da p
68 5
ĠRe view
e verse
ĠW IDTH
ivers e
t each
, :
pec ified
Ġb ed
ĠW ed
de fer
Ġp p
N u
Ġ( ((
bse rved
loc file
ng ress
ãģ ¤
ircum flex
Ġi get
\": \"
3 13
ph rase
çĥ Ń
ĠT otal
last mod
Ġu id
Ġ2 13
Ġprofession al
Ġmo ved
Ġspec ies
Ġinter esting
Ġ_ .
sig ma
000 2
is i
// ----------------------------------------------------------------
Ġback end
éķ ¿
ection s
ìľ ¼
Ġthere fore
la m
à½ ´
pu blish
r us
Event Handler
Warning s
Run ning
Ġs lice
ĠH as
ĠCon tainer
niz ations
ĠS ER
bi bl
Trans port
di nal
net standard
__ .
ĠR O
åħ ·
exe r
Pro c
id ad
METH OD
Î Ń
con current
.* ;
Ġcan vas
itt e
65 8
ss o
44 3
mine craft
ä¾ Ľ
Ġprocess e
n ty
ĠC ho
è¡¨ ç¤º
Ġpr epare
Į Ģ
80 6
r everse
à¸ Ĺ
qu arkus
p her
] /
I FT
co okie
ĠI mport
File name
dis plays
ja v
ist ed
Ġrecent ly
U X
B ranch
Ġend l
ia nce
Ġ200 7
Ġ ))
64 9
text area
æĶ ¾
ĠÑ Ħ
ircu it
fl ush
25 3
60 3
= _
Ġopport unity
ĠìĿ ´
Ġc ritical
27 3
M ix
ga mma
iva ted
grad ient
A nchor
ĠC ance
Pre view
lea f
Ġdoo r
: <
a bsolute
ca o
State s
Ġsit uation
= $(
ĠPre sident
ĠV a
ne ver
S ound
The n
IT LE
M ON
; "/>
Ġho riz
47 8
H L
rot e
68 7
xt ure
w f
Ġc fg
V a
cons tructor
T OP
Ġr hs
x B
Ġde mand
ĠA uth
ya n
R X
ĠR ights
ise r
ĠY ear
Ã¤ r
cc c
å ĸ
N ER
s nippets
qu ire
Can not
o v
Sett e
ĠSa ve
ug ges
desk top
DE CL
x ffff
a pt
ĠCh ild
32 3
NG TH
is tance
Ġde co
J ust
Sette r
s ale
Ã °
phi nx
ĠC PU
end region
t tach
S dk
Loc ale
97 8
Ġen code
45 4
At A
99 5
Ġ Ú©
à¥ ģ
Ġo bs
R U
Ġprocesse s
tore sizing
. |
"> [
è® °
Bo ard
o rientation
m ig
Ġprocesso r
ha ndl
ner ally
Ġcol span
ĠMe nu
ITE M
Ġbe long
ĠPri ce
ĠU P
· ¸
ĠC alifornia
åı¯ èĥ½
a ttach
ĠM r
ĠS U
Ġco verage
{ '
Support ed
b as
vis it
Ġimp licit
rr e
Dir ectories
Ġsk ills
goo gl
end o
Ġ** *
S l
Ma c
ess el
ĠE mail
web pack
Ġ" $(
S outh
ĠV o
Ġ tele
C ross
: &#
pe e
al ways
} ],
stri ct
y al
ro utine
Ġre maining
Ø ®
CT RL
Ġë §
uls e
Ġre verse
Ġ td
Ġinten t
ĠC hina
Ġsear ched
tp lot
ãĤ °
TE CN
] ",
ĠP layer
dime nsion
pea n
Ġ nature
Ġm ill
d ns
ĠERR OR
Are Equal
par ts
47 9
b x
Ġm ixed
Ġg oogle
Y ea
ĠF ilter
Ġme tric
Declar ation
Ġrespons ible
anal ysis
ãĥ ¡
Ð¾Ð ¿
75 8
L ONG
GRO UP
IE W
t Ã©
Ġqua ntity
åº ĵ
U INT
è¿ Ĳ
c lo
Ġco mo
ãĥ ĩ
ch i
add ons
Rep ly
Ġ| >
as y
é ĵ
us tra
scri ber
Ġdel egate
Ġdes ig
n j
Pop up
java x
L ive
R D
Ġ" :
Ke rnel
De sktop
FUN CTION
elle r
+ -
r ets
Ġ( );
r ev
ĠCO M
íķ ´
mo nitor
Â »
ìĬ µ
Ġw ine
Ġcommun ication
A rm
Ġinv olved
Ġ tar
Ġfirst Attribute
hor e
Ġp iece
C raw
Ġgene rator
æī ĵ
Ġst e
Ġe vidence
Ġprevious ly
math cal
OP T
ta iled
a tor
Ġsc ience
Ġ$ ('.
ze ros
è½ ½
Ġhel ps
road cast
Ġlocal e
sub scribe
ĠS ite
æĶ ¶
start ed
Ġlea ders
Ġpat ient
h p
ĠL ife
66 0
e scape
ìĿ ¸
n ity
toresizing Mask
Ġref resh
Ġphys ics
he ro
Ġg lob
ĠM B
ç´ ł
In to
g al
G P
Te rmi
set State
Ġstyle s
Type Signature
Ġco urt
off ice
Ġsolution s
Ġc hat
Ġadmin ist
call ed
j l
do n
47 0
a bo
ma y
- \
M s
ìĸ ´
N EL
E QUAL
Ġp ixel
ĠJava Script
S lice
Ġex change
Ġplay ing
Ġa ware
24 1
Table s
ĠLa w
Ġre ve
39 3
he el
Ġreference s
Ġp ow
ĠT V
di ag
ĠWh ite
}" .
de b
d jango
Ġca pital
F eatures
Com bo
Set s
state ment
Ġha nds
æī §
ĠO P
64 6
ici pant
ĠP ack
éĿ ŀ
En coder
éĩ ĳ
Ġlar ger
é ¦
4 29
Ġper formed
H y
ET HER
Ġin flue
Li ke
N Y
pop up
Ġhand ling
g lob
U nder
Sm all
55 9
R P
ĠMa trix
T ON
Ġtrans parent
math bf
? )
ĠNS String
Ġa v
Desig ner
Ġsy m
Ma naged
55 6
Ġ Ùģ
ĠDA MAGES
> .</
sm ith
': '
ĠC ard
Ġres olution
Ex clude
Ġs hi
ĠEx pression
ĠSH ALL
L AY
× Ĳ
%%%%%%%% %%%%%%%%
à¸ «
CE PT
lo ri
min i
w m
ĠINCL UDING
æľ ª
Ġpurch ase
88 8
ĠCom mit
H H
d if
[ ],
front end
æ Ł
L ab
Ð¸ Ð»
3 40
Compl eted
TE MP
En tries
BU FFER
Sa fe
Ġat tack
Ġtrans port
å· ±
ä¸ ¤
Æ °
Ġro uter
voc ab
4 12
ĠI mple
Da o
ic ations
ic tions
ĠL evel
A W
} ">
Ġd ra
mark et
l ex
neu ron
( --
Ġdet ect
ĠB ra
f uture
LE NGTH
o li
Ġf all
join t
Ġnav igation
[ ![
Ã Ł
Ġd ies
reens hot
ĠC lick
ĠC r
sub string
Ġexec uted
Ġl s
ĠWARRAN TY
TR ACE
Status Code
eto n
Ã ¸
Ġpe e
ĠCreate s
/ </
ocia t
Warning Level
soft ware
Ġe mit
\_ \+
ĠP u
48 9
Ð ĵ
ãĥ §
weight s
e rns
Hash Map
ĠL E
Ġbro ad
Ġho ok
Ġfollow ed
pat t
Ġacc uracy
ìĹĲ ìĦľ
ĠPro perties
Ã ¦
ll vm
ĠI ssue
NECT ION
ĠU t
l r
Ġconf irm
ĠI dent
Ġc n
Ġac counts
(' \
produ ction
DE LETE
F ront
ĠM id
Ġ ÑĢÐ°Ð
Ġf ilters
N eg
i ra
Reference s
DE D
ÑĢ Ð°
File Path
n tal
i nk
Ġcl s
V IS
Ġbu cket
ĠB io
ĠBo ard
sm art
gover nor
ĠDo cker
m bre
Ġe poch
Ġfee ling
IN PUT
Ġl emma
as c
0 11
Ġs ed
S printf
© ëĭĪëĭ¤
Ï ĩ
ĠH OLD
/* .
IS ING
çī ĩ
u o
ea x
mo nd
ÂłÂł ÂłÂł
. &
Ġthink ing
mod ified
pix el
Be havior
OP EN
Ġnp m
li ef
dis k
Ġass ets
ĠRE AD
/ @
ĠRel ease
Ġinter national
run ning
wiki pedia
Package s
sa ved
âĢĿ ,
interface s
Ġre peat
i pe
lue n
++ ){
r tions
fact ure
Ġundersta nding
Ġbene fits
ulation s
Te ch
Ġlist ed
u ble
ĠP ackage
RE LEASE
ĠR ad
ä» ¤
Ġhel per
be nch
b ean
32 1
ient e
mk dir
ec tors
NOT E
ched uled
ho ur
Ġc il
4 11
qu id
refl ect
ĠPRO VIDED
list ener
0000000000000000 0000000000000000
è¨ Ń
+ =
i que
/ ">
ĠD eta
P ad
ĠP ass
na d
Ġdeploy ment
App ly
b eam
ÑĢ Ð¾Ð²
ĠDir ectory
ĠC G
Ġel e
USE D
Ġre produce
ne utral
3 16
ub untu
Ġë ĭ
Ġ thus
Ġj u
ĠT ru
\+ \_\+
W allet
quan tity
ç¡ ®
A ctor
ĠS pring
De stroy
W eek
ĠØ ¹
ä»£ çłģ
su do
ĠAD D
pect ive
ĠO ptions
Command s
lation s
Ġ' </
St ub
DI A
displays tyle
unc il
ĠB rit
ava tar
xy z
ĠH REF
Ġb old
ĉĠĠĠĠĠĠĠĠĠĠĠĠĠ Ġ
éĢ ģ
O G
. (
` ](
Ġs cheme
R out
10 10
ext ends
Ġinteg ration
Ġthro ughout
Ġe mp
Ġwa iting
class path
a o
48 6
Trans ition
æķ Ī
Ġm t
Ġme mo
ĠWi n
erial ize
Ġw x
intel lij
ear n
Ġs cripts
Ġcr edentials
Ġaddress e
zz l
Ġre gex
áĥ Ĳ
ĠI con
Ġ1 27
èµ Ħ
ĠF ull
Us ed
æµ ĭ
mp ling
################################ ################################
Se n
tplot lib
Ġs un
c are
O RE
75 9
Ġfor mer
ĠR em
Ġe scape
æĿ ¡
! ("
and box
mm utable
Ġtr ust
è£ ħ
65 9
Ġs olve
z el
ĠS C
Ġaddresse s
Ġa us
Ġ( \
k m
à½² à¼ĭ
eto oth
ur able
w c
t udio
ĠGu ide
Ġdevelo ped
M G
æ £
Ma ven
ĠIn it
r ust
luen t
s el
d h
eb y
Ġc hanging
Look up
de scriptor
, .
ĠU K
Ø µ
po logy
as px
a ni
ĠF ILE
Alte rnate
Ġb lood
z ed
Ġca pacity
it ary
Git Hub
OUT PUT
Ġa do
ct ive
ro utes
Ta z
ac cept
Ġcheck ing
D X
** ,
Ġocc urred
us and
ĠG r
Ġro ad
Ġwo man
P al
N il
cond a
Ġi nstant
W ire
ap k
IN DEX
r ion
WI SE
ĠLay out
3 11
AC H
j peg
U nable
m arshal
[ ])
Ġl l
text Color
co pyright
Variable s
ĠInitial ize
à¸ Ķ
s prite
Ġex pr
32 2
viso r
he ll
ul ne
33 2
å¯ Ĩ
ori g
ĠB ro
p us
Ġinte raction
we i
Ġreaso ns
Ġf ight
ac tor
Ġ" *
pa use
åĳ ĺ
T i
æ »
AC HE
e he
Ġwork flow
4 14
Ġy y
il k
Ġ tested
Ġco ding
Ġachie ve
ĠCo llege
Ġchannel s
upload s
un cher
Ex pect
g pu
Ġind ica
Ġm m
G UI
O ld
åĽ Ľ
ada pter
Ġfin ish
ab y
ta c
D OT
Ġa a
88 9
ivers al
Ġcom m
m fony
ě [
M AN
M utable
Ġoutput s
Ġc lo
27 2
ut s
cho ose
Ġde rived
ĠI m
e quests
Ġmark eting
D om
ĠÂ ©
Ġcompl etion
Ŀ ¼
b m
Ġg radient
Ġ ĠĠĠĠĠĠĠĠĠĠĠĠĠĠĠĠĠĠĠĠĠĠĠĠĠĠĠĠĠĠĠĠĊ
hy me
Ġc ss
ea ts
PL AY
Ġpart ition
Ġtem perature
Ġin de
Ġda ily
ĉĉĉĉĉĉĉĉ ĉĉĉĉ
Appe arance
b usiness
Ġappe ars
Ø Į
) $(
ct rine
Ġ teach
Ġpi cture
Ġ8 8
Optim ize
run ner
37 3
pat ial
ãĤ µ
ĠR andom
n ar
ete s
æµ ģ
UN K
D TO
ro tate
Ġqua n
æī§ è¡Į
Doc Type
åĪ ©
Ġdes ired
A tt
! </
Ġco ordinates
çĥ ·
M ust
Ġintere sted
Ġlink ed
lin ical
Dis abled
Ġn i
tri ns
ĉĉĉĠĠĠĠ Ġ
ĠCONTR ACT
AME TER
Ġde liver
co a
r equests
M Q
ĠCon nect
ĠS P
38 1
~~~~~~~~ ~~~~~~~~
B ip
ST EM
Ġpro c
J s
p n
e ntities
deco ration
çĶ ²
ĠEX PRESS
Ġdis tribute
mark s
7 07
âĢ ĭ
zzl e
Ġins urance
O bserver
ĠV AR
ig ure
ĠìĤ¬ ìļ©
ĠA da
Ġ à°
t hri
ĠSta ck
Ġfeed back
49 0
' +
co verage
ra tch
bys ig
T hanks
Ġcons umer
ociat e
Ġc ulture
Comp ute
O ur
cor ded
ĠE nable
s tation
Co lors
Mo nitor
ĠAr e
" <
34 3
U A
ĠU SA
Ġperso ns
ile n
' />
ĠCON T
Ġad va
ĠFace book
i rs
bind ings
Wh ile
=" "/>
ĠNo n
SE SSION
× ľ
ĠRE G
ĠBe s
Ø§ Ùħ
Ġd raft
ec ha
ĠCH AR
R G
m ass
Pai n
ç« ĭ
>< !--
Ġvis ibility
ĠM ost
sta ff
Ġcomp ared
åĪ «
65 4
ĠA llow
o auth
B lob
28 3
:: :
Ġ4 04
ĠW ill
Ġc ircle
S tro
ĠDE BUG
Ġcon v
TO DO
ĠH O
Ġtech ni
t hr
ĠHash Map
44 6
() "
pe ction
i as
I MAGE
yo nd
à¸ ¢
H AND
nc hes
ìĦ ±
add Class
r na
8 40
EX PORT
Ù ¾
ast icsearch
é £
F etch
pre set
B LOCK
No rth
') "
gorith ms
query Selector
], [
m v
29 3
Bu cket
out line
Ġh w
Ġc url
ĠQ t
are r
ĠDe mo
Ġcla im
R F
Ġinte rr
Ġbla nk
C lip
ĠLI ABLE
" {
\" \
ĠS tr
ĉĠĠĠĠĠĠĠĠĠĠĠĠĠĠ Ġ
thumb nail
"> {
do i
39 2
T han
mat ely
+ \
(( (
Ã «
æĽ´ æĸ°
çĤ º
29 2
MS Build
98 7
js x
S td
orga nization
P eer
åĨ į
íĦ °
98 5
i nx
Ma ps
8 000
po d
çº §
Ġcon version
ĠM A
;;;; ;;;;
MO D
ĠTemp late
ba nner
Gat eway
s mo
In v
Ui n
Ġlo n
Ġel em
D M
ĠM E
ĠMo ve
Ġscal a
Ġfo ot
Stack Trace
tor m
Ġto wards
ĠWH ETHER
Ġcond uct
ãģ Ŀ
ump tion
Ġpo d
35 2
ĠAR ISING
net core
NA P
me ga
nste r
cons traints
Ġide as
Ġcar ry
Ġocc ur
ĠI llegal
render e
Rat io
Î± Î¹
came l
Ġen cour
im als
Ġpolit ical
al so
++++ ++++
K S
ĠBu ilder
45 50
Ġbe came
Ġw indows
Ġsay ing
pe ns
ï ½
Ġad vert
Ġin come
49 6
c id
ea u
Ġr m
B P
ic hael
ne e
is p
IT S
="# "
Ġvo ice
ĠPri vate
19 1970
ĠB r
und ay
ĠA ge
Ġb ur
ĠP arameter
ra py
ĠC hannel
Ġoverrid den
45 3
ãĤ¤ ãĥ³
68 4
yte s
p per
Ġreg istry
Ġâ ĨĴ
Ġ Ġĉĉ
68 9
={ "
Cons umer
Ca pa
The s
t ine
Ġinte nded
28 1
pu blisher
}} \
Es t
Rea dy
Ġsa fety
Pre processor
Ġind icates
78 9
Ġ till
ĠC C
Ġ6 2
( <
ĠÐ Ł
W rit
loc als
patt erns
rendere r
Ġare n
ÐµÐ» ÑĮ
Ġc urr
è¨ Ģ
ĠI T
c z
ĠD raw
3 000
Ad ded
n co
ĠC ap
éĶ Ļ
Re gex
55 4
Ð² Ð°
t hank
nes t
Ġwer den
Ġ ĉĉĉ
Thes e
Ġc ube
ir gin
CUR RENT
(' ../
to c
AspNet Core
IN CRE
Ġw ww
de a
åĥ ı
Ġad j
Ġn icht
B G
() ]
Enume rable
Ø ·
To kens
Ġ ĠĠĠĠĠĠĠĠĠĠĠĠčĊ
String Builder
B io
Ġtype def
Ġpee r
dis tribution
ì Īĺ
ie ces
ç§ »
Ġde code
blis hing
ĠLoc ation
CL K
shield s
j dk
ĠCon tact
28 2
DI F
n ject
sp here
P adding
Ġemploy ees
el ist
ĠRe public
Ġass embly
a mi
(" [
Ġ}} ">
æĿ ĥ
="# ">
c ht
à¦ ¿
ENT ER
err ev
Ġfa ir
æŃ ¥
LE T
F LOAT
Ġcal c
pi ed
A ir
à¸ Ľ
eque n
function al
è¯ Ń
Ġadd s
Qua ntity
ĠC I
â Ī
ĠM ulti
Ġd lls
Ġex pand
nam ics
E OF
STR U
ĠSe cond
B usiness
Ge r
pred ict
J O
ëı Ħ
Ġcall errev
Ġco ut
ĠEd itor
ri ch
current Color
IC AL
Ġ2 50
12 34
Ġope ned
ĠE qu
av g
Com mun
ç ¶
55 55
] ):
"] ["
AL TER
ho rt
ĠL im
Ġval o
b rid
Ġmo nitor
åĪ Ŀ
Ġval u
Ġl iteral
67 6
me l
isecond s
ni k
æķ ´
? (
Ġa nc
Ġfa vorite
FA CT
Scal ar
com b
âĸĪâĸĪ âĸĪâĸĪ
Key word
é» ĺ
Ġg iving
Ġcon ven
Ġ9 6
terr itory
Ġon to
De scribe
Log ging
å¾® åįļ
co t
D AT
ĠW hy
Uin t
w b
integ ration
Ĥ ĺ
âĢ¦ âĢ¦
ĠAUT H
69 4
ĠEnte r
con tainers
e nse
ar ity
Ġstream ing
Ð°Ð ±
s ynthe
Ġ` <
æį ¢
38 3
il ver
is tan
ĠCor poration
ÃŃ a
nso ft
Ġsm aller
ĠOTHER WISE
ë ²
Dest ination
av as
ĠL ight
q s
mploy ee
âĶĢâĶĢâĶĢâĶĢ âĶĢâĶĢâĶĢâĶĢ
ĠT hrow
k r
DO WN
49 4
) &
De co
Re ason
æ ¥
b id
à¯ ģ
Inte raction
Ġinter net
R PC
Ã§ i
for ge
Output Stream
vis ibility
Ġconnection s
cla imer
rel ation
add EventListener
a wt
Sha dow
") :
Ġinitial ized
" ^^
Ġser ious
ĠP ol
G reen
æĺ ¾
Ġc c
w j
ca ched
99 6
Cho ose
ìĬµ ëĭĪëĭ¤
Ġsec ure
Re quests
ĠÂ »
cal c
Ġx s
67 4
Comp any
commit s
Ġd os
T ax
ol f
Ġbeaut iful
N EXT
M ultip
=" <
34 2
}, {
48 19
u ge
V erify
ĠC ell
Ġi r
Ġs kin
Ġwa nts
Ġarch ive
allow ed
CO PY
ke nd
Call ed
Ġear lier
ĠI nstance
Ġje s
h ype
fl utter
Ġvar iety
LOC AL
ic he
it ize
i nject
: ",
p are
bla nks
67 0
å±ŀ æĢ§
ines e
Ġ ĠĠĠĠĠĠĠĠĠĠĠĠĠĠĠĠĠĠĠĠĠĠĠĠĠĠĠĠĠĠĠĠĠĊ
la unch
Ġno va
ar ily
ĠCo urt
Ind icator
NUM BER
D r
Ġ' $(
ë© ´
çĿ Ģ
Ġ1 15
SCRIP TION
Ġmo ther
it u
Sk ip
ĠT ex
b ol
c ms
< =
Con nector
Depende n
Ġ1 05
Ã³ w
Å ¯
50 2
Dependen t
Ġin no
ĠS UB
sv rl
gi na
ed ger
æİ §
âĢĿ .
Ġjes t
act eria
for um
A u
å¤Ħ çĲĨ
Hel pers
Group Name
ĠS tar
3 19
Block s
ĠCa tegory
s ensor
An t
98 8
ĠA ustralia
ins truction
s tub
æ· »
3 17
Mod ifier
ĠMe mory
Pro du
98 4
T W
ĠF ixed
ĠBa nk
Ġr y
ic ine
AT URE
ĠAUT O
iere sis
gre s
0 17
Ġ Ã¼
po rate
Ġ1 01
V IC
Ġdecide d
Ġ6 1
Ġid s
Ġ4 000
e gend
rite rion
G U
à ©
Ġc ra
ri ze
dig o
ĠCa nada
Ġ tcp
v h
ç ¢
lear ning
Ġto t
Co mb
Ġprocess ed
pan ic
ĠCo lo
Part ition
C ID
Ġecono mic
com ma
Config ure
åĪ ł
Ï Ĩ
C art
ac ion
is ation
AD O
w y
able s
k b
Ġdown loaded
ç ģ
de faults
Ġ7 4
ĠLo rd
ãģ Ľ
Ġe c
Ġtra ffic
D ist
ĠE ng
M Y
Ġpla ns
to nsoft
Ġ7 8
bo ur
ç³» ç»Ł
gat eway
Ġ ĠĠĠĠĠĠĠĠĠĠĠĠĠčĊ
ë °
ĠC rea
Ġfac tors
Ġse nding
H ex
Ġmanu ally
he a
ri nk
åģ ļ
ĠâĢ ¢
Ġ6 00
pee r
ĠEuro pe
it i
y ing
æ° ĳ
D ra
ĠN G
| (
ĠBu ffer
M ultiple
ãĤ »
p ip
R Y
Read Only
IM ARY
e ce
ç¨ĭ åºı
w g
ra ns
Ġpar allel
Ġs ale
Ġindivid uals
equen t
Ġtr uth
ç» Ļ
C SS
ub ble
H z
Ġe yes
ĠC ulture
l egend
ĠT ORT
Ġope ning
Ġd uplicate
åį ³
Serial ize
Ġbecome s
@ {
ia nts
Su ite
Ġa mb
26 1
ille r
Ġs ynchron
57 6
y ze
ĠBes t
pa nsion
è ĥ
rin t
Ġrecom mended
CLI ENT
Ġf elt
pers istence
asci i
n tl
ĠC NN
Ġpa id
Co okie
El em
v ille
ie f
LE VEL
Ġga ve
Ex change
Ġmar ker
Ġ200 6
ÐµÐ ³
ma jor
ĠJ O
tp l
Ġ$ $
P lus
ĠRes erved
AAAA AAAA
ims elf
ĠEd ge
L ang
Rad io
alte r
69 0
so ck
Ġvalo r
Ġproba bility
t we
ĠCl ear
Ġ* =
Ġbe yond
9 05
Ġgu aran
iss e
Ġei n
Ġres tart
uff l
Ġover all
Ġsm art
C LO
Ġcar eer
ty p
Link ed
Ġi na
åķ Ĩ
"}, {"
Q UI
SH IFT
RE EN
Ġwo rkers
Ġw ild
Ġp x
ĠA li
e co
Ġandroid x
Cr edentials
à¸ Ħ
Ġk ids
A ML
ç´ ¢
Ġcontrol s
Ġf irm
ĠF A
íķĺ ëĬĶ
CO RE
å®ļ ä¹ī
article s
------------ ---
æĮ ī
4 16
Ġs em
75 6
b ridge
w as
ement al
ip ient
C tx
ĠC ur
va ilability
do g
ĠHis tory
{ })
ĠT ur
AR M
u is
Ġpla i
Ð½Ñĭ Ñħ
Sup press
Ġmo dern
ĠDe s
lat ive
27 1
ĠJa n
Ġback up
ĠJe sus
19 98
AR RAY
Ġfr equency
Ġeval uate
T M
Re ceived
h yper
Ġtermi nal
åĲ «
ì ĥ
Ġal loc
m ust
ĠF L
ps i
"> #
ILE D
nd ay
Ġ layers
Ġmention ed
Ġres ide
ĠE ven
Ġrepresen t
T humb
c g
Ġdecl are
Ġprec ision
py t
H sp
Output Path
Ġin forma
map per
95 9
è º
4 30
ĠN um
Ġext ensions
pr eter
ĠGene rate
Service Model
n ja
ĠO rga
po nent
CI AL
Ġj ournal
Text Box
Def ined
sub s
Ġope rating
IN TE
Ġhigh ly
Ġorga n
Ġmor ning
H idden
ĠUn ion
n ullable
Ġ) {
Ġsha dow
D imension
age s
Ġsp read
Ġc rypto
P PL
ar ia
Ġtur ned
ĠNot hing
ĠIn fo
ĠCON FIG
o bs
ĠA CTION
! ");
am ing
3 66
Ent ities
Ġ Î±
n io
à¸ ¸
LAB EL
Ġca p
Ġrate s
Ġla ws
Ġbe gan
Ġpai rs
nit ely
ĠP lace
Ġa uthors
n Ã©
ra nc
build ing
Ġarg v
G PIO
E q
Ġf d
cl k
99 0
Ġincr eased
D im
Ġ ĠĠĠĠĉ
Tes ting
Ġ1 14
Ġex treme
De coder
Co urse
wit hout
Ġbene fit
ĠVe r
Ġall e
no p
T hreshold
S pring
W ITH
/ :
Ġhe ard
33 1
Ġbi rth
ÑĢ Ð¸
à¸ ļ
Ġro utes
Ġpress ure
Ġad just
un ct
r pret
ue n
W P
commun ity
to ur
e rpret
wa v
ma ml
Ġkw args
SE C
Ġ ĠĠĠĠĠĠĠĠĠĠĠĠĠĠĠĠĠĠĠĠĠĠĠĠĠĠĠĠĠĠĠĠĠĠĊ
t erpret
SH OT
Ġb ounds
åł ´
resol ver
Ġca tegories
n voice
d ies
de mand
ĠSu per
co lo
Ġma nual
a ux
Ġn Ã£o
ĠE ast
æ·» åĬł
éĹ® é¢ĺ
ho o
Ġincr easing
n m
DO CK
cade mic
but tons
f P
ĠSet up
gu ard
ĠDe sign
ch rome
Ġcon tained
CON C
ĠØ§ÙĦ Ùħ
Ġun ion
r ete
ele nium
ĠAD JP
Ġsecond Item
Ġprodu ced
Re ceive
Ġ Que
A Z
type param
Ġho rizontal
Ġant i
Ġse nsor
, (
æ¡ Ī
)) )))
çĥŃ åº¦
Ġcon tr
k et
Back end
pla ne
íķ ł
L com
Ġsecond Attribute
Access o
$/ .
na pi
ĠF uture
so ng
SV G
per missions
4 20
ĠJ u
de ring
éª Į
ck y
34 1
F ilters
04 3
non ical
SD L
^^^^ ^^^^
Ġcl ea
46 2
Ġfor eign
Ġli f
d id
77 9
M is
IT ION
S lider
i nvoice
z t
RO L
ĠS cript
` );
J J
Ġ[ <
Q UE
Ġà¤ ¸
ws dl
Crea tion
è¯· æ±Ĥ
RE C
å°± æĺ¯
iz a
attr s
äº §
ie ncy
LI BR
he t
value Of
r ri
[ /
Ġ rid
bel l
Ġcen tral
80 2
Ġre main
Ġw rote
br ew
co v
d ar
ĠValue Error
ER O
flu id
M vc
Sa n
ĠArg s
Ġrepresen ting
thro ugh
47 6
Cal cu
ĠI o
Wa tch
ĉĉĠĠĠĠĠĠĠ Ġ
å½ ¢
åĪł éĻ¤
57 8
gra ve
ĠP AR
Ġge nerally
sc ss
ip y
Ġ ĠĠĠĠĠĠĠĠĠĠĠĠĠĠčĊ
Ġ1 60
Json Property
so ap
dec imal
uffl e
Ġrole s
comp ress
50 3
ĠD ig
Ð¾Ð»ÑĮ Ð·
é»ĺ è®¤
Ġprom ise
ne my
i pt
cha pter
áĢ º
Ġco okie
F ast
Co verage
Ġë ª
Reg istration
po m
ĠTe sts
98 9
Text Field
Ġca used
ãĥ¼ãĤ ¿
ncip l
ult ural
ass embly
Is Null
ncipl e
Ġde cr
Se nder
F RA
char ge
r ho
Ca pture
nat ely
Cont inue
w al
ĠA bout
to o
Ġs pi
E poch
format t
New s
Ġcol labo
lat itude
ĠS TD
ed o
li ff
oo n
80 3
Hea ting
For ward
ĠÐ µ
ka t
Fol low
ãģ¦ ãģĦ
Ġw all
é ©
Ġp ixels
U F
Preprocessor Definitions
RO P
) _
A b
F ACE
ĠPro vi
formatt e
c ra
file Name
ha i
F ab
åĭ ķ
Ġ` /
ia na
formatte r
DE VICE
ot ed
Initial ize
C LE
Ġv oor
() }
') }}
e j
Ġsto ries
Ġf printf
Ġde ri
uthent icated
36 2
mi nal
tool bar
æıĲ ä¾Ľ
B M
pa que
lic ated
M arshal
Red irect
e li
avas cript
B ro
un ced
ĠApp l
du a
µ ¬
y i
Ġde scriptor
High light
35 3
ĠV ideo
Ġ} \
Ġoff icial
Ġs trateg
PO M
ĠE num
ĠS ocial
B ased
Ġex panded
inner HTML
å¾®åįļ çĥŃåº¦
part ition
) >
20 32
ĠH ol
O rientation
(* ),
ĠInst itute
åŃĺ åľ¨
ìĿ ¼
\", \"
Ġ ------------------------------------------------
Min imum
Ġf Ã¶r
Ġo il
A VE
essel lation
view port
Ġro o
bet ween
Ñģ Ð¿
F ER
Ġar m
ĠT ensor
llen t
Ġcover ed
ĠS olution
Ġfa ke
Ġext ern
Ġe ye
Ġloc ations
80 1
ĠI l
und red
Ġsupp ly
ĠD et
Ġresult ing
ĠDown load
A H
ĠT y
à½ £
47 3
> *
Ġh imself
39 1
el la
Ġhappe ned
ãĤ¹ ãĥĪ
Ġstate ments
Ġlicense s
Ġent ities
long itude
G amma
Ġlook up
T HE
A ustralia
bo ne
æł ¹
sse s
ĠR ES
Se nsor
ä» Ģ
velo pe
95 8
T ITLE
ker as
Ġs old
ia m
ĠÐ ļ
= ="
D AY
wa ve
C lone
Ġme rged
Ġsu ffix
Ġpi pe
= <
Ġha ven
Ġde fe
ber nate
D if
Ġequ ivalent
Ġc m
sp ite
çĻ »
ut ers
Ġs napshot
ĠMon t
Ġp us
Ġ200 5
ĠPro f
V IEW
ara tor
æĪĲ åĬŁ
Ġtyp ings
Ġp ÅĻ
Ã©e s
ĠHE IGHT
[ {
PRO TO
ĠD ES
comp iled
Ġtr ea
ĠW idth
hro ugh
è İ·åıĸ
ay e
is k
å¢ ŀ
[ _
mid night
Ġque ries
ĠEx amples
ad as
s napshot
Key board
ga z
ĠØ £
36 3
ĠEuro pean
AS K
Ġf loor
å® ¢
Ġa lone
Ġ\" %
S NAP
Ġprot ection
Ġ Ã¶
t im
áĥ ĺ
Linear Layout
: @"
el ation
Image View
PRO PER
Ġmo l
ex clusion
nso n
FILE S
so s
mpor tance
A bs
data type
Ġdef ines
Process ing
ma to
Ġ8 9
OR IE
Ġad vance
ĠS uccess
e de
Orga nization
Ġs tatistics
Tra cker
ĠValid ation
6 55
Ġp al
ĠF ol
ĠInt ernal
Sa nitary
ĠD ie
ĠB lue
ĠH eight
ed ges
4 45
N R
Ġdec imal
29 1
60 2
38 2
Ġlar gest
o ta
Ġsc ient
j uce
ĠLo ndon
sy cho
Ġenume rate
xs i
Ġl xc
P t
co g
Ġplace d
D ER
Back up
Ġal bum
Spec ific
ns et
Ġdepe nding
Î ®
Ã§i n
Ġo d
pa g
37 2
í Ļ
j vm
m usic
vi ation
Interface s
Ġs q
maz ing
W ill
Ġb eta
Ġhide bysig
INST ALL
Ġsa ns
Rec tangle
ĠRe set
g mail
ĠÐ¸ Ð·
F IL
work s
Ġ ĠĠĠĠĠĠĠĠĠĠĠĠĠĠĠĠĠĠĠĠĠĠĠĠĠĠĠĠĠĠĠĠĠĠĠĊ
her ited
Li nux
the mes
r min
ĠLo gin
ele s
ns ure
C lock
ck ed
SE L
ĠV ol
Ġ tt
bu ff
ĠRe p
nso rs
Ġo lder
Ġfl ash
ĠRow Box
In f
Ġ' --
7 68
Ġs pent
ivid ual
ĠPos ition
ãģ Ĭ
ng red
Ġplai n
ãģĵ ãģ¨
late r
per f
ma nual
Ġcons truction
By Name
à¸ º
Ġconst expr
Ġin ves
Ġo pin
47 4
it ar
o nline
ĠÐ¿ Ð¾
Ġra ce
box e
Ġpro mote
Ġrad io
ĠO nce
. [
Nume rator
à «
Ġreg istration
r hyme
Ġext ended
Ġì ĥ
pre vent
Co ord
Ġw elcome
m ultiple
75 4
ĠAfri ca
Ġ1 10
ught e
Be s
Ġ7 9
ĠTo ols
M ean
Ġite rator
Ġin j
ãĤ Ń
5 24
tensor flow
co ord
Ġplan ning
Trans lation
ta u
der e
C urrency
Lower Case
Ġext end
f ee
V EN
cd ot
Ġ> &
ĠU TF
Ġ ĠĠĠĠĠĠĠĠĠĠĠĠĠĠĠčĊ
Ġ7 6
ny a
è Ħ
åŃĹ ç¬¦
Ġfind ing
Ġest imate
Accesso r
O U
P ending
=" ..\
Ġsh ip
ĠÎ ´
Ġmod al
c ta
Ġint ers
g allery
Ġposition s
ĠRequ ired
W hy
1 00000
ne g
ãĥ§ ãĥ³
ĠC hro
Ġd ashboard
Ġca pture
M F
fail ure
H D
ĠÎ ¼
ide os
Ġa ws
i NdEx
add o
ì Ĩ
Ġat tach
e store
Ġfunction al
H C
ĠDa vid
ĠNOT E
Ar rays
ĠÐ Ĵ
:: {
ĠFi n
Ġnot ify
Ġres tore
n coder
ĠInte rface
h c
code c
â Ĺ
com m
Part icle
ĠP op
Ġup grade
i ations
ìľ¼ ë¡ľ
bo ss
Cube map
Ġshow ing
Ġ ])
Ġthread s
Ġinst itution
Sho p
po w
Da ys
B een
ĠPe ople
ĠTech nology
Co nc
m gr
ĠW hether
cert ificate
ute n
zo r
Ġma c
ro bot
ro tation
ACT ION
ĠW ell
Qu ick
Ġpo licies
Target s
Ġ ĠĠĠĠĠĉ
U nexpected
Ø £
pyt e
Over lay
sha der
nom bre
è¿ ŀ
Ġinvest ment
à® ¿
ĠString Builder
Ca tegories
ĠT hank
åı Ĺ
( =
User Id
ĠDo e
/ ",
" =>
. #
å¸ ĥ
ĠØ ¯
ra ise
bra ins
Ġeval uation
ÙĦ Ùī
Ġow nership
d AtA
Dis k
Ġga i
à¦ ¨
Ġf ear
gran t
ĠÐ »
âĢ ĺ
> $
Ġhe av
Ġout come
åĨħ å®¹
BE GIN
95 7
v d
pos itories
e name
Ġhig hest
pa c
Pain t
men ta
O rg
ì ²
r ity
Ġsa ving
a ts
97 9
A z
ĠAppl e
ĠT wo
* >(
pyte s
ĠRe f
ĠN ative
0 14
INCRE MENT
, <
Ġco des
Ġw eak
Ġwhat ever
Equal To
esso r
ĠJ ournal
Reg ular
Ġca pt
sk y
Normal Map
pytes t
[ ];
S IG
Ġw y
Ġs ca
35 1
Ð½Ñĭ Ðµ
Ġ thank
ĠS pace
f lip
Ġs pot
Ġport s
09 6
Ġcombi nation
ri val
ares t
s tyl
Ġf eat
Ġj oint
ON LY
agg reg
qu is
Ġocc urs
æ Ĵ
add itional
Ġst udies
point ment
po ut
Ïĥ ÏĦ
pu blished
model Version
Ġbro ught
bl et
art ist
S PI
Ġ8 00
pri v
Ġbro ken
Ġ` .
Ġput s
å®ŀ çİ°
min imum
ge m
vis ed
illa ge
Ġo g
ys e
COMM AND
SY S
Ġd rag
W ithout
ĠP latform
ow a
Ġwa ve
èº «
app ro
M ult
Compl ex
ĠR ule
Ġu uid
Log ic
iz ar
e rtions
ĠCO MP
ĠS ig
× ¢
Ġpe nding
ughte r
C AL
0000 1
Ġg ray
]( ~/
Ġen coded
Vis itor
Ġac cepted
Ġde d
Ġm al
ĠUnity Engine
P ixels
Ġatta ched
ĠSpec ial
ara vel
Mip Map
Gu ide
çĬ¶ æĢģ
ĠS oc
48 3
Sy mbols
Ġdo g
instance s
T V
ĠS ingle
"> -
Ġcons traint
l m
ict ure
use um
TI M
a uthentication
ĠG reen
ĠTrans lators
ĠSE LECT
to wn
Ġin dependent
Ġ7 3
æĬ Ĭ
No r
Ġfa ther
> ("
ĠHOLD ERS
ĠL earning
r ior
Ġk new
v nd
Ġ1 23
ãģ ĳ
essellation Detail
t case
ĠM eta
ĠT witter
Ġ200 4
ãĤ ģ
xx x
Ġgai n
åĢ ĭ
Ġind icate
E LEMENT
ĠP ress
èĩ ³
ãĤ ¸
scrip tors
} [
u cer
Ph ase
Ġca ched
HEAD ER
view e
Ġapp rec
F luent
Ġ8 4
58 5
ĠC la
ĠM D
Ġhea t
midnight blue
å¯ ¼
Ġlook ed
æĸ Ń
à¤ Ĺ
ĠCa che
List View
F oo
Ġhu ge
b eat
ne gative
to t
br ush
Co des
un tain
el eton
45 1
> |
Ġ' )
Ġ* _
Ma nage
Ġde livery
thread s
EN TRY
Ġcard s
pi cture
ĠB ecause
co ncept
feed back
ç ·
ĠP erson
Ġex pe
ç ĭ
Ġw al
viewe r
Ġtea ms
67 2
View ById
for ecast
hook s
nsta gram
4 33
Ġe co
ĠG ood
Ġâ Ī
èĢ ĥ
del eted
U pon
rea donly
H ide
ĠFramework Alternate
Ans wer
and as
Ġf ragment
4 18
Ġ* (
Ġtri m
0 30
ç ħ
Ġstr ess
Fade Distance
s tatistics
uni form
ĠEd ucation
go ing
`, `
ĠR ole
Ġ]] ></
con trollers
ib ling
SNAP SHOT
ex press
G F
Ġne sted
Ġto ggle
ĠmipMap FadeDistance
Ġde precated
ĠM S
Ġpart ner
Ca p
3 69
ãĥ ĸ
Ġa ux
Ut ility
Par ts
"; "
Ġc urrency
ali nk
mo ny
r estore
ĠV POS
4 40
ĠH POS
Ġcould n
Ġ" __
ey e
pare ncy
ĠEl ect
Ġser vers
bo rs
èĩª å·±
. {
Ġd w
37 1
ex change
A rrow
9999 99
pt ers
Trust Flow
site s
U C
ÐµÐ ·
Ġpres ence
encode d
Z ip
ĠÎ µ
Ġì ĺ
¬ ¸
In tro
ilt ering
IS O
å° ĳ
ĠS cal
AA A
ĠH os
scho ol
æĶ¯ æĮģ
Ġfor e
å¤ ´
Ġspace s
' ><
vi rt
E uro
) "/>
Ġpass e
Util ities
ĠEd it
urr ence
ad vanced
éĸ ĵ
Ġe fficient
"> (
Ġmax Occurs
ca ches
s wap
æĭ ©
tur day
z ion
Ġ= ================================================================
ic ip
ë ŀ
e rvers
Deploy ment
ĠPro file
Ġwarning s
ex act
Ġl isten
Ġmi nor
A verage
Ġso m
deploy ment
Ġ ÙĨ
BU F
Ġunder lying
Ġspe nd
dua t
c ite
Per cent
ì Ľ
AP PL
nes e
un ders
su ffix
Ġp ip
ch ing
ĠCh urch
è°ĥ çĶ¨
ha ts
Ġpo lice
ST RA
rat ic
GEN ER
] ])
Ġco okies
F N
Ġro s
moz illa
Ġrea ched
77 6
ĠH ead
duat e
host name
ãĤ ¦
sche me
Ä± r
ete rm
ĠC ase
Ġf p
[ @
as ta
ĠW il
Ġal though
ãĥ¼ãĥ ī
emp t
å¤ ĩ
Ġas t
T ipo
Ġappro xi
and a
A lt
pat e
Ġsize s
Ġreplace d
ë ¶
$ _
effic ient
Ġ" \"
h k
q p
ba a
Ġc pu
Se parator
rt s
å± ķ
4 75
e ject
Ġ7 1
R ound
fr equency
Ġplay ed
åºĶ çĶ¨
99 2
s tations
D ashboard
r eo
ce llent
AC CESS
Ġtrans formation
į °
Ġp kg
start e
Ġk i
Îµ Î¹
ac counts
ĠP H
ff i
effect s
Ġlimit ation
Grid View
ĠPerm ission
">< ?
Ġhard ware
Note s
Ġtempor ary
ĉĉĉĉĉĠ Ġ
B IB
ĠComm unity
Ġto wn
ĠH ea
P ol
Ġse rv
ì ĺ
Ġtho usand
lead ing
Ġro ll
ig u
append Child
f ish
class ification
f rm
Ġ( @
67 89
S nippets
éĢī æĭ©
Ġ á
do ts
åĿ Ģ
Annotation s
ask et
del egate
ãĥ³ ãĥĪ
fab ric
Ġuns afe
Ġsu ite
S hi
tw ig
e ry
Integ ration
card s
e parator
Ġs tation
Ġsu do
CA SE
he ating
Ġthrow n
List Item
NO WN
til de
Ġcommand Name
Ġsur vi
merge ncy
pe ople
R ST
g co
ls t
H K
4 39
ir eless
Ġtrans actions
Ġagree ment
anal ytics
Data Frame
Bes t
sk ill
um l
å½ĵ åīį
Ġp ark
Ġob tained
Ġelse if
condition s
Ġbo ne
Ġparticular ly
al ing
su ite
77 0
ĠA udio
Prin tln
I CT
cr edentials
Sp ine
spec ies
Web Controls
WH EN
ref s
Ġde m
ers ey
p ulumi
Ġfe et
dis miss
Ġre lig
Ġex am
Ġde tailed
u j
the us
0000000 1
ÙĬ Ø©
à® ķ
de m
AV A
ho p
q i
Not ify
de velo
è¾ĵ åħ¥
ĉĉĠĠĠĠĠĠĠĠ Ġ
Ġmo no
IST S
Ġ txt
ĠN ON
è¯ ¢
ÐµÐ ²
Ġb ash
Ca talog
/ (
Ġ ĠĠĉĉ
ri als
Ġmove ment
Ġ ring
åĲ ¯
Ġmo t
__ ;
âĶ Ĥ
C ircle
ĠF unc
Ġ! -
Ġtyp ically
ĠW indow
a uthors
C ulture
Ġ 0000
Lo aded
ĠO ri
r ce
Sto ck
device s
ĠP et
googl ea
| [
over lay
ma ns
execution s
ãģ§ ãģį
. **
Ġ à¨
ĠL and
e ncoder
Ġdiscuss ion
record s
ita t
Ġ1 04
Ġa k
ÑĢ Ð³
kee per
j dt
liste n
ĠVi rtual
Con n
hi b
Stu dent
], "
Ġ ÙĬ
ĠRa t
o no
up ted
Ġw ind
lo que
ĠS ql
4 15
F W
Î¿ Î½
Ġin dent
Ġres olved
Ġsk ill
Ġca uses
Ñĥ Ñİ
ope rations
Ġbut tons
ä¿® æĶ¹
m ale
mil ies
Ġto ur
ç ı
s eparator
Do n
mid dleware
Cla use
Ġlanguage s
Ġno except
000 5
Ġpass ing
Cont inu
tra vis
A WS
s tcase
starte r
ni ed
Ġj ump
Non Null
Ã© r
Ø§Ø ³
e load
addo n
ĠST AT
Assign ment
ãĥ ĳ
as ing
ĠDis trict
Ġr Ã©
Ġc sv
ĠOpe ration
e stcase
Rel ationship
Ġli e
' /
ãģ§ ãģĻ
DI O
CF G
Product s
Ġen hance
TR A
u pon
bi ke
sa n
t estcase
! \
UM N
ien to
s yn
Ġ: )
um ing
ul der
Ġstra ight
ĠC lose
Ġ nd
.. .</
Ġrestri ction
PR INT
Debug Type
S upp
cen tral
Crea tor
78 7
Ġwo r
ĠP DF
math bb
Ġcomp arison
ma d
C y
Ġart ifact
. \"
ex ts
Ex cel
ce nding
C riteria
o sc
O h
M icro
Ġì §
× ª
åĲį ç§°
D ark
a verage
ĠNo r
troll ed
ç¾ İ
36 1
D ia
ãĥķ ãĤ
co nse
his t
Ġme dium
cro l
B et
Ġconvert ed
4 17
Ġ& =
Ġdeterm ined
4 60
C ED
FUN C
Ð ľ
"> %
L ER
WE B
C Sharp
Ġ} "
Ġi mpl
ãĥ¼ãĥ «
åı į
ge nder
Ġsh aring
Ġp oor
Ġra ised
ĠH ost
ĠR ea
{ -
exception s
/ -
la bs
H W
ĠB SD
k vg
h ift
g gers
Ġpa tterns
} ).
ĠTru mp
æ Ĳ
ĠO ffset
% )
Ġ1 0000
Ġb all
ut r
à¤ ¦
PAR AMETER
Ġres trict
co tt
Ġe mb
è Ĳ
Uns pecified
OB J
Ġ8 7
ĠUs ed
ĠSt Object
af ka
viron ments
Ġon Change
vent ure
] ));
Ġd c
Channel s
Jo hn
Ġp ivot
readcr umb
468 7
O ps
= ['
Arch ive
D TD
ot t
Ġp latforms
ë Ŀ¼
ĠX XX
4 22
Ġgo als
ve locity
ĠO nline
Ġp k
Ġp ulumi
sa t
ĠDe v
ut ex
ow ns
Ġequ ation
Ġ' __
Ġmain tain
0 32
P B
è ²
line no
ADD RESS
aract ers
Ġca ncer
Ġmin ute
li ch
l ets
. ";
Ġlocal Var
Ġd imensions
je s
P ART
S tatistics
ĠD b
man n
Re ceiver
ãģ ¿
ca ndidate
Wes t
ns us
Ð ¬
sp l
Ġpri ces
ĠTH EN
load s
get Class
Ġlang word
è§ Ĩ
po pu
uss ia
d ummy
me theus
ĠS eries
ital ic
STAT IC
T G
pro f
z n
gr ey
Ġ8 6
For eign
Cho ice
ĠMa g
( \"
! <
IE nume
ID s
N F
The y
åĪĹ è¡¨
respo nsive
ĠM ob
ãĥ ¥
ĠMa chine
IC O
V D
ul us
(" -
Ġb udget
ilen t
Ġs che
Optim ization
un used
Ġ"/ "
5 15
Ġed u
DE SC
boxe s
ĠA cc
ĠS top
b ac
je nkins
________________ ________________
Ġhe x
Ġke pt
ĠB ur
r ehe
ĠRem arks
Ġca mp
ĠS ample
k ra
pos itive
Ġhome page
nit ive
art i
Ġfa t
nges t
0 22
public ation
-> {
æ´ »
Ġconce r
Ġ8 3
Ġtal king
ĠE L
h dr
ĠRo uter
Ġmark ed
cr ete
cell s
limit s
e ceive
ĠE very
Ġpart ies
Ġcom mercial
Ġf aster
ĠM PI
($ {
ka f
Ġp arsing
ee rs
Click Listener
H ot
do e
4 28
to LowerCase
ine n
Ð½Ñĭ Ð¹
åħ ±
Ġper haps
Ġsubsta ntial
Com ments
r eject
Define Constants
d it
ãģĵ ãģ®
ĠMa ny
Ġphysics Shape
ĠP assword
j sp
ig o
S IGN
employ ee
Record s
Pred icate
pai rs
Ġstore s
d type
hr ase
í ĺ
ab br
à¤ Ł
Ġprovi ders
c lients
Ġdu mp
Error Report
ĠNo v
Ġpl e
ĠU ns
Act ual
e com
Ġ{ $
s tory
Ġb ill
r eceive
act ivate
x liff
O UR
Ġprotocol s
Re vision
Ġre i
r ename
so lid
Ġ19 2
ĠM T
Ġw eather
ĠSh ared
è¿ °
6 50
;; ;
mi nor
scal ar
Ġfr esh
uthent icate
ĉĉĉĠĠĠĠĠ Ġ
googlea pis
Ġtri p
Ä «
Ð° ÑĨÐ¸
bit r
act ivation
Ġbusiness e
ĠA LL
Ġp id
Ġbo nes
ss a
} ),
Ġbusinesse s
ĠJ un
Ġ tp
bi as
ua tor
we red
A rc
æī ¾
o x
ĠU nder
pro b
Ġen tre
: ]
Q T
Ġpr em
car ousel
) ^
ur ther
0 13
Ġk Ã¶
4 24
ĠIn teg
Ġrea ct
Ġemploy ee
ng s
cr e
Auto mation
Ġpresen ted
Display Name
åį Ĺ
ä»Ģ ä¹Ī
fa de
Reg ression
f tp
Ġexerc ise
Ex peri
88 7
Fo oter
im ize
Dis patcher
Ġtra cking
ĠC UR
Ġgu ard
Ġnetwork s
c rate
Ġc ash
ps um
all ey
report s
U AL
ase r
up grade
Re ndering
Ġi OS
un lock
áĥĲ áĥ
ãĤ ª
Ġw allet
mov ie
yl e
åĮ Ĺ
Ġneigh bor
Compl etion
% ">
Ġde tected
Rel ation
ĠAss ociation
Z oom
$ ('#
ques tions
layout s
Ġdis claimer
ĉĉĉ čĊ
NotFound Exception
Mat ches
Ð¸ÑĤ Ðµ
Ġret ry
| )
al bum
Do cker
url s
De code
ĠP lugin
ĠP la
P ressed
jet brains
Pre Infinity
Post Infinity
Conf irm
Uni form
Ġbuild Target
, _
Dis tribution
ge ms
Ġno ise
ĠG ar
V ol
-- ;
W W
v k
Z Z
ĠO ct
OFF SET
hi bit
O wn
D eep
E a
Data Set
================================ ================
Ġsw ift
UN IT
Ġg i
cea n
li day
éĸ ĭ
Ġsum mer
ĠCom ment
Ġchose n
Ġbu mp
a md
BIB L
c losure
Ġ" ,"
Ġc red
a tomic
0 20
Ġ200 3
In c
ĠPro t
ub a
S cripts
] <
ĠRe c
Ġw ird
Ġa ck
Ġcla ims
65 2
Ġend s
ĠU til
Ġcomb ined
Ñĥ ÑĤ
88 5
type safe
ĠD NS
4 69
bo ra
Ba nk
In ventory
Allow ed
Ġpri me
pref light
Number Of
Ġ} ));
Ġreta i
mi na
la h
Ġper mitted
ĠS PE
Ġl eader
Ġher eby
. ;
P ho
Ġor ders
ĠSec ret
get Type
æ¸ ħ
print StackTrace
But tons
por tion
=' #
ãģĭ ãĤī
ime d
Ġretai n
po ll
4 34
sa p
No rm
mo ds
Ġar rays
DE V
po lit
57 9
Â °
U G
å ¡
o uter
ther e
Ġin correct
áº ¡
Ġpro ceed
Ġfill ed
s To
ĠI L
lori da
Ġlos e
f aster
ĠF F
Ġmo unt
Ġs wap
j ars
pa gination
f ro
P ub
Ġco ol
M K
vert ices
Ġob vious
Ġta il
ĠÃ º
Pi pe
ash ion
B UT
For e
Split ting
r eload
Uni code
Ġtri al
Sub Type
:: ::
Ġ5 12
t ns
58 7
Ġres ta
Ġres olver
É Ļ
Ġy a
Ġ ĠĠĠĠĠĠĉ
ĠW ashington
mu tation
? âĢĿ
al gorithm
ĠI tal
ĠT i
4 66
97 6
P references
Ġv ac
A tom
L ists
ç ²
Al so
T K
ĠMo no
C s
f name
Ġp c
ip her
N B
v Ã¡
D s
ĠC ert
Ġqu ote
ytes t
Ġref id
Ø§ ÛĮ
N i
L u
spot ify
ues day
å¾ Į
Ġlog ged
è¨Ń å®ļ
mpor ary
ĠRo ad
ãĢĤ "
min us
Ġada pter
44 2
åĪ ¤
Code Analysis
, &
45 2
nomi al
fore ign
ĠDe pende
t ts
ĉĉĉĉĠĠĠ Ġ
e lif
Ġea t
Ġs ou
View e
IC S
get Logger
ĠO bservable
Ġp et
Ġ?> "
prese rve
Ġma ps
Viewe r
ne igh
Ð°Ð» ÑĮ
Ġhold s
Prin tf
í ĸ
call s
Ġcertain ly
eg o
remove Class
po di
H owever
ph ysical
ra el
g cc
collection s
tech nology
Ġà¤ ª
Ġh r
Ġ(! $
Ġst ub
de gree
Ġs light
Ġ" {{
msg s
Ġ ĠĠĠĠĠĠĠĠĠĠĠĠĠĠĠĠĠĠĠĠĠĠĠĠĠĠĠĠĠĠĠĠĠĠĠĠĊ
â Ĥ
net ty
Ġso ft
Co ncept
u it
Ġdefi nitely
Rotation Order
Ġsection s
Ġlear ned
98 6
K eep
Ġc rit
Ġm igration
S CH
ä¸ Ķ
na b
× ŀ
Ġprin tln
O b
Ġ* .
| -
Ġ%> %
W al
US B
è¯ »
Ġ8 1
Õ ¡
pec tor
Ġuser Id
tra it
å± ±
Ġ nation
itte r
Ġcho ices
è¯ ¯
; __
78 5
Imple mentation
ĠF eature
B one
Ġm ine
. ')
Ġ"" );
Ġgrow ing
En code
nce d
": ["
dl g
65 1
Ġg rand
Ġ à´
URL s
ile stone
Ġserial ize
Ġfa ith
eas y
65 3
^ \
RE L
eque ntly
nima ted
PRO DU
ua ted
ER Y
ap is
ppe rs
Ġuse State
c gi
Ext ended
ex ico
ĠR ich
Ġf ra
BY TE
ĠM usic
A p
j ournal
Ġtal e
S pi
SE S
tr ar
Ġê ³
ab i
Ġpla ne
ĠWe bsite
[ {"
464 5
Ġcompat ible
Ġcon tra
Ġn ullable
Ġs ector
Ġsee ing
Ġ" ../../
| ;
Ġa tom
Ġ ĠĠĠĉĉ
li no
t hy
Ġi Ã§in
çľ Ł
s ep
para graph
mi ns
Ġc run
Ġesta blished
à± į
"" ""
ĠTex as
Ġexplicit ly
95 6
d rive
Ġcel eb
Ġ8 2
T el
ĠS pe
ãĥ Ĳ
è¯ Ŀ
98 3
Ġ1 40
s ales
SER VICE
64 2
_ "
Ġco ordinate
ĠRa nge
4 000
ì ¹
æĦ Ł
Ġh its
Ġlice nsed
A pache
space s
Ġd p
Combo Box
g ri
è «
INCL UDING
æ° ´
P ES
M AT
eed om
--- |
gree ment
Cl ean
Ġs ing
Ġcom ma
xe r
q r
f ired
xa ml
æľ ĥ
C and
ale r
Ġpres ident
go nal
WIN DO
rt ed
L ANG
d up
Ġad vice
8 75
Ġme ss
IS H
Ġsubs tit
00 10
tra cker
Ġk t
SUP PORT
m ical
Rea dable
iz z
æ ĩ
Part ial
Ġ[ (
Type d
set Attribute
Ġexperi ment
ĠG PIO
V K
Mill is
Ġfile Name
s table
Ġcal endar
44 80
Ġ/ .
L and
ili ar
Ġbo rn
Ġresponse s
di ms
() </
ĉĉĉĉĉ Ċ
æĺ¾ ç¤º
Schedule r
ĠP L
log out
> @
= ',
ĠA rea
Dis patch
Ġequ ipment
d ie
e rmin
tick et
æĸ¹ å¼ı
Ġh undred
R ing
On line
ĠX ml
ra ng
è į
ba ma
í ĥ
ol ving
ch ars
Ġstr ength
Ġarticle s
t iming
Ġs pect
Dependent Upon
æ ħ
ARG S
P la
P AGE
Ġpos ted
kaf ka
ĠØ ³
LOB AL
0 18
n as
Ġrespo nd
l bl
ĠN UM
ba bel
lu x
Ġfa milies
ĠLi ke
Ġo der
check out
b hand
crea tion
Ġf f
ĠI DE
Ġm Ã©
ĠÂ «
ope nc
Ġmod ification
Ġdefinition s
E p
Na tural
pos ure
0 50
case s
ca pture
Ġw ee
V eri
di podi
] -
Undef ined
Ġcons traints
f ly
bb hh
X R
T ur
ĠChro me
Ġ1 36
] ["
ĠGover nment
trans forms
s ervers
nda tory
P N
Ġka n
Ġinternal ID
Ġ[ #
Ġexport s
w ired
Ġmo tion
reg istration
æŁ¥ è¯¢
Ġplan t
us band
Package Reference
s tra
Art ifact
Ġho l
T OT
ä¸į æĺ¯
X aml
Fa cades
v our
ĠTrans action
nes day
ĉĉĠĠĠĠĠĠĠĠĠ Ġ
æ¢ Ŀ
Ġpri vacy
Ite ration
ĠW here
fin ish
ends ection
A ug
Ġstyl ed
ĠCance l
Ġident ified
Ġm x
Ġ% %
n ick
Source s
ce pts
fo od
K B
Ġtech nical
Ġv ous
H ard
Ġ} .
Re cogn
Per formance
go lang
åŁ Ł
ara ble
Ġnume ric
åİ ¿
el asticsearch
. ');
åŁ İ
um bs
Ġko n
Ġa udience
'), (
po lation
Alpha Splitting
ree k
develo pers
Ġallows AlphaSplitting
V RT
urs day
ĠCo uncil
ĠCen tral
Ġco nstants
ip v
ÐĿ Ðĺ
åĿ Ĺ
e el
/ __
lu as
01 00
Ġ Âł
V ars
Ġal s
RET URN
c ca
y r
Ġframe s
ĠFri day
ĠPR IMARY
ar ound
Ġe arth
ri um
level s
rec v
ve x
not ice
ĠMark et
=" ./
g as
99 4
49 2
Ġiss et
Check Box
Ð°Ð ³
ma ils
Ġpro mpt
Ġob taining
FA ILED
M W
ĠE ntry
0 40
Ġattr s
AUT O
ĠP UBLIC
un def
ir ls
- $
work ing
M ass
he rs
zona ws
ãĥĥ ãĤ¯
=- =-
ule r
Ġtrad itional
d v
A vatar
Import Group
elle n
j k
E t
Ġma na
ĠN ull
sub section
ra ce
79 6
ct ed
e rior
ama zonaws
r hs
Ġ) );
: =
Do e
Ġlo ader
un o
Ġla ck
con c
Ðł ÐĲ
rd fs
Ġauthor ity
ET C
his to
Ġesse ntial
ol ves
Red is
y ellow
t mpl
de e
ĠAn t
Ġ ĠĠĠĠĠĠĠĠĠĠĠĠĠĠĠĠĠĠĠĠĠĠĠĠĠĠĠĠĠĠĠĠĠĠĠĠĠĊ
Ġi ne
æĶ ¿
e h
) ")
Ġassign ment
sort ed
: ',
æ ¼
Ġg one
ad i
> ]
ĠUs ers
58 9
w ho
Ret ry
w izard
Frame s
wan t
55 2
ĠL u
ri l
f ar
47 2
ĠL td
eris tic
it ness
Ġdri ll
T iming
C li
Bl end
ex isting
Re cycle
T CP
Ġequ als
à¸ Ī
In ject
çĶŁ æĪĲ
åı ¸
Ġcor ner
Ġì ľ
Ġa mazing
Ġ til
Ġopport unities
Connect ed
Ġreturn ing
d rag
ĠR ET
ĠSho rt
G ood
normal ize
Ġup stream
jav adoc
ĠUS B
à® ¤
max imum
ĠNote s
ut y
ĠVal idate
46 1
p w
7 50
lu etooth
ĠCONTR IBUT
Ġassert True
Ġorder ed
ÙĪ Ø±
Ġo dd
vis ions
ĠS M
Ġad vanced
SCRIP T
ĠV olume
Ġs cenario
\ ";
de rive
L R
ĠS ign
E e
Ġd n
çħ §
') [
ĠP ut
æĸ Ļ
key board
ĠP hoto
"," ","
Ġd ummy
reg ular
M u
voc ation
Ġg irl
Ġreport ing
ĠS un
be nchmark
ĠFi nal
change s
Imple mented
å Ķ
has is
w eather
ä» ĺ
ä¾ Ŀ
equ iv
Ġmig rations
ãĥ¼ ãĥĪ
åħ¶ ä»ĸ
t tachment
Ġpro posed
d oor
Ġpr eg
Pri mitive
4 37
SY STEM
ãģª ãģĦ
Ġla zy
Pro blem
( ?
' ></
Type Def
Ġc riteria
Ġvo latile
Ġcons istent
Ġ ĠĠĠĠĠĠĠĉ
a ttachment
Ġre nd
ÙĪ ÙĨ
if rame
N ORM
Ġrei n
ps ilon
46 3
Ġf ir
Mat cher
La mbda
ul ary
Ex press
W all
Ġb illion
Ġca mpaign
F G
ĠÐĿ Ð°
ST A
al la
O VER
t ta
>> >
IRQ Handler
Ġ tc
â Ĩ
s tic
ãĥĹ ãĥŃ
TL S
Ġdet ection
Ġpro vision
ĠJO IN
O s
Ġ20 23
Pr ec
ĠÃ ¨
ac l
Doc umentation
z illa
po ne
are house
pack aging
Ġagree ments
Nume ric
place ment
STRU CT
5 37
nda n
Ġ9 4
tr uc
Check e
Ġman ifest
f k
que ntial
ĠH y
requ is
b ur
ulne ra
åĢ Ļ
S tri
ë ª
t weet
Ġinte ract
ĠG reat
Ġkey board
ĠT ab
g id
Se rif
Ġexec utable
ä¸ ²
wa g
Ġac tor
ĠAs ync
p arsed
, [
Ġs li
( |
f ret
Checke r
S al
95 3
Ġp b
illi am
des ig
ĠBe fore
ml ess
ĠMat erial
p v
em s
St eps
Ġdes k
and ra
ĠE val
Ġcollection s
ä¸į èĥ½
Java Script
bse rve
æĢ »
y u
Ġtyp ing
MI ME
Ġw ife
RE AM
Ve hicle
". $
b w
ĠP C
S elec
Ġ ÑģÑĤ
çĶ µ
Ø§ Ø¯
Ite r
ĠC ustomer
Pri ncipal
ĠM aster
de nts
Tool bar
nde mic
Do xy
07 8
ne a
e sa
block quote
çĦ ¡
ra it
Ú ¯
ex ist
ĠS chedule
ĠL ive
Ġ9 1
exclude Folder
å¥ ³
22 22
Ġinterface s
Ġg old
Ġsug gest
Ġa i
Ġde e
Ã§ a
Ġde limiter
Ã¡ n
par allel
åĲ Ħ
n ters
E AR
Ġb rain
åľ° åĿĢ
m box
Lo gs
df s
á Ī
ĠBo dy
pp l
luas rc
Ġco llege
str eet
To k
que e
4 35
12 345
pat ient
At tachment
Po d
M igration
po wers
(' -
MO VE
19 97
ĠG iven
ax i
serial izer
uan t
Ġex plain
ĠHel p
="- "
RA W
wj gl
è§ ģ
s ture
IN S
Ġ pen
Ma cro
java c
Ġpor tions
Ġf is
Ã¨ r
mm ar
g un
Ġindica ting
Ġpower ful
P lugins
REQ UI
n ventory
W ell
it ivity
ĠOther wise
Draw able
Ġqu arter
ãĤ ¨
ms et
Ġform ula
d ictionary
Ġnear ly
net o
Ġfirst Item
di rs
ĠPa ul
Ġdist inct
Ġtick et
u ations
ran ty
10 16
Ġsupp lied
L M
ne o
Ġst ick
ãĥ ŀ
irc ular
ne ous
Ġrel a
d z
Ġarch itecture
ĠPy Object
ĠNo rmal
ĠQ String
Ð £
ĠS al
INTE GER
ĠO h
s na
ĠThere fore
car bon
resol ved
ex c
AT IVE
i nventory
ĠSi n
ĠC LA
Ġhe althy
< %
AD V
0 19
Ġloc ally
Ġc ircum
ca pacity
Ġlet ters
num bers
ĠS SL
ĠLink ed
hl e
irgin ia
Ġope ns
ĠRedis tributions
Ġpro gramming
5 25
/ ',
gt k
6 16
utho rize
ST AMP
So lid
Ġcoll ected
è§ Ħ
Ġba n
eg ree
e shape
ĠAct ivity
éĢ ł
Ġ[ ])
Ġscho ols
EX P
light s
ame t
sta nding
k ill
r eshape
ĠGene rated
Ġaff ected
b lo
w alk
64 3
TO OL
ĠRet rieve
Ġ( &
tal k
em perature
ST D
he ap
P TR
ĠDoe s
iz za
ata n
4 26
ĠRE ST
3333 3333
prevent Default
rg ba
pa tion
Ġpe ace
bitr ary
ĠZ e
VRT X
t ia
ide s
Mo tion
Ġp ytest
J u
Ġdo lor
ro uting
Ġmean t
Index ed
ĠHa ve
Ġ tie
Ġcrun ched
tat ive
Ġwould n
$ "
Null Exception
get Data
67 3
ĠRE QUI
äºĭ ä»¶
m irror
Ġcomp iled
Ġtop ics
B US
> $(
Visual Studio
A ng
: \"
$ ("#
Ġimp ro
sta n
AC C
ĠS unday
B N
44 1
è³ ĩ
çīĪ æľ¬
Ġc Ã³
é¡¹ çĽ®
co ords
6666 6666
Par allel
Ġw s
loc ations
ï¿½ ï¿½
[ \
Ġca talog
Ġê° Ģ
Ġe ight
Ġbuild s
Ph ysics
Tool tip
æĬ ¥
Ġri ch
b z
Ġallow ing
Ġto String
Ð¸ Ñĩ
ĉĉĠĠĠĠĠĠĠĠĠĠ Ġ
ps is
VIC ES
k v
Ġreg ions
reate s
Ġge ometry
Tra cking
ol den
ĠCo untry
× ©
Enume rator
name n
c xx
net s
ber ry
ho rs
ĠGene ric
CONT ROL
Ġto l
áĥ Ķ
pa ne
Ġre mains
Ġtexture Compression
ĠS ea
Ġprep ared
Ġp andas
ta ng
, #
ĠV ER
Ġcrunched Compression
Ġcon tributor
Ġoffe ring
A fri
ĠB ad
ani mate
ĠD ynamic
a mb
Ġorga nizations
Ġ ĠĠĠĠĠĠĠĠĠĠĠĠĠĠĠĠĠĠĠĠĠĠĠĠĠĠĠĠĠĠĠĠĠĠĠĠĠĠĊ
48 1
P DF
d td
ãĤ §
Ġhelp ful
Ġp ray
ON Y
ret ry
ax e
imple mentation
ho sts
48 2
reates t
ĠO w
v it
bu y
ri m
ĠComm un
Ġda n
s erve
CONT ENT
lan t
Ġparse Int
Ġstd out
ĠS tory
A rial
type d
Ġreg ist
Ġro utine
Ġy ang
Ġlo a
Bu ilt
ri age
un ta
perso nal
69 3
Ġstr ug
ba ba
Ø °
ac cur
58 6
5 50
New tonsoft
ãĤ «
Ġente red
B log
:: _
ĠN i
ro unded
FRA ME
64 1
Ġb lob
ca pa
ÐµÑĤ ÑģÑı
Ġsoc iety
El s
faster xml
Ġspec ifies
PRO C
"> '
Ġx ilinx
ĠBi nary
ĠKing dom
Ġlog ical
ĠT IME
Ġthe ory
end foreach
box ed
bo w
IV ATE
F lat
Ġpro of
O ffer
Ġs pring
Ġinte ractive
eat h
EX EC
S amples
Ġp ure
Ġhosp ital
- "
Ġbound ary
Ġl ua
Ġdecl aration
Ã¤ t
ĠF low
qua t
Ġapp lies
Ġcon ference
e cogn
gi ble
Ġqual ified
Instance s
FF F
Ameri can
ãĥ¼ãĤ ¸
Ġcon tribution
Ġ1 12
49 3
Ġ9 2
ĠM ET
Ġexp lore
000 3
com bo
Device s
7 08
Ġchallenge s
e rp
ev t
Ġdecl ared
ĠDef ine
Ġsho t
Ġbi as
Ġfe deral
Ġp refer
ìļ Ķ
ĠS up
ĠSystem s
Fix ture
APPL ICATION
68 3
I cons
h ua
compl eted
ĠCo uld
get Text
the mat
Ġp urs
Ġpract ices
* >
Ġ ĠĠĠĠĠĠĠĠĠĠĠĠĠĠĠĠčĊ
ĠEx port
Cr edential
£ ¼
TH ON
po graphy
Word s
s tudio
Ð Ĺ
Del eted
+ ",
Ġ1 11
ç ĸ
ë Ł
c tors
u ite
d g
Get Value
ĠDeta ils
get Attribute
Ġch urch
à¸ Ĥ
ĠS W
Ġup dating
r ecogn
Res olution
C ycle
}$ .
P ull
stri de
Ġj Query
war ded
Ġ\ (
(" ");
ok ing
o gs
M usic
æĿ ±
K i
Sta mp
m us
Mod ify
ĠN eed
x r
sc ience
Ġg rep
/ ,
reg o
L arge
lock ed
Ġ( #
Æ° á»
')) .
M ARK
ĠS eq
Ġa e
4 27
ro ugh
ib ration
Ġ åľ¨
T hank
Ġmo ngo
Character String
ê² Į
M ost
ta tor
Ð½Ð¾ ÑģÑĤ
t end
Ġthe o
Ġë ĮĢ
FO UND
P reference
ĠP ers
Mid dleware
ĠC ross
ĠL L
w eak
Ġm r
Ġro bot
dis trict
Ġ' [
ĠSe n
CHAN GE
Ġ(! (
ĠÐ¿ ÐµÑĢ
Ġse aled
F ee
ask a
hi nk
ress e
Ġma tplotlib
Role s
T u
ĠChrist ian
upp et
: *
CH O
ãģ Ī
ĠO FF
mo ney
Ġn ie
ĉĠĠĠĠĠĠĠĠĠĠĠĠĠĠĠ Ġ
Ġ1 25
i OS
á½ ¶
Ġf ro
c rypt
Ġfor get
âĢ¦ ]
ic io
ĠV erify
ìł ľ
04 7
åĩ »
Ð½Ð° Ñĩ
Ġra n
ĠComp ute
Ġthought s
Ġfocus ed
A m
CT L
ea h
Ñĥ Ð´
XX X
Ġma nner
forma ts
ĠE nergy
ĠF UN
Ġadva ntage
ÑĢÐ°Ð ²
Ġus ize
Ġ{ })
Ġdir ector
ĠJ ames
ç ¯
ĠB log
= #
org ia
ÑĪ Ð¸
4 38
sa m
: $
Ġo ch
C losed
åł´ åĲĪ
Ġde termi
Ġest e
P AT
Ġex pec
synthe size
L ite
Ġbo ot
us b
Ġhandle s
Ġpri ncipal
/> </
ĠComm ission
cri mi
ĠAnal ysis
g ulp
ÐĴ Ðŀ
c ious
div ision
Un ion
File System
ĠBrit ish
ĠEx peri
Ġre peated
Ġmeas ures
bat e
}/ ${
v w
( ',
ĠØ ±
Ġ1 30
Code c
hol ders
Ġmys ql
ĠC R
schedule r
è´ ¥
r View
áº £
G I
iv os
Ġpri nciple
ve ring
Ġdevelo pers
Ġoffer ed
ç»ĵ æŀľ
Ġëĭ ¤
ĠC y
æ£ Ģ
ĠG uid
compat ible
," -
j t
S ch
æ ©
Ġcall e
std lib
r z
0 27
Ã¡ t
Ġstruct ures
Ġb id
ĠL ou
çķ Į
Ġmin us
D rive
ĠI Enumerable
ç ª
definition s
Ġval ida
Ġsur vey
ma nent
Ġpre view
Ġmil itary
æİ ¨
Ġscore s
Ġk it
Ġre ceiver
Ġrelationship s
ĠCh aracter
çİ ¯
Ġintrodu ced
S ales
co nce
mod ify
PROPER TY
ãĢ ĭ
ST M
IF Y
Ġsho p
ui no
Ġshe et
ima tor
accur acy
P s
b urg
+ (
c red
6 15
Ķ Ħ
Ġdegree s
Ð» Ñİ
Ġfa m
Ġfund s
d al
Ġknow s
Ã¨r e
ĠIs land
ko n
Ġconfi dence
support ed
C n
ta p
ic ion
. `
') {
ol lar
mit ives
="<? =
TER N
h ickness
P l
Ġpain t
Ġde veloper
è® º
Ġsub mitted
TEXT URE
Ġ tv
it Ã©
Ġscal ar
ĠP rep
tra ction
Ġ ĠĠĠĠĠĠĠĠĠĠĠĠĠĠĠĠĠĠĠĠĠĠĠĠĠĠĠĠĠĠĠĠĠĠĠĠĠĠĠĊ
Ġs table
; _
Ġu nable
04 9
CMake Files
s wagger
Res olve
Ð ©
His to
4 65
B g
ĠDe scribe
Ġtro uble
Ġhandl ed
ĠS tatic
ĠBo rder
V N
arti n
ia tive
yy yy
ans i
Ġeffort s
ĠCon f
=" ,
Ð¾ Ñĩ
Con version
Ġ ger
Ġm ission
rg ing
M UL
MB ER
'] :
fill ed
ĠM us
thri ft
P ick
55 3
(' --
éĶ ®
Ġpref erred
LI MIT
Ġi i
åĬŁ èĥ½
ica go
gra vity
Pu blish
E ven
DE C
ì Ļ
Ġcomp et
file path
rt ho
T ube
e nergy
Ġb right
Ġans wers
Ho use
Ð¸ Ðº
28 57
end a
part ner
ĠA ns
Ġappro ved
Ġlimit s
Ġrepresen ted
à¸ °
ĠCONT ENT
Ġge nder
ia o
Ġart ist
ING E
Poly gon
S uc
} (\
inc luding
! )
require s
t hickness
Ġ ĠĠĠĠĠĠĠĠĠĠĠĠĠĠĠĠĠčĊ
,,,, ,,
Sm art
ĠP oly
> _
ĠE N
da nce
ĠThe me
Se p
K A
ay a
El ect
s igned
DOCK ED
+ #
Ġn b
Ġdevelop ing
Ġc losing
IsNull Or
................ ................
4 67
met h
r ecom
88 88
Ġcli mate
ĠA b
ĠI R
trib uting
F un
ĠRe sources
INTER NAL
Ġtool tip
ĠW ire
ĠFr ench
nse rtion
ĉĉĉĉĉĉ Ġ
ĠCO MM
naps hots
ĠCON NECTION
Def aults
[] []
x p
Med ium
æŀ Ĳ
t et
âĢĶâĢĶ âĢĶâĢĶ
um u
tur n
ĠP arser
Ass igns
iga n
S un
Second ary
Start ed
Build ing
ĠI E
m ind
Mo unt
Â «
% .
Ġcon tributors
ACT ER
D MA
Ġex cellent
k ub
" &
de ad
N Z
Ġwork space
Ñĥ Ñĩ
ĠT EXT
P ivot
ĠP red
ĠW idget
ãĢ Ĭ
gre sql
Ġbri ef
Ġ tipo
z il
cont inu
miter limit
Ġanno unced
T ele
Ex ist
tru mentation
x z
å½ ±
: ${
det ect
IT ER
type script
ĠB egin
ê³ ¼
sta nd
Ġcol s
id no
Ġdis covery
oc ation
Ġspec ification
na k
ĠW rit
Ġê ¸°
not ifications
id ing
ak ing
dataset s
ĠS pan
Ð» Ð°
r eta
Ġcl ub
cele ration
/ ).
11 38
6 27
éĶĻ è¯¯
B old
Serial izable
ä¸ ľ
Ġr t
ĠEng land
Ġfi xes
ex panded
ast ers
Lin t
graph s
ad j
+- +-
last ic
Ġs printf
(" ./
mat ically
Ġcalle r
× ĳ
ce nes
Ġite ration
E nglish
0 48
Ġex pense
Ġs vg
Lo go
Ġz oom
============ ==
ĠD OM
75 2
ha na
M r
nsta ck
Ġsk learn
Ġha ir
Ġ rise
èĬĤ çĤ¹
Gu ard
Ġve locity
Ġ[ :
Bi as
ĠINT E
sub title
Ġv ars
è¯ Ĩ
Ġin ject
hard ware
Ġ' +
Stro ke
äº Ķ
Ġcon versation
5 10
Auto wired
itl ed
Rout ing
AS F
æĬ Ģ
X amarin
a nonymous
Lea f
P OT
pro files
å¤ ª
åħĥ ç´ł
Ġi mpo
69 2
L ife
0 24
ĠE arth
> ");
Char set
MODE L
ski n
Ġ× Ĳ
ĠE ffect
å¢ ĥ
rec ipe
po ver
Over flow
78 4
Li braries
nde x
d ct
macro def
score s
p ie
TH READ
Ġcancel lationToken
Ġc art
am il
Ġs elec
çĶ¨ äºİ
ĠÎº Î±
aro n
å Ħ
ĠP ER
Ġv ary
I so
= &#
FR INGE
Ġe sc
Ø ¶
goo ds
Ġclass ID
Ð¾Ð»ÑĮÐ· Ð¾Ð²
Ġf raction
B and
Ġarg c
Embed ded
ĠMod ified
ĠD u
provi ders
Ġsto pped
æĢ Ŀ
ĠCh inese
Ġcha pter
ec to
Ġsy mbols
5 28
ĠBe r
ç® Ģ
Ġo rientation
ist rator
Ġinter view
Ñ į
ĠH uman
roo vy
n ion
Ġ ä¸Ń
hu man
ĠDo main
Ġtri angle
Ġdo m
tern ion
At tach
SE QU
ri ck
ale n
o bo
ĠM ass
ĠType s
Ġrece iving
èģ Ķ
sym fony
Ù Ĳ
ĠLo ve
CL A
ĠSy mbol
Ġs v
\ &
Meta Data
ced ures
à° ¿
) ],
Ġvio l
Cancel lationToken
å Ĥ
77 4
tri a
A bsolute
ĠD river
"^^ <
s co
ãģ ©
Û ģ
amet e
Ġstandard s
Ġlo ved
gb fs
ĠEX ISTS
FRINGE MENT
CC CC
ĠCL ASS
US A
R x
ĠÑģ Ð»
Ġdig its
ĠPro tocol
æ ļ
Q Q
ĠH tml
' </
pos ing
p romise
)) ]
5 40
Ġ9 3
Ġset Timeout
r rain
prod uc
spe ech
wi k
e mantic
Ġ' :
system s
Ġread s
0000 01
RE SET
D ie
Ð½ Ñı
Assigns Score
Ġnav bar
AN Y
man AssignsScore
I tal
la w
r mediate
la ma
e rmediate
Ġaccess ible
Arch itecture
t ermediate
amete r
ne k
=" [
Ġope rand
ĠA I
Ġdo ub
ub ic
å¿ «
Ġ× Ķ
ĠN A
Ġexception s
ĠF amily
Ġpho tos
b rowse
il iate
Emit t
79 4
provi ded
ris ing
sql ite
ma ted
Emitt e
Ġe g
ĠC S
Ġre vision
Ġkeep ing
ëĵ ¤
Ġre n
i nters
66 3
Expression s
Ġba t
Ġdate s
n termediate
ĠÑĢÐ°Ð ·
Ġ{ ...
Ġ íķĺ
Co ordinate
T hree
W O
Ġdr ug
Ġ$ (".
i ntermediate
element ptr
Ġc trl
å·¥ ä½ľ
Ġsim ulation
s emantic
Emitte r
Ġb as
Ġanno tations
Ġo uter
Ġe nded
G PU
78 6
| '
Ca pacity
Ġcalcu lated
ĠÐ¿ Ð¾Ð´
D y
ĠA RE
ĠCl ub
![ ](
Ġacc urate
Ġin frastructure
Ġ10 2
Ġcontinu ed
ĠLa ke
ĠBa tch
set Value
um s
æİ Ĵ
rd s
z k
Ġconc a
Ġoff ici
v tk
oli na
Ġelect ric
alle s
æķ Ļ
M IC
ĉĉĉĉĉĉĉĉ ĉĉĉĉĉĉĉĉ
ĠS IZE
Ġp ieces
C as
da o
E very
SOUR CES
åľ º
y arn
IMP ORT
Ġj up
Ġcomp uted
Ġco unts
Ġ ãģ®
Ġme r
Ġa o
Ġlo go
Ġ200 1
s tm
C AN
={ '
CON F
Ġm l
prec ision
Ġ ----------
ĠL LC
c itation
ĠColo rado
IN F
ect l
name of
BUT TON
' ",
fe n
cade my
Ġtw ice
Ġse ven
s pin
Widget s
ni el
Ġg ui
Ġo bserved
Ġnormal ize
f v
Ġp ue
ĠA g
s trategy
Ġcomm unities
Ġget elementptr
F M
ÐŀÐ Ļ
ĠFa iled
mp ion
è® ®
ĠEx pected
Ġb s
ĠWa it
Ind ices
MMMM MMMM
Case s
ilo so
ĠE mpty
tea ms
ĠCOL LATE
CL R
Lea ve
, ['
ĠMo nday
trins ic
LIB S
Su ffix
Mo ngo
pr ep
Ġse rved
ch ip
Ġlist ing
ĠU i
Ġre views
o range
tt ers
ĠA uthors
Ġprot ein
áĥĶ áĥ
tre s
Ġeng age
Ġ lay
ãģ£ ãģ¦
val o
Ġ** /
9 09
Ġformat ted
Ġd ied
ìŀ ħ
Ġcent ury
L if
æĸ ¼
men tion
ĠCon ference
b untu
ĠC are
class ifier
Ġbo y
Ġa vg
IEnume rable
dash array
Ġmost ly
Ġ ĠĠĠĠĠĠĠĠĠĠĠĠĠĠĠĠĠĠčĊ
LA ST
99 3
background Color
class List
AL T
IN FRINGEMENT
:: __
Byte Array
UT C
iz ations
Ġstr l
e raction
Include Directories
Ġj ourney
57 0
hing s
mat ched
So ft
Ġfront end
% {
b utt
59 6
() \
7 20
Ġc ivil
Ġg ap
c rt
Ġ ãĤĴ
Ġde nsity
Ðķ Ð¡Ð¢
Ġ ven
")) ,
ĠPart y
b ea
Ġg lo
éĥ¨ åĪĨ
åĪ ĩ
ACT IVE
c it
H AS
t ight
å± Ĥ
CON NECT
ndo ff
Ġsa t
ĠN u
å¼Ģ å§ĭ
Project Path
La unch
T ho
ult y
EN S
59 0
ĠE vents
M ig
Ð½ Ð¾Ð¹
mpos ed
Î¿ ÏĤ
éĻ ¢
get Time
Additional IncludeDirectories
Content Type
Debug ger
ĠCl uster
Ġ[{ :
ide a
Presen tation
US D
May be
Ad just
facture r
App l
!! !
ĉĠĠĠĠĠĠĠĠĠĠĠĠĠĠĠĠ Ġ
tuto rials
AP H
éģ ¸
R AM
ĠSy mfony
be havior
) ])
BO X
è§ Ĵ
Ġtr uly
ç¤ ¾
ĠF eb
t eraction
: .
inherit doc
Ġclose s
ĠGe n
char ts
il ly
45 49
ĉĉĉĉĉĠĠ Ġ
ENTI AL
Ġa na
e sc
Ġut ility
ho urs
ĠDig ital
æµ ·
Ġ' ;
Ġma is
l ement
au toresizingMask
HO W
ĠGa t
6 17
ĠF ranc
Ġsa nit
è Į
ĠNot ification
ar ations
red ux
Ġed iting
; "><
Ġred uced
Ġ mental
ĠDI RECT
è ¼
sol ver
Ġclear ly
ĠIP v
Ġcons ult
bo ts
ĠA gent
Ġ( /
<< <<
get Item
rew ard
ĠQ ual
ba b
ba bility
ÐµÐº ÑĤ
Ġhel ped
Spa cing
Ġo urs
Ġp ou
ys tal
. -
Bla nk
ĠSH A
po ns
ľ âĶĢâĶĢ
Ve locity
Ġco mpose
Ġsee k
= `
ge ry
writ t
SET T
Ġdies e
":[ {"
Ġan nual
åľ Ł
58 4
A mazon
ly n
Ġ twe
US H
ct ures
he art
writt e
crea tor
Ð´ Ð°
F igure
ĠDir ector
alt member
| "
ĠD rop
ver b
ĠCONTRIBUT ORS
g m
ĠDep loy
Ġinitial ization
Ġfont Size
). </
n teraction
Ġg rant
ÑĤ ÑĮ
mo ji
ul la
Ġho sts
t ies
w so
åĨ ³
a nim
Ġl t
Conv olution
N eed
mag ine
q li
FIL TER
Re mo
Ġsy mp
e solution
ĠM ary
Ġcon tribute
æī į
ca y
} =
ĠÐĿÐ° Ð¸Ð¼
UB LE
ĠTime s
47 1
f emale
PE G
w ifi
ÙĬ ÙĨ
nk a
get User
Ġnew ly
S mo
ĠTra ining
ĠF I
nce lled
Ġre ndering
Ð½ Ð¾Ð³Ð¾
p as
Tri m
Y S
water man
ä½į ç½®
itat e
IN LINE
88 6
0 38
T alk
Ġdig it
f hir
ÙĪ ÙĦ
48 18
o racle
Ï į
ĠT om
oo oo
55 1
no ise
str eams
Ġmo tor
Ġreal ity
Ġmo rt
> ');
di gest
D W
Ġa uthorization
C AR
pm wiki
æĺ ĵ
* "
çĶ² åŁº
writte n
ë Ĥĺ
ĠCom ments
ĠUp dated
Act ivities
Ġs na
Ġecono my
Ð© ÐķÐ¡Ð¢
f ari
æİ¥ åı£
Ġs ie
S tory
Ġg ri
ĠÐĺ Ð´
ĠCons tructor
R pc
Ġdepart ment
Ð¸ Ð²
ĠI nsert
#### ##
ect ure
Ġdec isions
r esolution
ĠS DL
ffff ffff
Ġpro ve
INST ANCE
termi nal
b v
\\\\\\\\\\\\\\\\ \\\\\\\\\\\\\\\\
W ay
E mployee
kt e
ĠExec ute
Ġg rad
l ite
i nteraction
Ex tract
pa nese
m alloc
G ets
ĠINTE GER
7 05
press ed
ur u
parse Int
H B
Ġdis trict
ma ker
elli gence
Ġstr eet
Ġm as
if ts
diag nos
ĠMo ngo
ìļ °
¹ Ħ
ĠO ld
B SD
C ACHE
Ġreplace ment
Ġre covery
ĠG UI
Ġsprite ID
Ġu nexpected
fold ing
Ġ200 2
o e
Ġc reat
è¿Ĳ è¡Į
tp tr
ĠPre s
Ġex ceed
L B
Co mposite
E nergy
NAME SPACE
Ġstrl e
89 0
u z
ĠCOM MENT
per formance
Project Configuration
P si
Ġstrle n
Ġ 000
çĶ »
Ġresize Algorithm
67 1
=" &
âĢ į
ĠEx change
ĠAL IGN
ãĥĥ ãĥĪ
cd t
u ing
ĠD irect
str cmp
Ġvis ion
Ġopin ion
Ġextreme ly
Ġconse n
Neg ative
| `
Value Pair
å¼ Ĥ
Ġpre ce
', ['
t ear
áº ¿
Ġhe ro
=" ðŁ
k n
ĉĉĉĠĠĠĠĠĠ Ġ
P X
à³ į
loque n
å¿ Ĺ
å¤± è´¥
Ġconca t
Ġè İ·åıĸ
Fi nished
Ðŀ Ð¡Ð¢
Ġdir ectories
ï ¾
K ER
Ġposs ibly
49 1
Ġesta blish
Ġcomp act
Sen t
ut ines
Ġla b
p ted
Fa ke
ĠAl though
Ð§ Ðķ
bse n
Ġf iltered
urs t
std io
ĠNOT ICE
ĠRo man
na pp
gt e
- ${
loquen t
ze s
Ġà¤ ľ
çİ ĩ
ç Ł
Property Name
pl ural
ĠK eep
mag ic
la zy
cons umer
Ġtrea ted
> ().
Ġk ing
Ġmag ic
Ġfor mats
? ;
) ];
\"> \
powers hell
Ġs alt
Ġv ideos
sc i
Ġe state
N M
}$ ,
stri pe
ĠDE AL
ĠS ide
ĠW ay
unit Pattern
Î½ Î±
ä¹ ¦
ata ble
Ġìł ķ
rtu nately
ĠPro vider
Ġp Ã¥
Ta ke
75 3
Mid dle
Ġstri de
ĠD ialog
n ny
Ġbe haviour
Ġco lab
vo y
Ġdri nk
u di
Ġmk dir
ĠU rl
Anal ytics
Ġlo ts
P et
e ceiver
EN O
r ss
ordi nator
èĩ ´
Ġ ĠĠĠĠĠĠĠĠĠĠĠĠĠĠĠĠĠĠĠčĊ
Ġs ports
Res ize
Ġra ting
ĠDoc umentation
æŃ ¢
Ġes lint
R ay
ĠMa tch
A NA
Ġ1 44
ext e
Ġexperience s
ĠP ersonal
Ġshould n
Ġcon tainers
com merce
ĠJ ew
Ġn h
ppl e
Ġ ÙĤ
Type Id
ĠThrow able
å± Ģ
und o
ĠW eek
Head ing
cen arios
Ðŀ ÑĢÐ³
lic ity
89 6
trans parent
c lipse
li z
i h
Ġent ir
ĉĉĉĉĠĠĠĠ Ġ
rom ium
Ġh usband
Ġ< %
status Code
" /
k al
r eceiver
Ġspecific ally
68 2
iss a
A udit
Ġs ounds
Ġd up
spec s
ĠBO OL
R DF
T urn
quan t
ĠA lte
raw l
ĠU UID
Ġloa n
à¸²à¸ £
bi rth
ĠN Y
R W
Ġtra it
Ġ< %=
hi bernate
Lo ss
ĠInte n
Ã ¬
Ġw arm
x fe
eval uate
ED IT
de precated
Ġwar ranty
ul um
schema Location
Ġrespect ively
co b
il ders
P icture
ĠTra i
lino is
Ġspe ech
g row
l hs
ĠS am
ĠCommit tee
jet ty
Ġtree s
Ø º
Els e
ÐĿ ÐŁ
87 0
I VER
ĠBack ground
ÐŀÐ ĳ
ĠAPI s
ut ron
` *
Doe s
Ġclean up
UNK NOWN
ĠT CP
ĠS can
Template s
dig it
Ġco ld
Ġr v
Ġcontent Mode
ĠInst ead
writ ing
ĠO b
Ġge m
ĠC D
ri ca
ĠB os
ĠÐĺ ÐĿÐĿ
é Ł³
97 0
qu et
G UID
m ill
Any CPU
ĠM P
Û Ĵ
ĠO B
cal culate
DE SCRIPTION
Ķ Ð¾Ðº
l eq
Ġhold ing
Dis pose
95 4
eu do
Hea p
r esa
ĠCo rr
Ä±n Ä±
Ġdifference s
Ad vanced
éĹ ¨
aste rn
Ġ áĥ
Ð® ÐĽ
tech nologies
}, \
S us
ï ¸
G iven
à¹ ģ
bserv ations
ĠM ichael
Ġreference d
ĠSet ting
incr ement
j boss
¡ Ð¾ÑģÑĤ
Success ful
D NS
Ġno s
Ġ Ïĥ
Si nk
Res tore
ĠÐĿÐ°Ð¸Ð¼ ÐŀÑĢÐ³
ĠÐĺÐĿÐĿ Ð®ÐĽ
ĠÐĶÐ°ÑĤÐ°Ð ĶÐ¾Ðº
c redit
Ð¡Ð²ÐµÐ´ ÐĿÐŁ
ĠÐĶÐ°ÑĤÐ°Ð ¡Ð¾ÑģÑĤ
ĠÐĺÐ´ ÐĶÐ¾Ðº
eb p
Ex amples
D ROP
as hes
Ġwebsite s
s lint
Mo vie
Ð©ÐķÐ¡Ð¢ ÐĴÐŀ
Ġmajor ity
ĠRe mote
R ich
w ine
ĠLine ar
ng inx
b ara
un ix
process ed
il ot
L ean
exec utable
Ġhelp ing
Ġno vel
D WORD
Ca ption
ä¸ ĸ
doc uments
ĠIllegal ArgumentException
Fallback Override
bb dd
Ġandroid ETC
ra x
fte s
Ġexpression s
z A
endo r
Ġmat ched
me tic
Rel ated
err no
Į Į
ac cent
T B
Ġlat t
Ġsmo oth
rel ationship
ca tego
git commit
e slint
Ġ10 8
éĢ Ļ
ome ga
ĠCo nst
Ġto do
ìł ģ
Http Client
o va
Ġpo de
ĠW ho
EMP TY
g zip
ĠInten t
ĠPro c
b ill
Ġi ce
mon ic
A nother
ãĤ¤ ãĥ«
no o
J U
ĠSo rt
App ro
ĠMob ile
U AGE
code line
W L
Tool Strip
tro n
Ġdescribe s
wi pe
Hos pital
ĠRo ot
reg ions
Ġfor k
é º
LE X
AC AO
assign ment
OP ER
J K
ĠK ubernetes
for table
ON ENT
W ER
Ġre corded
Spec ification
U na
ma de
LOC ATION
åĨ µ
Ġdemons trate
a ms
j ec
P lane
Ġacc um
66 1
ĠMet hods
ic to
a ches
s x
Ġb rows
Ġcontinu ous
Ġla bor
ĠB ug
ĠArt icle
Ġw is
translation type
ĠDeve lo
he nome
97 3
Ġs n
o dd
ĠTrai n
à¸ ŀ
namen t
04 4
58 3
Ġincr ement
******************************** ****************
a mo
dy n
B OT
(" {
Get t
Ġ à²
ĠA P
Ðł Ð°Ñģ
ĠHel lo
')) ,
leg acy
ftes t
Ġd d
O pts
ha ndoff
men tos
ify ing
Ġevent ually
Work space
j ump
li nd
è ı
ope napi
Ġb aby
à¤ ļ
o h
Ø§Ø ¨
Ġla un
cer tain
Craw led
as ts
Ġac cep
ad just
Ġc itize
Ġmo nitoring
Ġin fe
à¥ Ĥ
5 80
i ment
Ger many
Ġas ynchronous
({ '
me di
Ġto ward
Ġco pied
ÐĴÐķ ÐĿÐĿ
Ðĵ ÐłÐĲ
( ["
align ment
xi n
ÑĢ ÐµÐ´
Ġinflue nce
Ġmechan ism
V k
list ing
In voice
Ġre ward
S Q
] ^
Ġ ></
ĠB U
S ocial
Ġre li
b mp
Ġ'/ '
a wesome
Ð¡Ð¢ ÐĴÐķÐĿÐĿ
Ġd ados
Sy m
ĠD WORD
ĠRead Only
Ã© n
section s
OT E
Ġin coming
nso urce
per form
MO V
á» ĩ
fr e
æ¶Ī æģ¯
que r
ĠE t
Ġ( .
Ġstart up
Ġi psum
Ġflex ible
åı Ī
Ġst ars
Ġs phinx
Get String
v x
| :
ĠR T
y ield
ĠT uple
PACK AGE
rien t
I mmutable
Late s
ĠM icro
tor ney
Mix i
ĉĠĠĠĠĠĠĠĠĠĠĠĠĠĠĠĠĠ Ġ
Ph ysical
a tte
Ġ$ ('
Ġd ry
Ġar row
W elcome
G LOBAL
cla im
Mixi n
Lates t
M gr
ĠF rance
75 1
ĠIn tro
managed build
lica n
custom ize
Exclude d
æı ı
ud ge
j d
Ġwe s
ĠU ri
++ +
Ġleg acy
Ġbo xes
con tributors
ĠTa ke
char set
ĠBuild ing
Back Links
Ġin form
as ion
Stop Point
5 16
Ġvol unt
7 03
Ġ- .
Ex pand
linked External
Num bers
00000000 000000
lat i
ab b
Ġded icated
des erialize
Link Date
Configuration Type
Ġw ea
ĠG PU
Fr equency
Error Code
Up grade
uc ational
Jo bs
Ope rand
Ġkey words
Ġcommit ted
Gett e
M al
I K
ÐŀÐ¡Ð¢ Ð¬
Ġme rc
07 9
s qu
ĠBO OST
NORM AL
æĹ¶ åĢĻ
Appl e
io rit
ĠE r
ĠD iv
ition ally
Ġin bounds
ëĲ ĺ
be c
Gette r
ÐĴÐķ Ð¢
* }
r vo
M N
C hina
pret ty
ĠCLA IM
O bservable
12 00
O uter
ĠÐŀ Ð¢
gaz ine
f h
Ġage ncy
åĽ¾ çīĩ
ĠD T
Ġexperience d
rs a
ĠD im
ĠApp ly
ĠM IN
Ġ/ =
Ġrespons ibility
Ġins trument
source gitcommit
open locfile
openlocfile hash
Ġnot ifications
Ġa met
Ġpred iction
87 4
nr e
FAIL URE
exclude s
Id l
ĠP arent
Ġal locate
Ġ1 16
ãģĽ ãĤĵ
Ġi ma
")) .
Ġman ip
CK ET
den v
Ġfo nts
ta cle
da m
Fin ish
hea t
ul lan
spa wn
UD A
Ġe u
pc ion
Ġle gend
ÐĿÐĺ Ð§Ðķ
ĠN N
5 88
ass e
6 14
ĉĉĉĉĉĉĉĉ ĉĉĉĉĉ
c lang
li ze
short cut
linkedExternal ProjectPath
**************************************************************** ********
íķ ©ëĭĪëĭ¤
Ġsupport ing
Ġ ĠĠĠĠĠĠĠĠĠĠĠĠĠĠĠĠĠĠĠĠĠĠĠĠĠĠĠĠĠĠĠĠĠĠĠĠĠĠĠĠĊ
"} ),
Ġf ul
ĠSa turday
6 99
A nno
EN G
Ġi mportance
ĠA V
p ars
cal cu
59 4
ç« ł
R oll
RE ST
Ġda tos
OP TION
å ²
Ġy o
ĠA pr
Wat e
ĠSoc iety
do ctype
ĠÙħ ÙĨ
Part icipant
Ġtechni ques
èĭ ¯
aso ns
Ġqu ad
0 64
^{ -
Ġ3 60
à »
unt e
lea ve
Ġin tra
An im
% );
é¡ »
38 46
nal d
Ġet h
last handoff
dri vers
mu table
å®Į æĪĲ
ÐĿÐĿ ÐŀÐĻ
StopPoint Ref
HAND LE
net beans
LIBR ARY
Ra ting
ãĤ ½
fire base
sy mbols
list Of
Ġ** [
ĠÐŀÐ¢ ÐĴÐķÐ¢
H U
ÐŀÐ¡Ð¢Ð¬ Ð®
VER B
ĠÐŀ ÐĵÐłÐĲ
ĠChrist mas
ĠÐŀÐ¢ÐĴÐķÐ¢ Ð¡Ð¢ÐĴÐķÐĿÐĿ
Instance State
ĠÐŀÐĵÐłÐĲ ÐĿÐĺÐ§Ðķ
Ġrender e
Ġdepart Lane
ĠÐŀÐĵÐłÐĲÐĿÐĺÐ§Ðķ ÐĿÐĿÐŀÐĻ
j r
ĠÐŀÐ¢ÐĴÐķÐ¢Ð¡Ð¢ÐĴÐķÐĿÐĿ ÐŀÐ¡Ð¢Ð¬Ð®
Ġ` @
pt ive
l w
]. [
to Have
æīĢ ä»¥
pret ix
rl edger
Ġinter pret
Ġd ar
riz ed
Ã¡ r
ÐŀÐĳ Ð©ÐķÐ¡Ð¢ÐĴÐŀ
Inte rr
Ġ tiny
Ġcompat ibility
Ġpers pective
ĠRat e
t ier
cord ion
pers Name
Interop Services
Start ing
æ ¹
" }}
ĠM ust
sec ure
Version s
Ġ' *
ĠC hat
éĵ ¾
è® ¿
ĠW al
åĽł ä¸º
ĠE nabled
ĠB la
ba pp
k ube
ĠLay e
Ġmo ves
0 80
çĽ´ æİ¥
content locale
Ne sted
/ <
read ing
6 39
o ss
èĻ Ł
ĠR iver
el ly
vide os
vat ure
Ġas king
Ġfor ces
ãĥ Ŀ
Ġs ki
()) {
Application s
ĠM al
G N
pos able
Ġen force
Ameri ca
Ġdn Order
æ¨¡ å¼ı
ĠRo bert
æµĭ è¯ķ
default Value
M V
x link
Po r
ito rial
Scan ner
Ġe motion
tri ple
ĠE S
Ñģ Ðº
Ġ Queue
io ds
nal ty
tra de
ĠC RE
bot h
NO UN
s rv
to day
Ġext ens
ĠÐ¡ ÑĥÐ¼
Ġlea ving
F K
ĠB ay
ĠÐ· Ð°
VAR I
Ġsub license
ct s
Ġge om
ĠA greement
ĠSh are
è¾ ¾
CON TR
ect s
Ðµ ÑģÑĤ
line d
Ã§ o
åĳ½ ä»¤
Qu ote
p ired
ret val
ĠE nc
no us
Ġdoc tor
Ġb b
Ġs el
Õ¡ Õ
y mm
:: <
Ġsu itable
eg u
Ġ ulti
Ð°Ð½Ð¸ Ðµ
S ol
Ġvis ited
nse n
Ġp ra
ard ing
tri ces
æ §
. %
ĠP A
Ġdepart Speed
çİ ĭ
tatist ic
R V
ĠI g
Ġslight ly
Ġe ffic
lass e
nge rous
F ault
de pend
ep hone
D H
k h
Ġ10 3
ĠL os
ATTR IBUT
M utex
Ġsession s
ĠV K
ĠGene rator
flat t
ĠY ii
IO S
7 09
ĠMed ical
ĠS truct
Ġpri vile
Ġs f
mo ment
). "
n w
ĠE C
ĠAnal ytics
man t
Ġrendere r
Ġ{} ",
dig ital
C ENTER
ç Ĺ
Ġconsen t
ĠÐ¿ Ð¾Ð»
19 95
p urchase
Ġpa ndemic
0 55
Ġ10 7
ar l
Ð¸ Ð·
fi xture
size s
ä¼ ĺ
li me
Ġpol l
ĠCar olina
Ġb ou
TE X
ĠDEAL INGS
Ġ!! }
Log ical
E U
RO S
Ġ àª
B AD
is Valid
Coll ision
bb it
g ms
ck l
ĠS K
mongo db
Ġsu fficient
ic tor
Ġ/> .</
iste ncy
Ġreaso nable
D u
Ġ tun
E G
ĠA CT
ECT OR
BIN ARY
wa ke
ĉĠĠĠĠĠĠĠĠĠĠĠĠĠĠĠĠĠĠ Ġ
eris tics
urt h
text bf
57 4
Ġsup posed
ura tor
compose r
> }
ĠS cho
de coder
× ł
Ġjo ined
77 2
V ote
Ð¾ÑĤ Ð¾ÑĢ
MEM ORY
f inger
PH ONY
Ã© c
Ġdataset s
Ġmain tenance
[ <
ä» ½
5 60
Trans former
ĠInst allation
ĠCo nc
mar c
05 9
SE CON
sl ash
Ġremo ving
v io
Y o
ĠS witch
/ \
Ġfac il
il ip
Dis covery
Ġg t
è¶ ħ
5 45
Operation Exception
me rged
s tit
fi nished
Z X
C OR
Ġa zure
Ġper m
pro vision
co rder
Un marshal
0 35
çľ ģ
e ceived
sub set
time line
Ġlead s
w gs
69 1
ĠSm art
ÑĢ Ð°Ð½
bb y
FI ER
word press
Ġ` --
Ġpor tion
<? >
Z a
è¾ ¹
v ote
å® Ł
get Key
ENABLE D
e si
05 8
ĠF ood
Ġiss ued
ĠL D
Ġsub set
U IT
Copy To
ìĨ Į
ATE G
L V
L ess
Ġteach ing
e reo
7 62
ĠU SER
Ġlea ves
ĠS hi
flu x
): \
r eceived
ĠREAD ME
Ġide al
A bo
ut ely
Ġinterr upt
t ens
Ġra pid
ä» Ĭ
ĠA m
57 2
>> >>
ara t
n tr
Gene ration
Report e
nes ted
Ġ --------------------------------
é¦ ĸ
menu Item
pe nds
5 30
ĠSm ith
Ġ1 13
t ival
Ġu k
mbo k
) },
Ġn y
ãĥĨ ãĤ£
ĠIs rael
scri bing
! ",
Ġbe r
Ġl iter
Ġrender ed
pain t
5 17
IST ER
ÐĶ Ð¾
ding s
ĠLaye r
bb cc
ble s
s tival
à° ¾
Ġb ridge
ĠRun ning
EX PECT
èĢ ģ
Ġho lder
éĢ Ł
Co i
e rance
im i
SE NT
sche d
Ġro unded
åĮħ åĲ«
Ġbase line
Ġs sh
G l
<< "
ĠPRO C
ĠSum mary
ĠFor ce
Ġ2 40
Å Ħ
Ã¡ rio
ĠVariable s
IM G
}, "
5 65
ĠVAR CHAR
Q A
Ass ociation
vp n
Se ed
çĻ ½
Ġimport s
Ġde pend
Ġa vec
Ġv tk
AD MIN
ĠConfig ure
Ġin cor
Ġ tutorial
cess ary
graph ql
Ġcontinue s
ĠF IX
s ex
roo ms
Fl ex
08 8
Ġm iles
li ers
ĠPoint e
truc tors
05 7
ĠE NG
>( -
Ã© l
ĠS PI
cs rf
ĠA uthentication
Ġbe nchmark
ht e
Ġdebug ging
= .
} &
æ© Ł
da ily
ĠPublic Key
s ume
ĠNON INFRINGEMENT
Ġ ĠĠĠĠĠĠĠĠĠĠĠĠĠĠĠĠĠĠĠĠĠĠĠĠĠĠĠĠĠĠĠĠĠĠĠĠĠĠĠĠĠĊ
connect s
li ns
Prese rve
Ma jor
AD C
z m
ĠT hus
Ġma pped
") {
flatt e
compl etion
ĠU TC
è¿ŀ æİ¥
ç§ ĳ
Ġ*/ ;
ĠS ing
åĩ Ĩ
h nson
va ult
the sis
ĠD ra
co p
Ġat tract
Ġpred icate
nit ude
get All
08 9
ãĥ ģ
PL ACE
Ð»Ñİ Ñĩ
Ġsha der
\" "
Ġ" ]
us uario
Ġs cheduled
Ġm utable
95 2
ENT ITY
Output s
Ġc los
game s
Ġope rators
bo rn
mod ifier
b readcrumb
Ġpro jection
` ),
S quare
Crypto graphy
ĠMe n
umb ia
ĠWo men
Ġdisplay Name
Ġest Ã¡
else if
ÏĦ Î±
Ġep isode
k bd
ggreg ation
( **
E sta
un to
ST REAM
arg ed
; %(
ï¸ ı
lian t
è®¡ ç®Ĺ
Ġ åĴĮ
Ġmin imal
ĠS tat
e pr
i mo
handl ers
Ġval idator
osc ar
Ġunit t
for k
Ġunitt e
è¾ ĳ
sol ve
Ġb ag
Ġunitte s
tra its
c hang
Ġc row
æĪĸ èĢħ
Ġunittes t
H uman
d to
Ġco lo
h b
ĠID s
æķ° ç»Ħ
P lain
s ens
Vis it
={ ()
ho u
ĠØ ´
5 43
." </
ĠF eatures
($ "
ne m
Un lock
nom ics
æĿ ¿
ĠB undle
0 75
Ġmi ni
Ġcon j
. $(
Cell s
000 7
one y
Ġ ub
ri sh
ĠI ts
: &
Ma tte
Ġw illing
IC A
Ġs trip
get Property
ris is
Ġwrite s
Ġdrop down
< >
Ġf loating
Ġà¤ ¹
rt ype
ĠC lone
update s
} `,
W ho
ìŀ ¥
5 20
ĠA vailable
âĸ¡âĸ¡ âĸ¡âĸ¡
k el
Ġta s
Ġass ess
get ting
97 4
math rm
c rop
ms dn
ĠS core
ST ER
Å¾ e
Ġs ynthe
é Į
cur ve
language s
ĠFol low
ĠB ill
0 28
å·² ç»ı
ĠC SV
pos ite
xt ures
a udit
:: ~
Ġë ¶
a uthorization
Ġg oods
Ġ7 00
b ird
è® ¸
si mp
Ġparticipa nts
"], "
tra ined
f red
ä¸į åĲĮ
ĠPro gress
ny ch
Mip maps
çŃ ¾
Pro f
Ġshow ed
pag ation
Ġtea cher
t imate
ÑĢÐ°Ð ¼
Ġen coder
Ġl p
base name
Ġtip s
} ";
Ġre cipe
ĠA SC
< >(
For eground
ĠFa il
{ :
Da mage
88 2
Ġow ners
ĠGer many
Fl ash
iere n
ĠM is
ĠTrans form
ĠEngine ering
Ġon mouse
ÏĦ Îµ
ãģĤ ãĤĭ
clean up
5 11
ha us
ion a
ÅŁ t
77 3
Tra it
ĠRe pository
ĠAl ert
s ing
Ġwo rry
Ġso dipodi
Ġsuc ceed
s eque
Ġsk y
A J
ĠT erm
Ïī Î½
ĠPointe r
Ġhi n
ed i
Ġhe ap
6 37
Ġcircum sta
Û ĩ
de lim
Ġve ndor
åŃĹç¬¦ ä¸²
Mark et
sur vey
Ġ[ âĢ¦]
Gra dle
ĠS IG
_ :
ning s
ĠCal culate
ĠP ATH
jup iter
Ġl it
ĠR D
doe s
ĠL eg
ug ging
Ã ¹
de ns
enso rs
ĠS ol
j b
ĠPro blem
download s
ĠChange s
LE AN
v u
Ġcomb ine
H AL
Ġheav y
Ġuns et
ê ·¸
Ġl hs
Ġc ities
IN ED
Ġy aml
App s
Ġindex e
k ie
Ġsepara ted
Ġli nux
54 1
j as
RE SP
ĠINT ER
na ting
CHAN NEL
ĠL ength
Ġ( []
ĠF lorida
al d
Ac counts
ib ilities
port folio
} ");
ar ly
Ġcr ash
ãģ£ ãģŁ
Ġne g
Coi n
O pacity
built i
Ġà¤ ®
enc il
ts by
6 80
ug ar
qu iet
ĠF und
E DI
nga n
Ġà¤ Ĩ
Â µ
builti n
Ġê ·¸
ĠKo rea
ĠD uring
ãģĤ ãĤĬ
t gt
Ġno mbre
Ġside s
Ġar range
car o
M LE
à¤ ¬
ĠComp uter
Termi nal
Ġel ection
ic ing
ĠRe sults
Ġal located
8 50
fi dence
rtain ment
Ġshare s
du ling
Ġuni form
ope nsource
Ġsea mless
get Current
e nde
ĠG O
T hrows
Ġno natomic
Spe ech
ãĥ »
Tra i
F la
æĩ ī
ĠD ia
Ġë Ĳ
Res p
Ro utes
Provi ders
ĠC ALL
b ullet
Ġdraw ing
D ri
0 39
] `
ĠÐ¼ Ð¾Ð¶
me mo
user data
Ġdri ving
uns afe
mont hs
ĠD C
AD ER
Ġrequire ment
por tation
j q
Î ²
Ġ tb
Ġl uck
00 11
ĠTes ting
me ss
Sk ill
g f
ĠTr ust
nse r
Ïģ Î±
ize rs
Ġnew e
Ġma chines
44 44
Ġb ean
ut ility
, )
Ġstat ed
E ng
Ġga ther
co lab
à¦ ķ
R em
ĠS L
Ġabo rt
ì Ĥ¬
zion i
ĠAs ia
ĠO PT
5 75
Wate r
D LL
Ġclass ification
ĠS ync
Get Type
Ġf lip
à¸ Ĭ
Comp arison
Ġvec tors
Ġcapa bilities
Top ical
ĠRe place
Sh ip
Ġst derr
Ġleg is
ca mp
Ġrun ner
Ġpro posal
000 4
CR IP
v iz
F s
Sa t
6 10
Com m
ĠS hape
ĠStu dent
rs p
ut i
Ġpublic ation
åĢ ¤
Tree Node
duc ing
Ġkill ed
Ġow l
Handl ers
0 34
ĠF ast
Ġ tm
e sume
mock ito
she ets
Ġin ventory
ia ng
SH ORT
bo unded
cuss ion
s uc
z ier
5 14
Hand ling
Ġk m
5 68
To Array
88 4
5 48
[ ^
Ġc t
TIME OUT
ĠAss embly
OPT IONS
Ġa id
åĳ ¨
G V
Ġ"# {
Crea ting
Ñī Ð¸
5 98
Ġo ps
Ġs ad
E r
Ġend block
}` );
ta m
Ġali g
Ġco lour
ge bra
ĠPri vacy
19 96
Class ifier
ĠB G
eps ilon
à¹ Ħ
Ġhead ing
Ġtensor flow
Ġwonder ful
ir al
Click ed
Hour s
pand as
06 2
r esume
ala xy
Ġcomp utation
aramet eri
Ġf ees
è »
Ġìĭ ľ
A MS
į° ìĿ´
a ar
Ġ1 22
ite n
Ġs pin
`` ``
D uplicate
å£ °
ĠW IN
dd y
s uch
åħ¬ åı¸
ìĦ ¸
m art
ĠAUTH ORS
no ut
DIRECT ORY
Ġstreaming Mipmaps
" )))
type Name
ire ment
ir q
ĠÐ· Ð°Ð¿
locfile id
Ġsur pris
Ġ Ùĥ
ope rand
A ggregate
tra cking
Ġvi ct
ç¾ ¤
ĠB L
tro py
ĠCl ean
H X
59 1
Ġhost name
Ġcomp ilation
r ves
D ial
j n
H Y
ãĤ Ħ
Qu ad
fa n
6 75
< -
ĠDef inition
\ :
SA MP
_ %
DE L
m w
DI V
ëĲ ľ
="@ {
Co lo
Tick et
¡ °
Mo ney
Ġbig gest
Ne igh
Ġ Ùĩ
==== ===
Topical TrustFlow
Î¿ Î¹
pro cedure
A ff
7 15
ĠFunction s
à´ ¿
Ġgat eway
Ġp SD
C ss
Ġb lo
5 29
Ġgu y
ru gs
Ġ10 9
ans as
comp ressed
C fg
db g
Ġk id
h q
Ġdefault Value
"] [
uen t
ie rt
mi nate
ĠT X
M PI
ĠÅ¿ o
ens ure
ìĿ Į
Ġho tel
bu d
Ġorga nis
Ġg amma
Pre v
ä¾ ¿
Cen tral
ba g
å¦Ĥ ä½ķ
Ðº Ñĥ
à¹ Ĥ
Ġ ĠĠĠĠĠĠĠĠĠĠĠĠĠĠĠĠĠĠĠĠĠĠĠĠĠĠĠĠĠĠĠĠĠĠĠĠĠĠĠĠĠĠĊ
AX I
æĪ Ĭ
ad b
node js
Pos itive
Ġ= ================
Index e
000 8
s elenium
ĠD y
vi con
Ð ĳ
} ^{\
ĠC li
Ġr pc
ins trument
Ġ: -
ĠCo nstant
x el
ĠCo ngress
Ġstrateg ies
Ġfund ing
ĠR oom
o rm
æĥħ åĨµ
~~ ~
dir ectories
IB ILITY
ĠObject s
Ġcomp rehe
"] );
6 12
ĠFac tory
sli des
å¾ ħ
Remove Matte
if iable
hyper link
P ID
77 1
J oint
j ack
ĠText ure
Ġany way
Ġres ear
ĠEx it
Over view
ĠVAL UE
++ ]
áĥĺ áĥ
Ġ1 17
axe s
ĠB us
order By
Ġport al
s ms
Own Property
Ġ// !
set t
ĠC amera
ad c
hl js
Ġliste ning
S wap
Trai n
09 7
get t
pe m
De livery
è® ©
=" (
ç» ľ
Ġcon vention
ìĹ ¬
Ġco ur
Ġ" \\
gl m
ac ific
Ġentir ely
ÅĽ ci
Ġdepende n
\ </
bsol utely
ãģĹãģ¦ ãģĦ
ja n
Ð°Ð½Ð¸ Ñı
tai nable
Ġenable s
Ġs lide
Ġp sycho
Ġfam iliar
e search
add l
e very
Ġ\ <
Ġ( __
ke mon
ar ian
æľįåĬ¡ åĻ¨
ĠF rank
bsen t
Ġdemons tra
Ġfo oter
0 60
Ġconce rns
AB ASE
b bee
Ġ3 65
éł ħ
oll ars
bl k
147 48
% \
up tion
u y
el n
Ġ' (
Ġcourse s
Ġtech nologies
ë§ Į
Ġpg admin
Ġb v
ĠB oth
Ġfo rth
ĠB et
ĠA rab
ex cel
Ġbus y
Ġpro fit
Ġsignifica ntly
S ilk
index e
Ġev t
ud p
r emo
ia no
å¿ħ é¡»
aa a
P ersonal
Ġseg ments
æ³¨ æĦı
Ġl ista
Ġa ggregate
ĠH ill
e start
í ģ
Ġfo ld
BO DY
Ġaspect s
ĠÂ ·
99 1
t din
Ġi ngred
Ġdis c
(' %
wire TypeDef
config s
Ġclass name
Http Request
çĽ® å½ķ
n nen
ĠA ff
sc m
Hash Code
Ġpro pri
ĠSe quence
erv ation
Ġsugges ted
T MP
Ġdependen t
æł ¸
f printf
ĠInd us
Ġnorm ally
nat ural
Comp act
to Array
Exception s
vers al
ĠLat e
Trans parency
Local ized
Ġsens itive
6 18
um id
Ġnote book
As pect
Ġro uting
E v
æİ§ åĪ¶
Ġ= ~
Out Of
On ClickListener
ĠB l
ĠUt ils
o ffer
rso n
6 33
Ġgu ys
i ka
ãģ ¡
ĠT RAN
Ġdiv ision
Ġvalu etype
mpl ed
Ġwhe never
s ass
ERR UP
Ġm ale
5 67
tra iling
Ġg s
) ";
Ġno rth
Ġda ughter
Ġtri e
Ġ{ !!
rou ped
ra de
do mains
un icip
AS Y
sc r
Det ector
6 32
" '
æ¡ Ĩ
idl e
ãģ¾ ãģĽãĤĵ
ĠÐ¿ÑĢ Ð¾
Ġguide lines
ca ps
ci n
Pe ople
o ling
ĠSto ck
Foreign Key
la uncher
ĠÂ £
] ];
F H
file Path
c reative
ãĥ ł
ĠAc cording
Ġ ****
ĠPart ial
o de
xy gen
I nstant
ĠPh arma
ðŁ ı
D EN
ĠCo urse
Ġid ref
- }
Item Definition
ĠSw ift
(' _
block List
User Name
Ġfur nished
Ca ched
ask ell
ĠS eg
). __
wo rkers
na mo
gene ration
ĠGeo rge
5 18
ĠD eterm
gi nate
n viron
ĠS VG
ä½Ĩ æĺ¯
t gz
Initial ized
ĠB rowser
t q
Ġset Up
5 35
6 36
Q R
Ġme tal
ess aging
Ġwatch ing
require ments
7 37
table View
to ring
ĠH ub
ĠT uesday
å¼Ģ åıĳ
Coll ector
Ġafter Path
Pos e
Output Type
tem perature
F inger
ĠV ue
** ](
> &#
Undef Or
ĠP K
Ġ! (
Ġtell s
ĠS ans
æł¹ æį®
]) ^
4 36
Ġrela t
L earn
t ig
ãĤ ı
Right arrow
B ootstrap
Ġs pl
In vocation
TIME STAMP
V OL
ĠPa ttern
h x
x amarin
ST OR
Ġ tid
d ic
net t
k ar
emble r
6 30
5 33
Ġnum s
los t
Ġel l
Info s
Ġz e
Ġhandl ers
ĠK i
Ġ ĠĠĠĠĠĠĠĠĠĠĠĠĠĠĠĠĠĠĠĠčĊ
r epr
Ġ5 000
bos ity
Pre compiled
ð Ŀ
0 45
Ġ ----
ĠHos pital
p wd
Ġgra de
Require ment
I SS
åŃĹ æ®µ
ĠIn vest
ĠâĢ ŀ
ĠM ad
os a
Ġl ite
bat is
ph ys
Ġs ch
e nviron
é¡µ éĿ¢
Ġage nts
pk gs
ĠC Make
Ġc reative
ĠL ED
ĠCh ris
Do mains
Ġso ck
ef a
ĠMet adata
Ġfa nta
Ġcandidate s
6 24
ass andra
as n
ver ity
Ġdi vi
u li
t ng
ckl e
emo ji
f I
Ġ[] *
hip s
Ġatt end
Ġhol e
M c
D ead
ĠValue s
Pu blisher
Ġ1 19
r esearch
A LE
ĠPro to
top ics
Or ders
ĠJ ul
c up
Ġ å¦Ĥæŀľ
g w
Ġinte gers
Ġthousand s
Cla im
j it
ar go
mpl ar
ç½ĳ ç»ľ
c ute
ç¥ ŀ
At tack
os ing
ns itive
ĠÑģ Ð²
me ns
Un til
w ing
Z W
hre n
Ġtur ns
r estart
68 1
Ġan imals
Ġëª ¨
ĠG OO
Ġ% .
Ġimport ed
h base
tro s
ĠB reak
c bi
DEF INE
Ġhappe ning
PRO CESS
bl ur
ĠR ob
ĠQu ick
u da
data frame
Wa ve
á¹ ĥ
Ques tions
App Data
ĠA PP
Ġ({ :
r ving
Ġattemp ts
ĠAN SI
orga n
ĠÐ¸ ÑģÐ¿
âĢ Į
reens hots
Ġpara graph
Ġ199 7
G REEN
starts With
ĠF urther
e ks
Ð°Ð ¶
CON TEXT
Ġ tenant
Ġimp roved
Ġmov ies
Ġf ish
0 37
rel and
u ris
ro nav
Ġadmin istration
To List
ä¸Ń åĽ½
à¤ £
} '.
effic ients
Ġpro j
Fi nder
æł¼ å¼ı
Int Ptr
ĠInd ian
co late
W ed
Ġno me
I llegal
å Ĥ¨
ĠType Error
0 29
ĠGer man
Ġautomat ic
Ġinde ed
ĠLea gue
56 2
U uid
il m
Ġembed ded
Feed back
6 64
Ñĭ Ð¹
, /
f iltered
Ġli neto
å®ī è£ħ
Ġbe coming
Tra ining
=" ../../../
è®¿ éĹ®
TargetFramework Version
ĠA nimation
E loquent
mor ph
r eve
tl ement
ĠDe n
Ġ[ $
Ġput ting
ä»¥ ä¸ĭ
G D
Ch ars
N X
Ġconvert To
ä¾ Ĩ
Ġro ck
(@ "
å¤ ī
ĠS yntax
lican t
Ġ1 35
F ULL
Ġw rapped
Ġp lug
Ġo c
Ġs co
ĠCons truct
Ġp df
Or Default
C W
Drop down
Po pu
Ġn r
M ID
ete ntion
Ġ' &
ME TA
IB LE
Co nd
Ġ{{ --
ustral ian
à° °
clus ions
Ġ ĠĠĠĠĠĠĠĠĠĠĠĠĠĠĠĠĠĠĠĠĠĠĠĠĠĠĠĠĠĠĠĠĠĠĠĠĠĠĠĠĠĠĠĊ
Ø³ Øª
Debug Information
] ()
Ġm g
ĠAdd itional
Enc ryption
lo ut
pe x
mo id
ĠØ Ń
home page
> -->
eo n
BIT S
n ted
HE IGHT
ve z
åĪĿ å§ĭ
Ġcons ists
p io
Condition s
v f
no va
6 11
Ġgraph ics
ĠH all
ĠST ART
f Ã¼
d raft
Co V
Ġsee med
ĠÐ¾ Ð¿
}/ {
Sl eep
Ġdi vide
Present e
de ri
Ġ Ñı
li kely
Bet ween
ĠIns truction
play ers
h ru
Re peat
59 3
LOG IC
P V
FE M
5 97
Ġtrans lates
ung s
c ÃŃ
å· ŀ
bu gs
IN C
vers ed
ĠD ict
access o
ÄŁ i
ĠC T
Ġto Taz
Ġfrom Taz
ĠWed nesday
Ġí ĺ
** |
Ġco ffee
un pack
ĠW R
ä» ·
Ġcube map
G H
% ",
rel u
ä¿Ŀ åŃĺ
Ġdis covered
ĠExt ension
Ġsex ual
Ġinc red
UST OM
Ġact ivate
ug a
E V
Ġpresen tation
Ġ thr
ĠS D
ĠL ANG
Ġexpe nsive
18 00
Ġk ick
Ġê² ĥ
ĠRa ce
i pa
openc v
ĠPay ment
m igration
ìķ Ħ
j ectory
to ri
ĠP ur
7 14
Ro ad
à± ģ
ĠÐ´ Ð°Ð½
Ġshort e
ĠP S
bb ff
} ${
Ġs emi
ass oc
CS V
Ġ<? =
Ġk otlin
e pi
A Q
ĠS cale
59 2
b k
Ġá¼ Ĳ
Ġpro mo
Be nchmark
ida des
Ġg ift
Ġf emale
ge ns
5 32
pol lo
P UBLIC
che my
bit map
Ġsprite s
ME MBER
Precompiled Header
({ "
Ġpla nts
04 1
Ġ 0001
Ġan imal
w ild
Ġ ĠĠĠĠĠĠĠĠĠĠĠĠĠĠĠĠĠĠĠĠĠčĊ
79 0
Ġ -------
rea dable
Ġf rag
ĠDE LETE
Presente r
n terr
" })
ich igan
alles t
Ġh ub
A ux
02 00
5 19
First Name
Ġun used
Ġanno unce
Last Name
sp read
ĠE nsure
ĠTh ursday
èµĦ æºĲ
Ġdiscuss ed
ĠCO DE
Ġfa n
n tu
ĠRes t
5 95
======== ===
Ġappe arance
emp lo
Ġview Box
Ġpart ners
uns et
ma k
put s
Ġpe ri
Ġenvironment al
Ġwee kend
! .
ìĻ Ģ
Ġinv oked
tur a
é¢ Ħ
s alt
caro n
time Created
à¤ ľ
Ð¸ Ñı
ĠI dentity
Euro pe
Ġoptim ization
Ġbra nches
ĠE U
ĠìĦ ¤
9 08
Ġwo rse
q ty
Out come
åĩ ł
glyph icon
Ġta bs
à® Ł
Gat e
; //
sk os
nima tor
Ġì§ Ģ
Ġfile path
Ġw ra
react ive
IC Ag
ract ice
time zone
Ġho ver
ĉĉĠĠĠĠĠĠĠĠĠĠĠ Ġ
Ġsur round
B ur
Font Size
Start up
D Q
======== =
mo o
r h
OB F
form ula
ĠV L
íķľ ëĭ¤
Ġang ular
la ps
Ġm ur
DA O
Ġba ttle
Ġis Readable
ndan t
å®ŀ ä¾ĭ
x path
ĠThe ir
Ġho mes
l usion
lin ic
exp lo
mo rrow
w heel
ÑĢ Ñĭ
Ġâ ľ
Ġse p
5 64
SS A
get Default
age r
Ġel a
Fri end
da e
(" _
Ġlock ed
ĠD eep
N W
5 27
a hu
\ ")
Tool set
ĠF ill
7 67
iv ar
Ġdiagnos tic
ĠH ard
Ġo paque
Ġrelease s
ĠTra ck
ili ation
äº ĳ
Ġ tear
ä»» åĬ¡
Ġha ng
Ġ -------------
Ġass ociation
Ġpay ments
Ġrel ations
MB OL
ĠENG INE
je kt
Work ing
map hore
19 92
Lay ers
Ġspe nding
G lob
à¹ Į
ĠD id
ro ck
8 28
Tra de
=" //
DIS ABLE
ĠA us
C MS
à¤ §
m ms
Ġbroad cast
ItemDefinition Group
/ ****************************************************************************
Ġbe gins
å¾ Ħ
Ġbreak ing
56 3
Ġvi rt
Ġm kt
ift h
De velopment
ĠCo nstants
âķĲâķĲ âķĲâķĲ
RO LL
. "/>
C VS
ÐµÐ ±
å¼ º
19 94
Ġc ps
ĠÐº Ð¾ÑĤÐ¾ÑĢ
æľ ¯
Ġrecord ing
ì¹ ĺ
áº Ń
ĠMo use
Ġsequence s
dis covery
Pu blished
OK IE
Ġest imated
14748 364
Ġde spite
Ã© m
INTER FACE
As t
ĠRuntime Exception
ĠT ax
comp act
pix els
AT FORM
Ġany more
æ ¦
Ġs d
Bo ot
ĠP RE
ronav irus
5 34
98 2
ĠMa il
Ġ tend
all eng
bu ffers
ĠUP DATE
æı Ĵ
Ġb eat
è¿Ļ äºĽ
ind icator
tar io
Ġz o
opens sl
0 26
Ġnav igate
num s
Ġí Ļ
è¿ ½
P ur
ĠTe rms
7 95
B rand
Ġbound aries
à¦ ¤
ç¬¬ ä¸Ģ
H IGH
Det alle
thes e
ĠHandle r
ĠAfri can
g age
6 13
Ġbu gs
EX IT
out let
Ġc mp
Ġbefore Path
Ġà¤ ħ
ĠChild r
ĠAss et
source Folder
( ...
network ing
ĠPrice Prov
à´ ķ
T N
çĻ ¾
Ġnumber Of
å¿ħ è¦ģ
ĠIS O
CRE T
ĠA nother
98 1
Ġp aste
b baa
Ġsynchron ized
j so
Ġí ģ
tp ro
ç Ł³
ãĤĪ ãģĨ
gp io
Ġinter ests
tile s
p aste
k c
C i
ĠFe deral
Int ers
Regression Test
Ù ı
h ive
view Name
SH ARE
f echa
arr e
no v
ĠEx tract
Contract s
Ġstand alone
min ute
å® ĺ
a de
C redit
Cand idate
Ġmark ets
Ġow ned
Ġb ootstrap
9 60
Ġcubemap Convolution
it z
FE ATURE
Ġours elves
Ġconfi dent
Ġc linical
IN K
B iz
ĠF C
Idl e
(" ",
) ");
Ġa uthorized
gr p
j c
åı ³
Ġ ray
Ext e
Produ cer
ele n
77 77
7 35
Ġcn t
var iance
Ġfac ility
r day
5 22
h bs
7 10
Ġar bitrary
; ",
N ay
Ġany where
Ġ ="
Ð¼ Ð¸
Check s
Ġne ither
C ut
w elcome
; '
; $(
ĠTo day
Ġgene rating
Ġen tra
ĠÐ± Ñĭ
è®° å½ķ
C FLAGS
ba z
g x
we n
f rag
æ² »
% >
: \\
Comp uter
W AY
s ugges
ĠC allback
Ġenc ryption
Ġred uction
(" ../
br ui
a ka
ĠJa pan
L os
Min utes
Ġfor ced
Vo ice
ĠR ussia
e rday
ãģ§ ãģ¯
ĠMy SQL
G CC
ub scribe
? ",
l ng
Ġenc rypted
å° į
* \
è´ ¹
Pat ient
Ġcol lapse
per l
ĠV k
Ġsig ma
}} {
Ġres ume
Ġkind s
ĠCO UNT
s yl
èĩª åĬ¨
Ġ10 6
post gresql
============ =
cs proj
Loc ator
Pref erred
Bi nder
s ay
ass igned
Ġleaders hip
Ã ī
åĵ į
Ġpro s
57 3
ches tra
Ġal gorithms
V s
Ġqu iet
Ignore Case
Ġ á½
Ġconf irmed
Ġass ist
`` .
Ġc ro
Ġsepara tor
Ġf arm
b bi
Ġ tee
Ĥ ´
ĠChildr e
ĠR UN
ĠChildre n
t erday
Ġ ĠĠĠĠĠĠĠĠĠĠĠĠĠĠĠĠĠĠĠĠĠĠčĊ
Ġsuper Class
Vert ices
ĠA verage
ession al
Inter ceptor
éĺ Ł
ĠÙģ ÙĬ
ĠT err
ĠL oop
ir ro
igu ous
Ġac id
Ġll vm
ch k
Char Field
s md
Ġmeasure ment
à¤ ·
Ġf ly
Silk S
fr esh
Root Dir
âĢ İ
as type
ef e
AT ER
Ġexpress ed
(` ${
ĠAng eles
Ġf t
Ġ1 18
li fied
c rm
d ge
null ptr
Ġfi xture
bl as
Ġori g
T hird
j Äħ
Ġ` -
ĠP al
* :
r ece
7 25
exec utor
ĠTra ce
o rde
Ġredis tribute
Ġl y
Liste ners
à¸ ·
åħ ī
ĠTime r
Root Namespace
C X
ÐµÐ ¶
H ASH
à¸ ¹
ĠH AVE
Remove d
TY PES
da na
Entity Framework
Ġregard less
quis ition
Ġto u
' <
gu ild
Ġnormal ized
flatte n
âĹ ĭ
To day
convert e
io stream
ATION S
Mat ched
child node
mat t
="../../ ../../
pal ette
Index Of
s ian
ï¼ī </
Ġ[ %
ra dor
ud den
cono mic
ms t
08 00
ir ection
Ġn ar
__ ':
Ġw arehouse
tru de
ç ¿
Ġ Õ
J et
ĠQ ua
S che
çĦ¶ åĲİ
Pe n
Ġ Ø§
Error Message
pro be
vert ed
Text Appearance
qu it
lif ecycle
Ġpi ctures
æŁ Ĳ
fo ur
aract eristic
ĠV S
ĠD uration
à¥ ¤
To o
Ñĥ Ð¿
Not ifications
Ġmol ec
Ġs now
Ġpred ictions
åł ±
Ġstr to
¡ ãĤ¤ãĥ«
Ġrea ction
Ġdis cover
ãĢ Ĳ
Ġperform ing
Ġde coder
pr em
can not
IS L
96 3
lu ng
Ġpa ne
ow ned
We bsite
Ġre load
converte r
5 39
åıĺ éĩı
78 2
e rde
cap ital
pl ement
I H
â ²
7 33
range s
Ġ ><
Compat ibility
lat t
Ġencour age
ĠA B
f lix
sv c
ĠAdd s
s tick
à® °
IsNullOr Empty
Pa use
æĽ ¸
Ġrec tangle
ĠRa w
è¾ĵ åĩº
ĠEvent Args
O H
Ġc up
Ġb al
Ã ²
Ġê² ½
vendor Extensions
Ġpasse s
Ġ_ )
ĠS cene
ãĢ ĳ
one d
)? ;
Ġb ea
6 29
Ġbe ar
scal ing
5 49
Output Directory
p iece
à° Ĥ
por e
W ar
Ġsymp toms
çķ ¥
Ðº Ð¾
as pect
ĠH ook
X L
OLD ER
pri vacy
ĠE ver
è¨ ĺ
58 2
Ġy ii
sb ol
ĠT S
Ġë ı
LI FE
^ (
S ing
Ġ1 26
ĠR ussian
C itation
Ġen vironments
Re quested
Ġadvert ising
G ray
side s
pe ak
Å¿ Å¿
Ġìķ Ĭ
Re v
Ġtra cks
ìł Ħ
ĠFire fox
s tng
Ùĩ Ø§
L etter
t tack
ee e
57 1
Ø «
ido r
pp i
Ġpote ntially
T s
oo ts
! ,
t Ã¼
fact uring
Ġf light
Ġass essment
ĠCon tract
fore name
e para
sca ped
ĠH RESULT
d ue
GR AM
ĠY a
fire wall
Ġfriend ly
Ġde bt
Ġparent Name
MENT S
pred icate
Ġv im
Ġvis itor
e stng
rt l
å· ¦
stu dy
ì ħ
IN DIA
p ark
t estng
0 21
e views
shi pping
U r
( ::
CR Y
pro of
Ġi rr
b ins
? ></
Ġfu el
c wd
Ġso uth
Ġfr eedom
eg ram
P NG
u ngen
then Return
G ap
ĠLi n
scala js
Ġrecogn ized
ĠU nknown
Te rms
B acteria
D ll
ĠF ront
ho ma
ĠPublicKey Token
7 16
00000000 0000
Power Shell
T ES
Ġca m
Ġp itch
04 2
ĠWa tch
Ø ¦
Ġw aste
gen r
ĠG old
88 3
Ñ ĺ
di p
ĠT E
ic ast
get Elements
Ġcheck out
Ġ__ ('
l ars
Ġcar rier
dis count
ĠCo lors
f id
dd d
pa nts
Ġ1 72
Ġoptim ize
ĠC ri
Ġre name
Al loc
Ġ1 21
S lide
mbo lic
Excluded From
ĠC as
Ġcl usters
AD J
De n
Ġfo c
Ġre ferred
id oc
Ġc f
Sub scribe
AB C
flue n
ma nu
Ġl w
ãĥ¼ ãĤ¹
D egree
ÅĤ a
r eme
ta ched
mi no
EX CEPT
ST OP
ĠP ho
os h
S ingleton
Ġcomp etition
Ġbackground Color
6 19
1138 83
å¸ ¦
Ġac compl
AN K
r eviews
Ġacc ident
Ġd ial
ra ck
cess o
mes t
ĠSo cket
79 3
ie ne
z oo
sse n
FO RE
Ġco ach
Ġm c
et ched
Ġbig ger
ID S
ãĤ¯ ãĥĪ
Ġsearch ing
78 1
q c
ĠØ ¥
5 99
åİ Ĩ
ext ended
Ġdown to
S igned
ST ACK
ĠSc reen
B W
Ġhisto rical
Ind ia
list item
Ġprot e
Ġj ak
à® ª
IC ON
CA ST
b roadcast
ope nstack
Ġsub mission
Ġ ].
Ġg ro
ĠJ ose
Ġpro b
ĠO Auth
Ġê µ¬
Ġdoub t
W HERE
e cent
a ve
7 65
åĬ ©
b idden
ĠPe n
d iction
ĠOpe rator
Ġincrease s
sc ue
Ġed ition
Ġa wesome
76 3
ç» Ń
XXXX XXXX
Ġw ie
Ġ ĠĠĠĠĠĠĠĠĠĠĠĠĠĠĠĠĠĠĠĠĠĠĠčĊ
Ġc lang
ĠÃ¼ ber
Ma ker
p arents
79 2
No Error
ra ils
Ġalte r
# >
a ttack
lib c
Ġso rry
Ġ1 24
Ġcla use
ĠHash Set
Ġ3 000
Platform Toolset
ĠØ ¬
h g
Ġm v
Ġformat ting
p ra
Ġins tr
P AD
cy c
èª į
aaaa aaaa
Not hing
ĠRo ck
è¿Ļ æł·
ĠDef aults
sett e
7 34
Ġ Ñħ
O c
serial ization
9 50
b is
ĠRad io
")) );
) %
Ġ' ');
str d
VAL UES
t essellationDetail
âĶ ģ
Ġ tessellationDetail
"> &#
Ġm irror
EDI FACT
.. ...
Ġsubs equent
Ġfl ush
æ¨¡ åŀĭ
Ġend ors
ĠRe spo
Ġtra ined
Ġconce ntra
5 47
app y
="..\..\ ..\..\
ExcludedFrom Build
G round
ĠSPE CIAL
Ġgover ned
str l
Ġmid dleware
Ġno ted
ĠC Y
sh utdown
ç» ´
em u
'] ),
Ġì ¶
gi nator
á½ ¸
} ')
Re cent
Ġcircumsta nces
ngo ing
ĠG EN
Ġfac ilities
=" +
áŁ Ĵ
Ġà¤ ¨
license Type
Ġinteg rity
Ġdeliver ed
ãģķ ãģĦ
Ġi z
Ġdis plays
QU ERY
cl ea
5 44
78 3
å®ī åħ¨
ĠF eed
æĸĩ åŃĹ
Ġl ets
åį Ģ
ĠA rm
Ġra i
Ġrdf s
b ic
ag ree
20 48
åį ¡
à¥ Ī
ĠS SH
ĠST ATE
éªĮ è¯ģ
ĠC ast
ĠIte rator
as hed
ME D
Connection s
i el
K K
Ġ& '
ĠSm all
è® ¢
è¿Ļ éĩĮ
B id
genr e
N s
Ġg uest
RAN GE
reg s
P ing
00000000 0
yo r
With Type
ME T
è¿ ĳ
Ġf ashion
Pack ing
As ia
Ġeffect ively
ĠV irginia
ĠM argin
y d
IO D
ĠT ile
e mpo
ĠAss ign
ete n
: @
è¾ ĥ
89 4
B ug
yt ic
ka p
ĠC P
r ecent
ĠF E
e ractive
Ġdro pped
Ġfa vor
× ĵ
Cons truct
ĠOw ner
Ġax ios
Pro mpt
ca f
Ġhin t
6 28
Î¼ Î±
T emperature
D ump
ai rs
de partment
Ġscient ific
Ġ) }
t eractive
Ġpos e
ĠI II
Ġfund a
ĠNot Implemented
ĠS A
Ġre cur
At trib
Ġbelong s
Ġind icator
quot ed
dd l
ç¼ ĵ
xo r
Ġpack ets
Ġf inger
ĠL ib
X P
Ġca ught
Ba nner
Ð¸ ÑģÑĤ
rea ded
Ġfa mous
æ¬ ¾
nos t
Ġope rate
lo ve
guide s
b age
L earning
(' :
ĠB US
us et
H over
A ws
M ER
O l
åĪ ¥
(" --
Ġ[ _
Ġbu ff
address e
ĠFi nancial
Ġ ĉĊ
Ġfr e
j Query
Ġy ellow
AG ES
mai nder
Ġa cademic
s ix
] ',
ĠF oo
ou cher
Ġvolume s
ìĥ ģ
6 20
ĠM exico
ĠCal endar
mo ng
VER T
Cal lable
Ro man
INE SS
>{{ $
Ġthe ta
Ġsong s
E PS
ĠSe nate
`` ,
" (
clip Path
. (*
] '
cre s
npm js
Re ce
Unique Identifier
Ġmod ifier
ĠCurrent ly
Ġguaran t
ĠÑģ Ð¾
Ġ Ã©s
00 40
Ġveri fication
Ġimpo ssible
face s
Pro jection
quee ze
Ġa ug
ĠìĿ ´ë
19 90
ä¸Ģ äºĽ
cur vature
Ġli bs
á» Ļ
ĠIdent ifier
100 1
6 26
S tyl
dct erms
b ars
ĠCap ital
ķ Į
Update s
è ĳ
5 13
Ġhe aring
bi b
Ġex posed
?? ??
qu arter
//////// ////
9 07
project ed
Ïģ Î¹
Al ways
R NA
D lg
Ġdri vers
ĠWh ich
con tra
u ve
text Size
l is
Res ume
Ġend ing
s py
ĠP ush
Corr ect
get s
Ġm ul
oi nts
Ġmiss ed
WA IT
Ġ à¼į
ET CH
ĠX CT
str etch
get Context
contact s
V la
Ġ{ #
1111 1111
Ġfa ns
ä¹ ł
u rier
Ta bs
8 64
Ġs ac
ĠM u
ac iones
ins tr
Action Bar
ÙĬ Ø±
000000 1
ny m
ë³ ´
found ation
det ection
4 23
S trict
nc i
j wt
æ ª
check e
Ġco ords
To ast
con tributor
M ATCH
Ġ[ **
Pro j
DO C
PR I
s tdin
ha ck
addresse s
j um
base line
Ġsome where
K R
OR G
5 38
Ġve l
SUB ST
Ã¨ s
Dif ference
ig t
ĠM il
8 25
Ġschedule r
Ġconside ring
95 1
S cenario
æ Ĥ
Ġdesk top
ĠVert ical
. :
Ġcalcu lation
ã Ħ
Ġrestri ctions
DE ST
T mp
Ġim mediate
à¦ ¬
s epara
* `
Ġp hi
T hrough
Ġs tem
nfo rtunately
ono my
ĠSub ject
viewName Ref
Re com
ĠPa i
Serial ized
ĠG R
h reat
d bo
ĠPro xy
Ġprese rve
9999 9
Ġsig ns
man tics
p db
==== =
ular ity
ĉĉĉĉĠĠĠĠĠ Ġ
mb ra
Anal yzer
ĠLo ss
Ġ1 49
Ġe iner
> **
ĠL IB
elect ron
ĠÂ §
Ġserial izer
ĠF etch
n verse
Ġus ual
è½ ¦
V V
see k
Ġa ward
mix ed
Ġind irect
Ġdraw n
¤ ĳ
Ġspecify ing
Character Set
åıĳ éĢģ
ide nts
æĻ ¯
} %
ĠOR DER
Ġbad ge
6 22
M U
Ġmark down
t hreat
C c
Z ERO
PRO VID
Ġpart icle
Respo nder
ÄŁ Ä±
FI RST
Ġapp arent
Ġso bre
à¦ ²
Ġhel lo
ë¶ Ģ
à® ®
Ġell e
ust i
11 00
ga ted
spa tial
iste ma
ĠV alley
Ġwhe el
ith metic
ÑĤ Ðµ
I ENT
{{ $
ê ±
terra form
Ġal location
ĠT LS
fa q
d ma
l x
7 69
E PI
ch allenge
As String
Group Layout
Ġfa ces
@@ @@
Ġ{ .
O Auth
Ġup gra
var char
Ġre new
ç¦ »
ĠBos ton
ĠØ ¦
ĠA ST
qu ired
Ð¾ÑĢ Ð¼
Ġobject ive
ĠPi n
pens ation
Ġob lig
Ġh yper
ĠU Int
ĠA ward
Loc ations
COL UMN
Ġhy po
Ġ// $
Ġb c
0 77
h z
Ġma tters
èĥ Į
T ASK
M AR
Bu ff
Ġcon tributions
Ġin finite
ĠS ou
Da vid
Key words
L IGHT
e rase
==== ==
Ġsub type
Ġnotice d
S CO
Ġ/** <
ĠP eter
O racle
Commun ity
á ¸
ĉĉĉĉĉĉ Ċ
PRO G
android x
Pr ep
l dap
arg c
Sec ure
Ġa udit
Ġb is
Ġc ars
ĠTe rmi
ĉĉĠĠĠĠĠĠĠĠĠĠĠĠ Ġ
design patterns
5 77
Ġinter n
ĠAdd ing
J A
util ities
Ġcon vi
86 3
n fix
Static Resource
S OL
al y
Ġnume rous
56 1
ãĥ Ģ
ı ¬
Ġl d
D G
Ġv acc
Ġìķ Ħ
_ -
Y W
Bound ary
H ierarchy
Ġcar ried
SE G
l eep
çı ¾
6 34
ru po
H ugging
Ġass istance
i nverse
ee ded
ard o
æĴ Ń
data field
Ġcons ul
Ġs ecur
cente red
áĢ ¸
; #
æķ°æį® åºĵ
S po
Ġrea ders
Ġdi et
ĠÐ¸ Ð»Ð¸
8 66
8 33
Ġge s
si nk
ber ta
ron to
ĠZ ero
Ġ Question
| ,
ĠÐº Ð¾Ð½
i nterr
di vider
Wi ki
Ġa ut
Ð½ Ð¾Ð²
ĠState ment
ĠW illiam
Ġex e
ole s
="{{ $
repos itories
åŃĺ åĤ¨
counte red
S ugges
CF Bundle
ãģ« ãģ¯
IP v
profile r
DB C
ĠCollection s
7 04
Ġprin ted
Ġat tachment
ĠD rive
checke r
cor dance
Ġk ullan
In no
7 47
pa id
exe mplar
OP S
Z e
CL AS
97 2
Ġl r
Th ickness
Ġa di
Ġbit map
P UN
ĠØ ®
Ġi NdEx
Ġj avascript
Item Type
ĠVert ex
ĠT ue
Ġex pose
experi ment
ãĢĤ <
Ġ` "
Ġ' =',
ps y
Ġconfiguration s
ta h
Ġd ic
[] {
U ART
Ġrelative ly
ĠSp ark
Ġfo urth
ĠTho mas
Ġde b
Ð¸ Ð´
Ġover write
] $
Ġsugges tions
Ġ"- "
ny l
EN CES
ä¸¤ ä¸ª
Ġrange s
V m
ĠAmerica ns
z w
iso des
Ġapproxi mately
Å¼ y
ĠPower Shell
æŀ ¶
ica n
0 65
Ġ1 32
d uplicate
s ever
date s
i nfix
Public Key
SE ARCH
Ġsh ut
5 66
Ġc ru
87 6
a ps
ca pt
pher al
( ",
us ta
Ġ âĸ
Ġcon ta
ĠB C
Ġg rat
Ġpla net
W ind
Ġexec uting
ni h
os tream
= </
wo o
Ġquan t
Ġmo des
v Ã©
read s
Capa bilities
ĠP hone
à® ¾
8 80
Ġy r
nca t
Pal ette
Al ready
dc ast
Ġë ©
S py
ĠR uby
# |
Ġexec utor
Ġg lad
ontology designpatterns
à½º à¼ĭ
Ġrel ax
Ġres id
pende n
ĠO ptim
ĠH orizontal
Ġaff iliate
S olver
Ġh ype
Ġbro ther
ĠInt Ptr
Ñĥ Ð½
ĠP lot
çº¿ ç¨ĭ
Ġhuman Name
Ġcon trolled
Ġ ĠĠĠĠĠĠĠĠĠĠĠĠĠĠĠĠĠĠĠĠĠĠĠĠĠĠĠĠĠĠĠĠĠĠĠĠĠĠĠĠĠĠĠĠĊ
ç ¸
k d
file system
Ġde p
19 93
tri angle
Ġe nemy
ĠSk ip
Au toresizingMask
Ge nder
å§ Ķ
Ġs yn
Ðµ Ñĩ
ĠS ales
ĠMem bers
ĠS tra
pro fit
ule b
V ECTOR
ĠL ow
inst allation
(" @
Ġthe rapy
ĠEx pr
Ġpro cedures
nd array
p lots
ĠÂł ĠÂł
check sum
current Time
ĠG B
field set
Ġdecr ease
unte r
ies t
no id
88 1
Ġk h
ĠT el
Tra its
Author ity
Ġexpla ined
10 80
Ġcomp uting
ĠWAR NING
Place ment
Ġk om
è Ĺ
ĠL A
ĉĉĉĉĉĉĠ Ġ
ä» ĭ
Ġtrigger ed
Ġo bservation
y label
field Info
Ge sture
Ġca using
WAR N
ĠCa mp
Ġser ving
Ã´ ng
II I
m ilestone
ĠCol umbia
ĠT w
optim izer
à¹ ĥ
Ġre venue
Ġ Ã§
effect ive
5 26
V ED
ar ded
is Enabled
Ġwith draw
Inter net
Co coa
Ġvoc Ãª
normal ized
aggreg a
Text ures
Ro bot
Co lour
tra vel
Ġposs ibility
Ġma ndatory
é¢ ĳ
ut m
VAR CHAR
Ġne uro
RE AL
Ġe ss
bo di
Into Constraints
blog spot
AutoresizingMask IntoConstraints
ä»» ä½ķ
Âµ g
" @
è¦ ĭ
r ng
Project Guid
co ef
Ġ" ~
ĠÐ¸ Ð½
ĠìĿ ¸
åĨ Į
GR APH
Ġfade Out
58 1
br eve
8 16
Ġjud ge
Ġa bsolutely
Ġca tego
ä¹ Ļ
Go al
static method
Ġdata Type
); \
ĠInt err
ak ka
7 17
Ġgenerate s
8 77
7 80
De precated
03 1
ĠArg uments
ĠB ip
ĠP od
ĠP ORT
ĠSER VICES
ic ken
IT AL
file set
Craw l
Uns upported
ĠS election
ic her
9 25
7 18
Ġelect ronic
sette r
Table Name
6 38
SEQU ENTIAL
Ġj ar
ĠIo T
ĠMe sh
Ġsp ark
}} }
Ġwal king
ĠOrga nization
Ġbot tle
ĠâĶ ľâĶĢâĶĢ
Ġ1 45
Resource Manager
ct r
que ries
W F
Ques t
Ġà¤ µ
) ')
89 2
mb i
Ġr uby
Global ization
7 99
mple ment
Start Time
20 23
o per
ĠT hu
ĠÑį ÑĤ
L y
ìķ ¼
Ġcom fortable
æķ ¸
Ġcontr ast
ĠUp load
> ")
Ġvi rtu
al igned
({ },
Ġill egal
Ġappe ared
log ged
assert False
S chool
86 1
Tri angle
> ](
Ġad ult
FI ED
Ġro b
Ġc risis
Te nant
Ġne l
Pr epare
ĠA ppend
Ġsa f
C ame
æĭ ī
Ġbr ush
Ġbring s
Ġexpla nation
Full Name
ĠLo ck
pl ex
ĠTrans fer
H ol
tr ust
P ARE
à¤ ¶
B X
enc rypt
Ġpop up
ĠS cope
co uld
Ġconse quence
Ġtea chers
W AL
x label
Ġro ugh
á» ĳ
Ġ Ã¡
t empo
Ġra c
' -
ĠPer formance
t ha
s printf
h f
ĠEx press
Ġ] ];
sh ire
5 69
p late
F x
W arn
Ġa vailability
Ġcommun icate
ĠD MA
è« ĭ
85 3
Ġapprec iate
ick s
R SA
Ġengine ering
Ġgra du
tex ts
pe rat
Ġsq rt
J un
!!!! !!!!
ĠMont h
r fc
' {
be low
ST Y
G reater
ĠTo ast
ĠA tt
to i
Ġz ur
Ġse nds
il de
6666 67
Ġ199 9
Ġsit uations
Ġ1 37
}) \
strl e
Us uario
ac i
nony m
Ġguaran tee
Ġrisk s
mi nation
T witter
ites t
Ġex pa
Ġover view
strle n
x ls
ĠÑĩ ÑĤÐ¾
Ġg irls
find ViewById
e no
Suppress Warnings
ĠM useum
ĠDE F
env s
Ġ" `
| <
Hugging Priority
Ġintrodu ce
Ġinsert ed
)) \
ĠÐ ¶
Ġocc asion
Dig ital
=' $
ust ering
fi fo
` ).
Ġinte ntion
",", ",",
ĠÐ¸ Ð¼
Ġfe els
Ġmap per
GR ect
Ġa mp
Ġ` $
s nippet
ĀĀ ĀĀ
ca c
esse r
Bu ffers
Address e
fu napp
Throw able
ĠB ootstrap
ĠP ull
7 48
gett e
ĠìĹ Ĩ
she s
à² ¿
Det ection
ĠMid dle
Edit ing
Ġref ers
Ġaccess ed
PRO P
Ġìľ Ħ
ens us
Ġì ĸ
w ick
Ġe mails
Ġtyp ical
Ġmedia n
Ãª n
D ro
IL S
Ġel it
---------------------------------------------------------------- ----------------
íĻ Ķ
W K
li hood
ef ully
Ġch alleng
åĵ Ī
gy pt
e rl
ress o
ç»Ħ ä»¶
Ġroo ms
Ġsec rets
> ?
Ġbe lief
isa n
z d
Ġe mergency
ĠFo rt
íĸ ī
Ġend points
Tool kit
Access Token
ĠInt el
ĠExec ution
Ġstr eams
ãĥ Ļ
sp arse
(' [
Ġwire Type
Ġì ļ
s tor
Ġapply ing
Ġ ÑģÑĤÑĢ
number Of
áº ¥
Ð² ÐµÑĢ
ub o
ĠS ound
ĠMax imum
Fl x
¯ ¸
Å¼ e
(' ');
Ġs cr
Event Type
Ġreal ize
7 55
Ġ Äį
Ġ1 75
Ġb reat
C b
m uted
ck o
Al locator
Read ing
to od
Ñģ Ð»Ð¸
ĠPo r
K nown
u do
bil ling
Ġdis cip
Ġco mpound
col lapsed
Ġreg ression
ca mpaign
b iz
ĠM Y
Ġex pansion
al locator
p q
ĠN ever
s ea
ĠItem s
Ġ", ",
ĠE co
ĠCen tre
Ġ à¶
bo to
7 32
Ġcommit s
ST EP
å®¢ æĪ·
Ġke eps
xf c
pt hread
çĻ» å½ķ
Sa ved
RE SOURCE
ĠE i
Ġknow ing
ĠT ele
S pot
Ġoptim izer
unit t
d nn
Ġformat t
t ty
Ġlatt e
our s
ĠInc r
ĉĉĉĠĠĠĠĠĠĠ Ġ
ĠInitial izes
Ġshi pping
Page r
ION AL
Pa per
Ġall eg
7 12
fte n
Ġpu blisher
ho ny
Con vention
Addresse s
([ ^
unitt e
tool kit
Ġexpert s
æ· ±
aggrega t
è¯ ¦
Ġch ars
æ ĳ
ĠK B
Ġsign als
ed x
Ġbasic ally
ãģ¦ãģĦ ãĤĭ
min utes
b box
RE SH
Re cipe
ne ar
ĠExt ernal
Requ ires
unitte s
g ment
co ol
ĠNE W
Ġd ollars
sp lice
Ġsatis fy
è·¯ å¾Ħ
85 2
e rro
ly ric
arsh all
Dra wer
De partment
f sm
Ïģ Î¿
Port al
7 75
L ice
g ments
ĠCh art
[ !
Ġsi nk
Y a
v ies
AG G
dia ns
Value Type
T ap
unittes t
Ġassume d
able View
Îµ Î½
! ")
Ġinj ury
Ġac cepts
Ġpro d
Ġ?> ">
ra ises
Ġp arame
message Info
Ġre write
Ġformatt e
SE CRET
âĶģ âĶģ
for mers
Ðµ ÑĪ
ÃŃ s
f q
ara nge
Ġwin t
trans pose
Ġorigin ally
Ġformatte r
ta mp
ĠCert ificate
Ġanal yze
c ratic
Ex act
w ra
ĠI nstant
() >
7 97
Ġite rations
Ġlaun ched
wa i
Test Method
Ġa kt
Â ©
Ġup loaded
Un iversity
Ġ Ø§Ø
ĠAS F
YY YY
r ne
Ġg c
al locate
Ġmar ried
ç Į
Per centage
J ournal
Ma nual
Ġsa mpling
Ġfr equently
ĠRequ ire
Print e
G i
Ġf req
Ġrecogn ize
ĠSe r
// *
G lyph
ä¸ ģ
L N
mar ily
s timate
Pers istent
hash Code
ĠChar l
unt il
Ġìł ľ
penden t
check s
7 27
aggregat e
Tag Name
: _
Ġconsume rs
Ġba ttery
bb gg
de nse
Ġviol ence
Ġart ists
RE M
Ñİ ÑĤ
exte n
Printe r
i mation
8 18
Ġprodu cer
uto ff
ĠR PC
ĠCa na
accesso r
Ľ i
Ġcons ect
ĠOri ginal
âĢĵ âĢĵ
Red ucer
pref s
ĠByte s
79 1
To do
å¹ ¿
30 48
Ġ[ ...
e is
Ġ1 70
Background Color
V ault
cor n
Ġatta cks
starts with
Test e
p references
co d
Ġc ultural
ĠVis it
96 1
Ġ" ."
loa n
ãģ ³
ara k
Q Label
imp licit
(( *
Ġli ved
Ġnecess arily
O ct
Attr s
Incr ease
ĠPar is
ne cessary
ĠD eri
Report s
ĠWork s
ĠLou is
oll e
ĠG as
x bf
Ġpro pa
lic as
T IN
intermediate s
ĠPara m
poly line
Card s
Mo tor
Ġ1 29
c riteria
ra pe
B ill
åħ Ń
Ġtot ally
ĠCON STRA
// #
Ġexc ited
Ġindexe s
Sub scriber
et her
addl e
8 12
6 98
), %
b right
Ġimprove ment
86 2
men us
ĉĉĉĉĉĠĠĠ Ġ
s ed
Ġres ident
Ġpla ys
} |
Ġa part
Ġ ĠĠĠĠĠĠĠĠĠĠĠĠĠĠĠĠĠĠĠĠĠĠĠĠĠĠĠĠĠĠĠĠĠĠĠĠĠĠĠĠĠĠĠĠĠĊ
E ast
Service Provider
Ä± k
Ġs la
ja cent
Property Changed
code gen
ms ung
F LOW
ĠArt s
ul u
ĠWi ki
ĠWord Press
va nia
Ġappro val
Mi ni
Ġprodu ces
/ '.$
ĠY ES
å¯¹ åºĶ
C MP
In jection
Ġ áĢ
E H
hest e
co hol
Î¹ Îº
Ġha bit
Ins ets
SY M
i nstant
git lab
Call s
ma na
Ġass ig
Ġrai n
Ġp ic
Ġì °
ä¸ ĩ
c ad
ĠRe fl
con tributed
A x
ç» Ī
Ġreg isters
Al exa
n ry
ĠD if
ĠB inding
be ro
ĠÐ¿ÑĢ Ð¸
ulnera bility
Ġ× ľ
Dot Net
Ġ3 20
ĠÐ² Ñģ
nde s
Ġimplement ing
Ġs ich
pt ic
éĸ ¢
handl ed
a non
à® ©
($ (
"] :
ĠB el
exemplar City
Res olved
ones ia
fil m
0 66
0 23
å·¥ åħ·
ys et
HA VE
ĠDevelo per
ĠNav igation
ĠMe rge
06 3
ĠCONSTRA INT
Ġun iversity
èĬ ±
Mesh Type
ĉĉĠĠĠĠĠĠĠĠĠĠĠĠĠ Ġ
Ġtrie s
2 0000
ĠExp lorer
MA NA
cons istent
ĠCh icago
ĠDir ection
e stimate
fa t
Some thing
tatist ical
ĠIs lands
Re verse
un named
åı ¥
bo y
Ġg la
AR B
Ins ide
S uch
CC C
ĠM L
AL IGN
åĬł è½½
mn t
Sort ed
C Z
Ġsub process
ĠIN DEX
') }}"
ĠEx cel
Val ida
ç¢ º
he e
Ġs lots
ĠÎ ³
her its
b ulk
Co ords
Ġmill iseconds
ä»ĸ ä»¬
Ch rome
4 21
Ġa xes
tom cat
Ġsu ff
Ġs lug
Ġ1 38
Ġcallback s
àµ ģ
ĠS ys
Ġho rse
Ġglyph icon
7 66
Scale To
',' ','
Ġconce rn
Fatal f
Ġw itness
G ar
Ġmin im
id ata
Ġcitize ns
ç»ĵ æŀĦ
Bind ings
ĠCheck s
èĭ ¥
á» ĥ
Ġf c
ĠÑģ Ð¿
æŃ »
uc ing
}} ">
Ġfa ult
heste r
Ġcor porate
ĠK ind
xf d
% )</
Http Servlet
ĠPRO F
Ġda ngerous
Ġexperi mental
Ġlight map
cb c
reg istered
fl are
font Description
na nd
ĠC F
Ve rb
ĠÐ ľ
Native Format
PY THON
mes tic
H PP
ric ht
s ess
pi v
p lat
Platform Target
Ġfind s
Ġreside nts
Ġclose r
el astic
M IS
Res tri
I J
ì² ´
åħ §
Ġrein terpret
ĠR ay
: ,
c df
p ure
U ME
ĠTa gs
dis tributed
(' $(
g uest
Bound ing
Ïĥ Î·
03 6
g ro
sv n
Ġl eve
Ġac cordance
Ġ199 8
max Length
ĠS pa
Url s
Ġsu it
ĠSig nal
ç» Ĩ
ae s
rc ase
VO ID
cons truction
ĠWork flow
Sp ark
po ssible
ĠÐº Ð¾Ð¼
h all
tal e
ns ible
cri ption
ava ilability
c rit
TEMP LATE
Ġ} ]
äº ¬
rt c
ll y
de nsity
Uns afe
v Ã¤
S ynchron
Q String
Ġre pair
Ġarg parse
Ðµ ÑģÑĤÐ²
ĉĉĉĉĉĉĉĉ ĉĉĉĉĉĉ
unt ing
l ish
a ug
User RootDir
Ġin i
Ġ ĠĠĠĠĠĠĠĠĠĠĠĠĠĠĠĠĠĠĠĠĠĠĠĠčĊ
Ġmip maps
ST AND
") [
p list
cons ume
F ood
is Array
rea ction
} +
NativeFormat Importer
La zy
Ġg reatest
Ġmo uth
ĠS PD
OT HER
use rid
a ne
initial izer
9 37
Ġimplementation s
ĠB A
Ġconcer ned
Co llect
us ts
ĠUi n
S ID
7 28
Ġb less
g lass
Ġpartici pate
AB I
Å «
å¼ ł
Ġconce pts
ãĤ ±
ss el
8 65
A pr
Object Type
Ex trude
æĸ ¯
æŃ ¦
ĠMin ister
ĠAr rays
mail to
ĠIN DIRECT
B K
Ġlat itude
> >(
pende d
g nitive
åĲ ¬
ĠCom mons
7 29
Source File
Ġ... )
æĿ ĳ
Ġfilter Mode
S UM
9 22
ĠCa t
ndo rs
Ġenter prise
ĠI V
Ġan imated
į°ìĿ´ íĦ°
09 0
Ġtra ding
åĪ¤ æĸŃ
Ġover lay
}_{ \
ĠA rc
,, "
Map Filter
EN UM
ľ ç´¢
I Q
perm alink
DI ST
eq z
g old
pho tos
Ġp ing
ĠD one
Ret rieve
ne z
, \"
Provi nce
ĠUni code
ins pection
sc ratch
---| ---|
Ro tate
ãĥ £
! âĢĿ
Trans late
ee per
edit able
Ġpro files
Bl ur
ĠCON SEQUENTIAL
Cur ves
m ux
Ġbe half
Fl ush
e maining
ĠR GB
Ġtra ve
n teractive
SE rror
8 15
A ck
Type Info
al ive
H alf
Ġ ####
Ġind icated
Ġf iled
Ġfa vour
Ġlo mbok
first Name
bro ker
ĠUin t
getElements By
ĠW AY
W eather
Ġident ical
ĠLO SS
Ġdes erialize
ĠS us
s cenario
ĠApp ro
07 0
Ġdefe nse
ĠSp irit
Do ck
Ġill ustra
08 5
Ġpub date
Ġmana ging
IL ER
Ġconf irmation
Ġfor med
data Type
t ures
ë ¬¸
Ġta n
======== ==
Ne ver
S HOW
Ø ¥
S kin
Ġan iso
equ ation
Ġdeploy ed
Ġs and
Red uce
)\ $(
po late
ĠG ithub
ĠP T
no ring
MS IL
Ù Ĵ
ON SE
ĠMed icine
i q
REF ER
Ġtranslates AutoresizingMaskIntoConstraints
as List
ĠF ar
Â ®
ĠN T
ba h
8 10
Ġìŀ Ĳ
r emaining
ĠTe n
8 17
PER IOD
debug ger
ĠScience s
ep isode
è¶ ³
book ing
45 67
To Int
lia ms
ĠPro du
ĠS cott
Ġd ream
Ġ{ }".
CLAS SES
mo tor
Trans lator
gr ep
seque ntial
Ġb t
Ġ ****************************************************************************
De part
ĠFor e
Di gest
i nteractive
Ġg lass
Ä± ÅŁ
ot hing
ia h
Ġprocessor Architecture
Ġr b
el m
7 26
9 15
Pos ts
dump s
ĠGame s
spec ification
ĠCo ll
87 3
poin ted
´ Ģ
z x
uto rial
< $
it elist
n ference
æıı è¿°
bra ce
P iece
ĠM iss
pos tal
U id
Ġact s
ff l
Texture Importer
ĠW arning
Ġw arn
M iss
h id
m istry
ĠS plit
Ġs ind
Ġv irus
Ġtexture Type
Ġheight Scale
usti n
PRODU CT
cres t
E mp
vs code
inf ty
py ri
ĠSTAT US
V ue
Ġmus cle
F our
M utation
uthent icator
åģ ľ
Ġchar ges
X C
Ġd l
arch itecture
7 30
Ġfail ing
Î¹ Î±
8 57
OT H
Ġf allback
çļĦ æĺ¯
Ġsprite Sheet
MLE lement
m peg
ĠM AC
ĠModule s
end points
">( </
ĠkÃ¶ nnen
Place holder
REG ION
Ġjo y
ĠI mmutable
æ¯ı ä¸ª
çĽ ĳ
Ġun certain
Ġr are
éļ ı
ãģı ãģł
ãģ¾ ãģŁ
ra cy
17 00
ur als
Ġeven ing
ite ration
M essaging
ĠEnter prise
Pixels To
gette r
rv ation
embed ded
Ġfi nance
Ġ1 34
Ġjava fx
with i
á ĭ
Ġs elling
R ig
as ide
ost e
M IL
Incr ement
root fs
c ps
exten t
linked i
set Name
DO UBLE
ĠSa i
00 20
Ġ Ġĉĉĉ
Ġfact s
7 24
ins ide
A k
4 31
ĠStart ed
ĠFranc isco
7 40
ĉĠĠĠĠĠĠĠĠĠĠĠĠĠĠĠĠĠĠĠ Ġ
il g
. }
De serialize
P ic
linkedi n
ĠH z
mi nated
ĠE p
me ro
Check box
start Time
Re positories
Ã ®
ĠProc Prov
Thread s
the y
i nference
mand a
([ [
Ġ ĠĠĠĠĠĠĠĠĠĠĠĠĠĠĠĠĠĠĠĠĠĠĠĠĠĠĠĠĠĠĠĠĠĠĠĠĠĠĠĠĠĠĠĠĠĠĊ
Ġi magine
Ġg un
7 11
may be
ch rono
withi n
Cn t
A ES
Ġdi ameter
Ġgl m
to u
Ġmeas ured
has OwnProperty
to List
ĠStorage Prov
ĠMem Prov
TI P
rs i
Ġpue de
E K
et ry
syl lab
Ġbump map
COMM ON
w u
ĠPres e
(" $
RE P
icto ria
crol ling
Ġtexture Settings
lo dash
9 16
Ġp aren
Ġno qa
lication s
Ġne got
Ġmip Bias
ĠC redit
æł ¡
Si mp
Ġn c
H ero
IN ATION
Tab Index
ta kes
CA DE
Ġh arm
ĠD AT
l eader
è ¤
/ \/
Ġdirect ive
mest e
In dent
Ġeffic iency
Face book
Ġpr zy
havio rs
Cha pter
D imensions
Ġgenerate Cubemap
Ġwint e
Ġlinear Texture
Ġi k
ĠconvertTo NormalMap
Ġnormal MapFilter
ScaleTo Alpha
Ġn POT
Ġenable MipMap
ĠmipMap Mode
ĠnPOT Scale
Ġborder MipMap
Ġgray ScaleToAlpha
ĠmipMapFadeDistance End
ĠmipMapFadeDistance Start
L ua
Ġexternal NormalMap
ãģ ĺ
LO PT
ĠR out
Ġ ĠĠĠĠĠĠĠĠĠĠĠĠĠĠĠĠĠĠĠĠĠĠĠĠĠčĊ
ĠB rown
Co mpose
rt ex
Ġe ra
now led
Ġ' ,'
Ġd owns
Ġem bodi
p aren
da emon
lo u
Ġseamless Cubemap
19 89
Ġcon nector
Ġcolor Space
Ġ1 33
Imple ments
cho ices
9 80
Ġc AMP
f is
|| ||
bud get
Ġ' \\
Stream ing
Ġmonth ly
View port
40 64
20 110
ĠSU CH
Ġl u
åħ «
Leg acy
Ġqu otes
char At
Ġa tomic
Ġ× ŀ
ĠM igration
Ġinv olve
Ġ1 48
Ġbuy ing
ĠDepende ncy
kra ine
DO UT
D ummy
Is Transparency
\+\_\+ \+
ĠCompl ex
ĠTra de
Debug Symbols
emb lies
ĠComp a
G Y
Ġfor got
ICAg ICAg
7 45
ĠO racle
c io
just ify
ĠPa nel
Ed ges
Pref s
eed ing
Ġd iss
Ġsho pping
ye n
ic ity
En coded
Ġalpha IsTransparency
Ġ' ../../../
rro l
Ġbo dies
Ġ# '
Ġfac ing
Out Dir
we bapp
a nc
Ã©s e
S ING
Packing Tag
PixelsTo Units
ca tal
Supp lier
Ġsprite Pivot
Ġus u
Ġsprite Mode
PL ATFORM
Blue print
Ġbind ings
ĠEs t
Ð° Ð»Ð¸
Ġsprite PackingTag
Ġsprite Extrude
Ġsprite MeshType
Ġs olver
Ġsprite PixelsToUnits
irm ware
EE E
ence s
Ġst udio
ĠÏĦ Î¿
ĠB ased
c q
7 60
87 2
IG ENCE
Ġz ij
ĠL ee
ĠÐ¿ÑĢ ÐµÐ´
ĠURL s
is Required
ĠCrea ting
erc ise
ĠWes tern
Text Block
ÙĪ Ùħ
bo lic
Ö ¸
is EqualTo
Ġthe mes
Ġresta urant
a ba
PI PE
Ġan x
find One
Ġali ve
çµ Ĳ
ENT AL
Ex isting
h its
Ġdivi ded
DEF INED
mat cher
8 11
S tra
inen t
p reference
ĠD eb
åĪĿå§ĭ åĮĸ
8 20
Ã¼ n
a fi
raf ts
B el
Ġbreak s
Ġant e
irc raft
urse s
M ixed
na ire
ntro py
åıĸ å¾Ĺ
8 14
c w
ì ¶
Ta il
bsol ete
7 06
Ġwinte r
A tomic
ng r
Sp here
Ġsh utdown
F ar
Ġf ut
Drop Down
Ġela psed
Ġsub scribe
8 26
½ Ķ
á ī
ĠBe n
Ġst mt
D uring
meste r
ëŁ ¬
pers istent
Ġmark s
ĉĉĠĠĠĠĠĠĠĠĠĠĠĠĠĠ Ġ
cmd s
ns ing
Ġwe ar
arsh aller
Ġspeak ing
ĠY OU
× ĺ
mac ron
ĠB each
] ="
' })
Ġ& :
Ġhe rs
tl as
J ump
Ġlatte r
emp h
Ġin herited
ip ython
Ġco lon
yl vania
è¯´ æĺİ
Port s
C AS
9 40
ĠM artin
ST IT
Ġm Ã¡s
k p
Ġp hrase
7 22
Ð½Ð° Ñı
M ol
ma ch
Ġl ex
Effect s
o bservation
ri sk
nta ges
po ni
Compat ible
ãģķãĤĮ ãģŁ
è¯ ĳ
cont ig
Data Table
ins o
Ġsql ite
> ..\
_ '
i np
14748364 7
Ġto Lane
Ġfrom Lane
áĢ ¬
sca nner
ATTRIBUT E
Ä ĵ
ĠDis able
Ġv y
ĠSTR ICT
Ġm ime
ĠD S
Ġk no
Ġsprite Border
r esta
ĠL P
Ġì Ĩ
8 59
Ġë ²
Ġx xx
Ġin verse
å¯Ĩ çłģ
dime nsions
5 36
Ġrespect ive
ST ORE
recogn ized
\ <
/ `
ìĭ Ŀ
Incr emental
à Ń
Ġc ircuit
DEP END
Ġact iv
For mats
trans actions
z l
t ec
V endor
W nd
UR ATION
Has Been
ĠA G
èĮ ĥ
ĠE NT
URE MENT
g ive
ĠS upp
8 34
ĠEd ition
warning s
ĠC AN
fi nder
Ġ1 47
Ġi cons
Ġ"- //
cor p
Ġpredict ed
Ġ1 39
Measure ment
Ġp references
ĠV oid
li days
Ġs wit
Ġho using
8 24
"> ,</
ĠM sg
Ġ/// <
(_ .
[ ,
Ġs r
W eapon
ãģ °
éĿ¢ çļĦ
ĠCar bon
Ġp un
De veloper
eri k
t ube
Ġo vers
Ġexport ed
Ġa vatar
vo ker
ĠK it
Ġob t
eg ible
id i
ĠÐº Ð°Ðº
Ġ1 55
X Bridge
ãģıãģł ãģķãģĦ
Ġhas n
ĠRe v
dea t
Ġdes ire
L F
ĠPai n
s elec
Sim ulation
Ġsta nding
ĠL ab
Ġinit iative
Ġ2 24
Class ification
Ġtechni que
o ct
S Z
_ ${
I List
97 1
initial ized
Ġor di
± Ð¾ÑĤ
Ġla p
de velop
O ID
ntl r
Str etch
S n
C lients
à¦ ®
Ġa nonymous
Ġna ch
ĠG C
, {
Ġi put
Ġr d
ê µ¬
Pro d
el et
H u
friend ly
Ġm alloc
co co
j am
ĠE igen
Ġscal ing
Ġflu id
Ġw ed
x ef
per centage
Be haviour
c rc
ĠREQUI RE
Ġ}} /
Ġss l
Bu y
Ġinit ially
do ck
cor ner
Pro files
ĠO s
ĠGet ting
nn is
ĠImple mentation
76 1
I i
me as
get Int
Ġbefore Each
å¸ Ī
Ġpart nership
"> .</
Ġpers istent
ĠPROF ITS
Ġvehicle s
co mpound
ex clusions
Ġrelig ious
Ġconsect etur
Ea wag
ul kan
æĭ ¬
(' @
áŀ ¶
hib ition
O m
XBridge C
% ^
e vidence
Ġretrieve d
GL IGENCE
mo nitoring
Ġinteg rated
ib m
ĠOUT PUT
Al arm
Ñĭ Ðµ
nden t
ari Config
89 3
ĠG RO
mg mt
l h
Ġreceive s
Ġart resolver
ĠLim ited
Ġ Ù¾
dig its
ĠAl ex
ke w
ĠT ick
ĠT ea
Ġ\ '
Ġsol ar
Q P
7 64
à¯ Ī
ĠComp are
æĪ ĺ
multip art
8 27
ĠRE FER
Ð» ÑĮ
ĠM el
ĠJ ack
000 6
Ass ertion
vi al
ell ect
E m
} ))
"} ],
nk y
ìŀħ ëĭĪëĭ¤
Ġinstitution s
Ġa im
date Time
Ġst denv
ãģŁ ãĤģ
ĠT hree
C hi
? '
? \
Ġca ption
ãĤ³ ãĥ³
æĬ ķ
Ġpro ud
SY MBOL
Ġpract ical
Ġso lo
Ġco ord
Veri fication
=> {
Ġ ĠĠĠĠĠĠĠĠĠĠĠĠĠĠĠĠĠĠĠĠĠĠĠĠĠĠčĊ
Ġfa b
Re presentation
Ġpri mitive
"> ï¼Ī
nk o
á Ĭ
TOT AL
Ġmem cpy
R ATE
eng lish
à¸Ń à¸ĩ
ring s
âĢ ī
scri pcion
Ġpa n
× §
Ġconnect ing
Ġf x
ba ng
RO LE
s tl
Ġ( ~
FFFFFFFF FFFFFFFF
Ġple nty
- [
requis ites
roll ment
Ġ2 70
so m
æ± Ł
So ng
05 6
ut c
Ġst im
V io
Ġop posite
Pro cedure
Ġrow span
Ġed ited
Ġinvest igation
Ġalig ned
Ġprofession als
Trans actions
Ġex clusive
py tz
× Ĺ
Ġbu ffers
Ġ tbl
li nder
ĠE VEN
me tal
Ind ividual
based ir
* </
ĠÑĤ Ð°Ðº
) ((
Ð° Ñı
ĠName space
cla use
ĠG rand
Ġwine rror
æĿ Ł
Ġn ue
__ ()
å ´
ld b
ĠImage s
Ġinst alling
04 6
Default Value
Ġco vers
de ration
Comb ine
ĠCal cu
reta i
al go
Ġfail ures
d j
Ġenume ration
Ġ20 1
ce so
B IG
ret rieve
Ġ tight
Ġde fin
ĠÃ ª
ue nta
Pro vision
Ġrel y
Item Id
DO MAIN
Ġcapa ble
0000 7
ĠP ea
M ime
-- )
H N
e va
De r
subscription s
fonts ize
B oth
Ġs udden
pub Date
5 46
ut ch
check point
æľĢ å¤§
da mage
Pro tected
b h
ï¼ī ï¼Į
la ys
AL LOW
** */
ĠT IM
umid ity
ĠH H
K Y
r prise
l aravel
ĠC EO
Ġre ci
E scape
%%%%%%%%%%%%%%%% %%%%%%%%%%%%%%%%
retai n
nde t
Cal c
Ġde scribing
Ġpus hed
Ġreli able
ĠB ot
R FC
Ġget t
8 19
e ndering
Ð» ÐµÐ½
Prot ection
ĠNE GLIGENCE
e rprise
Proto type
ĠÎºÎ± á½¶
"}, "
Ġclick ing
Tw ist
tp rint
coll ision
supp lied
Ġadi pis
Ġto k
s andbox
Ġs weet
o a
7 38
Ġupper case
à® ²
Ġ ï¼Į
ĠRich ard
Ġsen ior
data source
Ġweb pack
il ine
B RE
ĠData set
pro jection
P x
Ġcomplex ity
] |
Not ice
Ġvoc ab
link y
ri zon
E asy
Ð¸ Ð¿
t up
bo nd
Ġí ĮĮ
á¿ ¦
Ġa de
xf b
Ġ2 10
Met ro
7 19
Ġfo rt
EL L
Ġmembers hip
Ġthe a
Position s
Ġc kan
id u
ĠBUS INESS
pred iction
r q
Ġf iltering
di ce
instruction s
ĠB ob
be ne
stack overflow
Ġto dos
Ġroo ts
s ty
ĠSpec ifies
Pa n
Ġcu da
Ġbou ght
Mag ic
Ġch ip
LL U
Ġ2 20
IZ ATION
cl r
Ġ thy
ĠA bs
coll ector
ĠLo ader
Ġex posure
7 39
9 14
Ġaa n
çļĦ æķ°æį®
," [
à¸ģ à¸²à¸£
T AB
ÐµÐ ¿
media n
B roadcast
Ġw ood
ĠP lus
Continu ous
ay out
ãģĿ ãģ®
Ġh al
Ġextract ed
ëı Ļ
skip ped
Main Window
Ġor dering
Ġf ellow
count y
ĠYou Tube
Ġpro mp
tt f
Ġconven ient
Ar n
Country Code
L G
################ ########
ĠP OS
8 58
al ic
ar ts
ur b
çĽ¸ åħ³
Ġ ä½¿çĶ¨
P aste
nce n
POS ITION
TRAN S
margin Top
ĠCHAR SET
Ġ ĠĠĠĠĠĠĠĠĠĠĠĠĠĠĠĠĠĠĠĠĠĠĠĠĠĠĠĠĠĠĠĠĠĠĠĠĠĠĠĠĠĠĠĠĠĠĠĊ
8 48
8 78
Ġemploy ment
ë į
sign up
AT OM
F u
Ö ¼
Ġm Ã¡
ND ER
i ring
ĠU buntu
ta to
ĠW eight
ro data
py c
Is Valid
Ġen countered
CON NECTION
Ġass ociate
ĠFin ally
SS H
Ġme ns
ĠB ible
Â· Â·
ĠS tructure
fi xtures
tr uth
æķ ħ
8 55
Co mposition
ĠA cademy
- #
pack ed
f ed
P hi
Ġ1 65
g roovy
Ġpick ed
Ġliste ners
ĠB ASE
pk t
Ġmain ly
Ġg cc
z ie
ĠG l
install ed
Ġë ¬¸
Uni x
66 67
à¦ ¯
B ulk
Ġ timing
regex p
Date Format
ĠKe ys
Ġar c
à´ ¨
Ġ Î¿
In verse
P urchase
na no
ef req
Ġdata type
need s
f usion
Ġamo unts
) ==
5 23
Par cel
Ass ertions
abo rt
S el
g able
Compression Quality
t erprise
ĠS pi
ay lor
ä½ľ æĪĲ
16 00
=' /
T xt
Ġbro ker
Ite rable
ä¸» è¦ģ
con version
Ġins pect
Ġclass ic
G allery
ĠF ORE
ER E
W izard
ĠB IT
">ï¼Ī </
u w
Ġo bserver
p it
8 30
ing ly
Ġë³ ´
"> ï¼ī</
ĠS TO
Time line
ME NU
Co unts
Direct ive
å¥ ¹
BO OST
Ġsig ning
Ġmar riage
cl usters
Ġscope d
') \
åį ı
ĠM ult
çļĦ æĹ¶åĢĻ
F rance
nab ling
ECT ION
ele v
Ġreject ed
Tool Tip
syllab ic
ura nts
Ġqu it
æ¥ Ń
Ġcommun ications
Pro of
Ú Ĩ
A ye
Ñĥ Ð¶
8 38
ĠL esser
ev ation
under line
va il
Ġh ur
Ġson t
ĠBE GIN
sta ging
Ġexist ence
] ].
7 36
urs ion
Ds t
å¯¹ äºİ
ĠT im
ãĥĩ ãĥ¼ãĤ¿
ĠS IM
sho t
Ġo h
ta nding
Ġvis itors
Eval uation
out s
u mento
Ġdeal ing
ime dia
Ġprin ting
ĠBe havior
ĠS TY
ĉĉĉĉĉĉĉ Ġ
Ġguid ance
lot hing
ä½ İ
ĠS po
Maximum CompressionQuality
Ġforce MaximumCompressionQuality
na do
ĠA uthorization
tic ker
Ġdefi ning
ven tions
Ġspa cing
Ġtr e
ns ylvania
umu lative
ĠB rand
Ġbone Name
å ¨
Ġde cades
bla de
With Context
r endering
ch ro
Trans formation
Ø§Ø ¦
Ġq t
Ġ20 4
Act ivation
ĠP I
8 47
Ġ@ {
Ġeine n
Ġcri me
ve ns
SE CTION
ĠCharl e
Ġspa wn
gre SQL
ĠPO SS
t Ã¤
SO FTWARE
sig ner
glob als
CONST ANT
Ġa nge
Ñĥ ÑĢ
85 1
à´ ¾
ne monic
Ġconc rete
Ã¡ c
Ġgra ce
æ¡ £
ĠD W
Ġ199 6
Ġqu o
Ġad ults
Ġexplo de
áĢ ¯
Ġtermi nate
To Fill
my batis
éĢ Ĥ
ri ft
8 22
Ġc han
âĢ ı
ĠCompl ete
9 69
Ġass oc
a j
* ;
bl u
à¤ ¡
Ġoffici als
Ġk ub
å¤§ å°ı
ĉĉĉĠĠĠĠĠĠĠĠ Ġ
conf irmed
{ (
B rows
C riterion
ĠF our
a way
ma king
8 32
format ted
Teste r
Ca nada
à§ ģ
f ers
89 1
sc ii
AR AM
Ġp ot
Ġtas t
ĠB ind
Ġfore s
Ġí ĶĦ
C ATEG
put e
Ġstr etch
ĠGraph ics
Config s
Ġpa use
Ġcoll ision
Ġge nre
n terprise
m h
Ð°Ð¹ Ð»
ĠT hose
ir k
ĠSt udies
"/> .
CID ENTAL
the w
ce il
9 32
Ġan n
unct uation
åľ ĭ
arg ar
ĠZ one
Ġoffi cer
Ġ}} >
ĠWH NP
Mark down
Ġstrug gle
é¡ ŀ
vo rs
ĠD ark
Ñģ Ð¸
ib bon
ro c
ĠSTR ING
t all
rrol e
ou gh
__ );
du lo
Ġpri marily
05 4
ific ial
pro metheus
ĠÐ ¢
Non null
Ġhouse hold
Ġme l
> %
c ash
Ġfetch url
IP S
5 42
Ġimprove ments
s nap
Ġe ps
A wait
g son
Ġins pired
Ġwin ning
ge e
ES P
Ġae s
cccc c
s net
19 91
ĠCan not
ĠR ac
a ntlr
Ġ} ))
Se r
g ml
Sw ift
ĠComp iler
VI SED
yt h
---------------------------------------------------------------- ----------
)* (
ma ging
Lock ed
7 98
Ġwo rst
Ġë ķĮ
éĢ £
pe ra
ex pan
Ġex cess
ĠR AM
Ġ}; "
acc um
Ġg tk
(" :
× ¤
emp lace
x ac
session s
Ġrec ipient
tho lic
tell ite
I ce
Ġse gu
ans ible
ĠM arshal
ĠDA MAGE
ma pped
Ġcorrespo nds
ls e
íģ ¬
ĠPi peline
ita n
ta nd
S q
Ġ{{ $
Ch arge
ĠS tro
tri ck
Ġlong itude
y mbol
nomi nator
Ġcount y
ĠF lag
87 1
Ġph iloso
r Ã©
9 11
Ġi v
ë¡ Ŀ
ca tor
9 30
Ñ ĳ
ĠRET URN
n ha
> ')
â Ļ
Ġf unk
d q
ä»¥ åıĬ
ĠDIS CLA
ä» ħ
Bag Constraints
! /"
Co ver
py plot
ĠProduct s
ç² ¾
Ġli ft
ĠMark eting
Calcu lator
ĠR ect
s erved
Ġal arm
z ar
7 88
æĿ¡ ä»¶
M irror
ĠLea ve
F REE
ope rators
Comp ilation
G NU
bat im
ad y
pa ble
Ġreg ulations
æ¦ Ĥ
Sy mfony
String Utils
9 19
(). __
ĉĠĠĠĠĠĠĠĠĠĠĠĠĠĠĠĠĠĠĠĠ Ġ
Ġá¼ Ģ
Ú ¾
g os
Ġid l
P END
Ġappro aches
Ġl n
new line
Ġs eat
ĠJa panese
9 55
Ġgr pc
Ġtel ling
8 69
ĠRed irect
T ru
ĠØ§ÙĦ Øª
chang efreq
f ive
Ġocc urrence
Sc reenshot
ä¼ ¼
ile nce
ĠLO GG
PO P
l egal
C USTOM
çķ Ļ
Class Loader
AC L
ĠCount e
ela psed
Ġeval uated
Ġdis co
eal and
O LEAN
e rri
bora tory
P df
po licies
ĠU LONG
ko ta
Ġd B
ĠDoc s
ĠB ound
e nterprise
the d
Ö ·
ar Ä±
Ġ180 1
ĠNot ice
Ġmod ifications
è¯ Ħ
Ġs port
Cor ner
æ¨¡ åĿĹ
sh uffle
Conc urrent
à½ ¡
Ġc rop
Ġport folio
ĠCall ed
n za
id os
no rs
0 67
some thing
C han
Ġload s
ĠIN CIDENTAL
Ġd rugs
Ġ" />
f bb
Ġb ulk
ĠRec tangle
ĠD ashboard
ãĤ· ãĥ§ãĥ³
i y
çĶ ·
start up
t ied
P k
ott e
COMP ONENT
L ead
CLO SE
trans formation
{ }{
:\ /\/
co lour
pl ash
Ġthi n
sol r
con nex
SPE C
40 97
ĠAd vanced
Ġvo tre
ä¾ĭ å¦Ĥ
ceed ings
spa t
RI KEN
cor lib
noo n
ar me
Auto Fit
eg g
Ġclick ed
Acc urate
mark up
Ġcomprehe nsive
cer pt
ĠN ight
Ġ ĉĉĉĉ
9 17
7 49
ĠUpdate s
ab ilities
w ns
ä½ľ ä¸º
AL LOC
Ġha ck
Wh ich
rea ms
Ġj i
;;;;;;;; ;;;;;;;;
Ġë³ Ģ
ÑģÑĤ Ð°Ð½
éĻ ħ
ĠR A
Ġfit ness
respo nd
R s
rd uino
CopyTo OutputDirectory
dar win
Ġj our
W B
Get ting
Ġ{ <
Ġv c
add All
callback s
w rong
ÏĢ Î¿
asset id
N ational
De ri
f arm
her lands
ĠM ask
f ur
[] >
Nu Get
7 13
PR P
tat ing
F Y
nde e
Ġhos ted
ct e
Ġche e
Compare r
Ġe ating
l isp
}} $
no dd
xml ns
Ġtick ets
valo r
ff t
Ġf g
Inf later
AN CED
epoch s
Re name
ĠRead ing
Ġpal ette
Ġ -----
ãĤ¹ ãĤ¿
Ġs lider
io rs
comma accent
Co ordinates
9 12
thi nk
E li
Ġrea dable
++++++++ ++++++++
CT X
ĠIN IT
Ġjust ice
Be arer
Ġcheck sum
ist ics
ĠSt eps
us able
is hed
Ġgett e
Ġver we
Application Configuration
CAT S
LE SS
ĠA tomic
Ġinters ection
sca tter
Ġsc ratch
9 49
Ġf ruit
Al bum
Ġo nset
ĠCharle s
han tom
ĠCounte r
Match ing
Ð¸ÑĤ ÐµÐ»ÑĮ
Ì Ģ
Ġcr uc
ert e
Ġac company
Ġb ull
Ġpr iorit
Pers istence
Ġser ves
report e
ĠAdmin istration
Ġcommon ly
rien ted
åı ¦
toHave Been
HE LP
export e
Ġgette r
Ð» ÐµÐ¼
æŀ Ĺ
ba i
ãģĦ ãģ¦
O ahu
æ³¨ åĨĮ
", -
Ġn iet
') }
EMP L
Lo rem
}` ;
Ġside bar
Ġsug ar
Ma nu
A live
Ġg oo
9 33
Ġs qu
Q C
ĠM ultiple
pen n
Wat cher
Ġtype d
ph ysics
= */
Ġcloses t
Ġed ucational
ĠP si
Ġso ul
SY NC
N H
Ð¾Ð· Ð´
Ġfro zen
Ġdon n
Ġw r
x be
ra ngle
O il
Ġve get
Ġform al
exporte r
Po licies
Ġp ul
à¸ ³
Ġd ip
loa k
çİ° åľ¨
ĠHis to
E FF
Ġ ride
tra ffic
ĠM ix
De p
ĠAttribute s
F ig
Ġdocument ed
Ġplan ned
ip c
8 37
Ġus uario
Ġcom fort
s ar
Ġcommit ment
Ġrecogn ition
G as
s lave
Ġ` [
opens hift
;-> <
start ing
ĠRe gex
ĠMod al
ce rif
ä¸Ĭ çļĦ
Ö Ģ
P AY
vers ations
p ine
éĺ ħ
å° Ķ
Ġ× ĳ
i ri
lati n
ĠHe ro
Ġcl e
Ġident ification
f ine
æŁ¥ çľĭ
ĠCo mb
Ġper manent
Ġha pp
Âł Ċ
class method
Ð½Ð¾ Ðµ
mo ving
Ġdist ing
F light
Size s
Inst allation
Ġinc ident
indexe s
post gres
ĠSPD X
S na
ĠV eri
ĠStu dy
ila n
F U
mod ity
ĠEx tra
Ġcons umption
Ġplace ment
S patial
è ħ
macro s
Ġ ĠĠĠĠĠĠĠĠĠĠĠĠĠĠĠĠĠĠĠĠĠĠĠĠĠĠĠčĊ
ĠBG COLOR
Ġpow ers
Suc ceeded
æī ¿
ble nd
un ar
veri fied
Err Unexpected
tid ad
ĠMe asure
Ġo bservations
ĠData Type
ĠE q
>> ,
æ¹ ĸ
0 99
ä¸į ä¼ļ
ko de
ĠPo ol
Y d
um ped
s erde
J B
cal ib
Ġtitle s
8 35
ĠAD VISED
FORM ATION
'] ]
ĉĉĉĉ čĊ
g is
ife r
Ac cording
t erp
fe s
W rong
close s
ĠJo hnson
S peaker
emp ts
tego ri
ĠSi mp
7 44
AMP LE
9 77
ĠJ oin
Ġp ressed
8 67
fluen t
Ġstart Time
] **
mo tions
ne so
ĠS uch
à° ¨
e nix
Ġsit ting
æ¸ ¸
ìĽ Ĳ
Ð¾Ð» Ð½
ĠProt ection
m vc
éĹ Ń
dif ference
Ġaccess o
assert NotNull
Ġconvert e
ĠS peed
c ron
ĠI ll
']) ->
å¾ ·
09 5
Import s
ea gle
seg ments
ĠE SP
rea chable
Ġc ult
Ġdi gest
Ġwa ves
t Case
ĠT F
64 35
æĺ Ł
a pore
h CoV
e snet
Ġfol ders
èĭ ±
) ãĢĤ
Ġc make
f time
Ġcomp licated
report ing
à¸µ à¹Ī
Ġexpense s
Ġli quid
ba m
A tte
has Next
Ġto r
Key Value
é£ İ
vi k
cast l
dis p
no rth
T run
Ġmys t
mand o
AN GE
Ġpat e
Ġlo west
Ġ à¥
WINDO W
M g
ĠINT ERRUP
IME D
ErrUnexpected EOF
ãĥ ¢
Ġtrans formed
ÅĤ u
Conf lict
part icipant
EntityFramework Core
eve nodd
ĠCon tains
it is
èĪ ¬
â Ħ
s ingleton
dis cord
=" __
Ġ[ @
\ (
Ġsever ity
is ms
Re corder
Ġpl ural
ID X
ĠL uc
ĠCons traint
à· Ĭ
tick s
Ġs RGB
vis ory
8 39
Ġsanit ized
Ġx mm
Al location
Upper Case
ë ĮĢ
Ġre positories
bo b
ĠDe r
Ġconstruct ed
ĠField s
t erri
lo m
decl aration
ur us
G ithub
Ġf name
çĻ ¼
å· ®
################################################################ ########
ê ¸
Ġac co
Ġland scape
ba na
Ð° ÐµÑĤ
Ġap lic
Ð¾Ð± Ñĭ
ĠInteg ration
à¨ ¾
N g
ara h
J ar
ĠT our
error level
Ġe mu
ÑĢ Ð¾Ñģ
Ġ2 30
è½ ¯
Ġindex ed
Sample r
å¯ ¾
Ġhy dro
Ġh ierarchy
STIT UTE
Ġachie ved
G IT
v ard
Extra ctor
Ġbene fic
ĠPOSS IBILITY
Ġda emon
Da ily
Ġprinciple s
Ġìł Ħ
Ġanal yz
K L
Ġsee king
Str eams
âĢ ķ
Ut f
Ġ æĺ¯
ec han
ĠBook s
oo ling
Ġcharact eristics
Ġsatis fied
Ġconduct ed
Ġco ng
Dig it
t ib
Ġcar bon
HasBeen Set
ca b
ä¹ Ŀ
et able
sub mission
lo om
Ġ} ],
Ġco i
ĠXCT Assert
ĠW all
part ials
Ġon Create
ĠPri nce
Ġv ita
Ġpa nic
r esnet
Ġ tbody
R N
9 29
Ġë© Ķ
da a
æľ Ľ
ĠReg istry
experi mental
ĳ ľ
conf irmation
s it
match ing
castl e
r up
Order ed
Ġ\ $
ç· ¨
Ġi e
; .
Ġfile Path
ĠV B
BU IL
foot note
pre ne
Ġ6 55
ĠC V
Str eet
åı ĭ
ĠPRO PER
AS CI
g ues
Ġfor ever
Ġget All
Ġg al
pri mitive
zz a
Data GridView
AS M
J AVA
Ġset t
00 12
Ph p
fa vorite
S wit
P ATCH
s tCase
Ġtast e
Ġh p
md b
á½ °
9 28
Access ible
ĠN C
é ¾
éĢ Ģ
| ----------------
Ġin voice
contact ref
Ġdir ected
n ist
e stCase
Equ ivalent
x fa
S am
Ġcell spacing
Level s
Ca m
WE VER
Co mpound
Ġne utron
ĠT AG
t ek
ala n
ĠAR M
Http Response
web socket
ins trumentation
C ritical
ex o
Ġveri fied
ĠAir port
ĠVER SION
Ġre scue
lat ex
Ġcrit ic
proto c
AT AL
Ġhealth care
é» ĳ
Ġ tl
Ġde ps
Ġdel la
8 60
ĠðŁ ĺ
Ġexpec tations
rec ycle
Ġ3 50
P ED
Å ¥
14 2857
Ġ$ "
K ubernetes
app ing
ed ition
Ġev olution
ĠD NA
z s
Ġy outh
ĠWork ing
de al
ĠD ump
Ġvalu able
va c
ĠP TR
scal ed
x aa
B V
Ġl bl
Ty pography
const expr
PK G
no l
Ġre mark
Z A
Inno DB
. ]
Ġre pu
Hash Set
ur as
Color Space
Ġcen tre
`. `
8 99
:// /
Reg istered
ĠSho p
read me
Ġconverte r
Ġdo gs
ing red
P layers
çŁ¥ éģĵ
Bro ker
ic tory
& )
Ġrec ursive
is trar
rec ursive
readcr umbs
Ġtra cker
Ġconflict s
9 38
Graph ic
9 10
8 13
Ġtrans mission
Exte n
ref err
Ġo ngoing
è ŀ
Ġo mitted
19 80
++ ,
Ġw ur
Sub System
ra bbit
Ġta xes
Ġ" ##
Ġë ĵ
Ġchunk s
ĠE NV
Mark up
A vg
R u
ĠìŀĪ ìĬµëĭĪëĭ¤
pp s
tra cks
process ors
Ġlocal host
ĠSub scription
Ġ4 01
ĠGOO DS
dis ts
Ð°Ð¼ Ð¸
ĠC riteria
p lug
T un
ĠU SD
ure n
ĠF igure
Î ¾
Game s
05 00
s lots
fa vicon
Embedded Resource
A v
hy dro
L exer
Ġauthor ities
ĠP rem
W as
J une
ĠL ittle
9 68
TO M
Ġinter pr
l exer
() (
the ast
Pri mitives
Ġpay ing
Call e
No mbre
part icle
8 45
ST E
optim ize
ion ic
Ġcom mission
Ġh s
9 27
ill egible
e rnet
Ġk l
çİ¯ å¢ĥ
Ġta p
alo ad
æĹł æ³ķ
Bu ffered
ĠBit map
scale ToFill
oo rs
cht e
ip ients
c line
q b
REG ISTER
Code Dom
0000 2
Ġclea ning
UT ION
pretix control
æ ¤
Ġ è®¾ç½®
Ġse u
0 68
Fo ot
PL U
Ġ1 58
Ġok ay
Spa wn
Ġlocal Storage
Pro be
Ġfig ures
Ã¤ l
Lif ecycle
r ar
exp licit
car go
Py x
prec ation
View Holder
ĠC rypto
pl urals
date picker
Initial izer
Ġcha ir
File ID
ĠU r
ĠTerr itory
ĠL earn
ula tory
t ereo
ink scape
å¦Ĥ ä¸ĭ
Ġinst al
åĨ Ľ
* )(
Ġend for
Int Dir
tor tion
Per f
Ġtrans mit
Ġfoot ball
ome tric
api Version
Not Empty
8 29
; :
provi nce
Ġba nks
COM MENT
De nse
ĠGe orgia
Reference Value
ĠSa fari
Ġho liday
Ġab use
em ber
8 98
Ġìĥ Ŀ
pla nation
å° ĩ
":" ","
á½ Ĳ
h ierarchy
assert That
ĠFIX ME
N y
} ));
Ġ[ \
ç Ĵ
rel y
ĠS ame
be ing
ri ff
t j
de limited
Ð ¤
Ġlif etime
ed s
ĠSp ine
Callback s
Ġru nat
Ġde li
ra k
8 68
Ġ' .$
SI M
Te n
O W
Ġ? :
SQL ite
Ġcri minal
' }}
ĠLANG UAGE
co ordinate
lu cene
ĠPR N
ĠArch ive
ä½ ı
DB G
e ets
è· Ł
Ġpick l
ĠHO WEVER
è¨ Ī
ni co
dis patcher
r ein
9 39
urs ing
>: ]<
ç§ ģ
Ġs py
ĠE asy
Ñ Ĺ
Ġda nce
C NT
ec ure
ĠPort al
>, </
Ġdeterm ines
ĠS croll
course s
Ġe vi
Ġs patial
Ġbeaut y
s il
ĉĉĉĉĠĠĠĠĠĠ Ġ
ãĤ¯ ãĥ©
Ġka nn
a nn
Ġhat e
Ġintra net
h ig
ĠE T
q os
` \
lo ro
TA IN
ema ils
contains Key
ÑĤ Ð°
arg ing
S linky
ãĥķãĤ ¡ãĤ¤ãĥ«
ĠProvi nce
s low
ET A
Ġs ister
Ex e
ĠShe ll
ĉĠĠĠĠĠĠĠĠĠĠĠĠĠĠĠĠĠĠĠĠĠ Ġ
à½Ĥ à½¦
Ch rist
Car bon
Ġsta ges
Ġuse Effect
ĠZ ealand
Ġ\ -
Ġreal ized
ãĤ¸ ãĤ§
End Of
Indexe s
al ready
× Ľ
åı ²
bound ary
tra ctions
Ġstri ke
resso r
termi nate
Ġpack ed
t ernet
Ġf ell
ass is
a id
Ġpro spect
Book s
Ġcollabo ration
Ġre cover
Ġl v
ÃŁ e
ad r
z ing
Ġplus Error
Ġminus Error
Ġoff line
Ġac com
9 45
è¯ į
à½´ à¼ĭ
% </
Ġunt e
Se quential
ĠC ircle
Ġzero s
Ġ1 46
ãĥ Ĭ
neso ta
toHaveBeen Called
ÑĨÐ¸ Ð¸
ĠL iste
nu ng
Ø§Ø ¡
Ġg y
Sub Texture
éĩ Ĭ
Ġfind ViewById
+ ----------------
9 04
ers e
mp ing
8 95
ĠMo vie
K V
& ,
R IC
ĠCos t
ĠTHE ORY
ĠSa fe
cs html
feat ured
P Q
Ġhers elf
Ġ ĠĠĠĠĠĠĠĠĉ
à¸²à¸ ¢
åĲ Ĺ
Ġs lave
Ġremo val
tac cent
Z o
Ġbuild ings
Ġar rival
EMPL ARY
ĠP ak
do be
pri ncipal
x m
ins pect
ĠCancel lationToken
f ld
Ġlocal ized
ÙĪ Ø¯
Ġ(( _
AR IES
çĥ ¯
Ġme g
ĉĉĉĠĠĠĠĠĠĠĠĠ Ġ
9 18
li ning
hype rledger
WN ER
ĠS tri
Ġ1 31
s tereo
Ep isode
Ġoptim al
cor ed
â ľ
Ġd ose
ĠYou ng
Per formed
ei gen
ew is
Ġkit chen
Mi nor
Base TypeName
m ml
kub ectl
art z
ime s
Ġl b
Ġpoly gon
Ġbring ing
Ġregular ly
Ġdestroy ed
ĠR ules
Ġfor um
s lack
W s
f all
Ġanal ytics
Ġm ms
K C
Out line
hat e
Ġi Phone
A ware
N t
() -
Ġcar efully
Ġstrong ly
Ġpro mis
ling s
fol ders
K O
Ġdecl arations
åħ ĭ
Ġsu pers
ĠE ither
ar dian
__ ":
bas ics
Ġoutcome s
Log ged
Ġb p
ëĬ ¥
popu lation
instance ID
Ġconven ience
Spi nner
M arch
ida k
bs d
Ġde str
s ear
v are
fra ction
creative commons
Ġfil ms
Ġâ ī
Ġsprite T
ega n
ç¬¬ äºĮ
Ġu v
è¦ģ æ±Ĥ
R i
un bounded
she lf
Di rty
Command Line
INIT IAL
":" <
ĠspriteT essellationDetail
Ġ1 68
pos als
ĠM I
v il
content Type
äº Ĵ
USER NAME
ĠN V
D ash
100 7
P AN
Ġ# -}
Exten t
Ġre use
ri p
çº ¦
N J
f ir
che f
Ġinv olves
éĺ ²
po pover
ç¤º ä¾ĭ
ga tsby
ĠF R
c ities
r ta
p ast
ĠThe o
åķ Ĭ
ĠH L
compat ibility
1 000000
ĠK now
Ġ threat
co w
9 24
SCH EMA
unda n
æĪĬ çĥ·
çŃ ĸ
Ġ9 00
Ġis land
éĥ½ æĺ¯
SE Q
Re ject
de part
ĠÐ· Ð½Ð°Ñĩ
Ġhundred s
ĠP l
last Name
9 13
x cc
T hing
ĠEX EMPLARY
owe red
ts o
à¥ĩ à¤Ĥ
Ġho sting
y text
Group Id
Unit Test
J NI
yn b
ä¸ ¦
à¾ ²
é Ń
Ġreve aled
Ġgar den
\", \
Media Type
plus plus
I QUE
ĠB and
B ecause
à° ²
10 11
h line
Ġpickl e
ĠPri mary
mig rations
Ġco nclude
i u
ĠR ound
mig rate
Ï İ
IT CH
Ġenjoy ed
e uro
à¸² à¸Ļ
ĠS quare
åĨħ åŃĺ
8 97
K G
li ft
nam ing
to ast
l k
ãģ ¸
table Name
Ġ1 57
ro utines
Ġ' '),
åŁº æľ¬
li do
DE T
Ġgra duate
AT S
a tta
P W
ì £¼
S em
de vel
Ġret rie
s as
Ġad voc
go ns
Ġtr un
Ġfair ly
ĠF lags
05 3
Ġn ut
exe rc
Po land
ĠH u
ile y
éĤ£ ä¹Ī
ĠU IT
Ġs cenarios
={ `
Ġresear chers
WAR D
ĠGame Object
Ġta ught
Ġë į°ìĿ´íĦ°
' `
Õ ¸
ee ring
MI SS
Add ing
Ġìĭ ¤
A nimator
ms build
Z N
pol is
ĠLE FT
ffic ial
Visual Basic
åĿ ĩ
Base line
ĠA ws
p arame
jdbc Type
= ["
mo sphere
Imp licit
DAY S
de ck
Ġ1 54
ĠLOGG ER
Prec ision
Ġas m
Ġcorr elation
client e
Ġwes t
Ġn ick
E ye
E i
ĠF ocus
Ġconfig ur
EXT EN
im m
nc ias
Comp arator
ulta neous
Ġra di
UI Kit
x u
% }
space r
ĠLook s
æĢ İ
co okies
n ternet
Ġs id
05 1
tea cher
9 67
JSON Object
Ġres e
nis m
h reate
Ġsubject s
ìħ ĺ
ĠDa n
access ibility
Ġflat t
ĠSa nta
b asis
und s
Ġbrows ers
Text Color
IZ ED
na pse
Un ary
im gs
WH ITE
bit coin
Ġar rived
ang a
Ġhash Code
Ġhe nce
ĠM ur
LIN ENO
ĠPROC UREMENT
è§ Ĥ
9 35
P henome
g lo
afi i
æ§ ĭ
ç ¹
Ġmain tained
Ġexperi ments
Ġ thumb
ac um
define Property
07 2
ĠM oney
Ġfl ask
è¿ĩ ç¨ĭ
t hreate
Ġdatabase s
Ġ( $(
li ga
ĠR B
Order By
Ġcas ino
io m
W y
Ġpart icles
NO RE
al arm
H s
çĪ ¶
ide d
ĠPol it
b ie
5 00000
Ġinter mediate
S eek
ĠCha pter
ĠCA USED
ĠSUB STITUTE
Ġ tk
sub views
Ġmo o
unit ed
ip ynb
con j
ĠF O
t iff
app roved
ĠR eader
] >
r view
ëł ¥
T ea
Ġz um
ĠDes t
ĠC AS
Ġsur gery
Ġper iods
ĠSu ite
Ġsecondary UV
m vn
ha ble
ol t
Ġne arest
9 64
Ġdia gram
x iv
a bel
ĠINTERRUP TION
9 47
è¶ Ĭ
8080 80
WINDO WS
å ĺ
Ġhu mans
Ġ~ /.
mb ia
Client e
BY TES
Fin ally
Ġali ases
ĠN ume
Ð¼ ÐµÐ½
r no
Ġco ast
W heel
Ã© t
ãĥ¼ãĤ ·
Ġhel pers
ope ner
Ġstra nge
7 31
Diagnos tic
èµ °
> (),
ĠO bama
ra z
bo wer
D J
40 101
ĠT hings
æĹ¥ å¿Ĺ
Ġ1 67
Ġcoi n
345 6789
Ġse mantic
usa n
Ġperson ally
A bility
ĠMa nu
Ġunders tood
co e
j ni
H yper
Exp lorer
Web View
Ġsto ps
ãĢĢ ãĢĢ
ĠS S
Ġn ine
Ch aracters
Ġcheck point
source forge
f lop
Ġb unch
Ðµ Ðµ
O mega
dd r
LP ARAM
import s
TL D
x cb
AL I
ic ian
Ġn t
ĠA ctions
Ġpopu late
Ġ ĠĠĠĠĠĠĠĠĠĠĠĠĠĠĠĠĠĠĠĠĠĠĠĠĠĠĠĠĠĠĠĠĠĠĠĠĠĠĠĠĠĠĠĠĠĠĠĠĊ
fa ction
Constant e
it r
REC ORD
M ichael
sim ilar
æĸ° çļĦ
class ic
ĠB ridge
Deco rator
Ġch rome
Ġf loo
Ġ terri
ëĭ Ī
éĩ ĩ
op code
Ġev il
me ts
Ġmass ive
Ġtex ts
y ii
ĠA SP
Ġwe ird
ffl e
ff a
av adoc
Ġidl e
code haus
c ce
Ġsm allest
Ġn l
Que ries
9 65
H M
Ġexc iting
ĠSt e
ermin istic
Ù ĳ
< _
ĠFri end
ë ¹Ħ
Ġd al
Ġso fa
e served
ÅĻ e
vocab ulary
pe ek
Co nce
Ty p
ĠIN PUT
sig moid
ĠOver view
! ');
ĠC AP
Ġcode System
lia ment
Ġn arrow
dis connect
ĠA ctor
Ad j
ĠA p
Ġcon ver
colo rrole
w ea
RESP ONSE
bbi i
g ol
Ġv illage
Ġ" :"
py pi
Ġro of
Ġ keras
build s
mo b
Fore s
] },
Ġelect ron
port e
ĠA nn
04 00
é¢ Ŀ
æĿĥ éĻĲ
r eserved
Ġge ar
Ġrelat e
co vid
è§ ī
ĠJ ersey
to rial
Exec utable
pay ments
PLU GIN
Ġnew Value
Ġinteraction s
L eader
ĠQ U
network s
ĠWo uld
Table Row
> ..\..\
Ġdis count
de pt
Ø§Ø³ Øª
app compat
e pair
ĠW ithout
UNT IME
Ġ ĠĠĠĠĠĠĠĠĠĠĠĠĠĠĠĠĠĠĠĠĠĠĠĠĠĠĠĠčĊ
Ġsur prise
e ge
j ersey
mploy ment
scri bers
comp uter
Ġpa gination
. âĢĻ
(" ")
SE PAR
Ð¿ ÑĢÐ°Ð²
è§ Ī
x bd
B rit
Ġlin t
U IS
="/ "
R ob
ĠMo nitor
9 34
ãĥ³ ãĥī
L ost
b etes
et y
å£ «
so uth
ĠH D
ĉĠĠĠĠĠĠĠĠĠĠĠĠĠĠĠĠĠĠĠĠĠĠ Ġ
ĠSt eve
k kit
Ġch i
Ġf el
METH O
IGN ED
Ġaccess ing
Ġs peaker
G ot
e presentation
ĠCa nvas
Ġdo mains
09 2
Ġsta nds
l eve
Ø ¸
late ncy
á» ĭ
-- ></
Ġget Name
Cons ume
Ġimpro ving
ps z
C yc
Ġge brui
**************************************************************** ****
ĠPharma cy
Ġshape s
t iv
et ty
inso n
"," -
Ġsli des
n terp
Ġregion al
Out let
measure ment
n pc
åº «
åĲ¯ åĬ¨
nit ure
Act ivate
9 44
spi nner
Ġde ve
Wa iting
Ġà¤ ī
mov l
ul as
Qual ifier
ï»¿ <?
Ġtr end
Ä± l
Ġsugges tion
ENTI FIER
M eter
r epresentation
G od
ea ning
Ġë§ Į
S nippet
åį °
c irc
F raction
èĪ ĩ
Ed m
Para graph
Ġret val
ÐµÑĢ Ð¶
J uly
lin ker
i nternet
Ġx x
Ġê° ľ
Ġsever e
X Path
A AC
u men
ali ases
Ġb cube
Ġ1 90
M ad
K W
í ħ
ĠAt lan
R ele
ĠP IN
9 26
08 4
Ġ2 25
pa m
ÙĨ Ùī
ç» §
ar is
Ġb low
Ġ Ü
ĠName d
Ġtrans lated
Ġstu ck
vis ited
lo de
Ġplatform Settings
spat h
ĠProcess ing
Te X
æĹ¥ æľŁ
ĠsRGB Texture
Ġ ĠĠĠĠĉĉ
pea kers
Web Socket
ĠDefault Texture
ä¸ ĥ
Ġsa p
Ġsome what
NO W
m ip
Ġê²½ ìļ°
fs ys
Ġtra iling
Ġtexture Shape
IT A
Ġaf for
Ġc pp
Ġalpha Usage
} !
ĠtextureFormat Set
it ue
ĠmaxTextureSize Set
ĠcompressionQuality Set
ç½ ²
Ġwi ki
Ġc losure
Ġcapa bility
Request Mapping
Ġindus trial
off line
Balance r
Ġh ik
DECL ARE
ĠDefaultTexture Platform
ji ra
Ġassert False
H DR
Ġemotion al
s ell
ASCI I
=" %
Ġsub str
From String
Ch allenge
TIM ER
Ġ$ ("
Ġarch itect
[ #
9 20
ec c
ĠE sta
POS IT
rt hy
9 48
Fa vorite
ĠMe mo
CR T
D V
m z
p uppet
Ġed itorial
C AM
U NA
EX TRA
Ġage ncies
ĠJo e
alle n
He art
Ð¸ ÑĢÐ¾Ð²
key frames
sc ipy
Ġ1 64
Ġ1 59
ĠN eg
Ġd it
Ġspe ll
Ġtime zone
ĠM art
CE LL
r epair
)) ),
éģ İ
Calle r
Identity Model
ä¸ĭ è½½
Ġin fer
Ġlight s
Capa bility
Ġ1 42
ĠE nume
Ġinves tors
ĠN ET
Ins pector
09 4
Ġli ability
Fores t
ëŀ ĺ
Ġartifact s
é© ¬
pot e
ĠCO OKIE
ĉĉĉĉĉĠĠĠĠ Ġ
use package
Ġcrea tor
Ġì »
State Exception
co ffee
Ġ1 56
emp hasis
ÏĦ Î¿
Ġp name
Pri vacy
SHARE D
à® ¯
[...]
