{
  "version": "1.0",
  "truncation": null,
  "padding": null,
  "added_tokens": [
    {
      "id": 0,
      "content": "<|endoftext|>",
      "single_word": false,
      "lstrip": false,
      "rstrip": false,
      "normalized": true,
      "special": true
    },
    {
      "id": 1,
      "content": "<fim_prefix>",
      "single_word": false,
      "lstrip": false,
      "rstrip": false,
      "normalized": false,
      "special": true
    },
    {
      "id": 2,
      "content": "<fim_middle>",
      "single_word": false,
      "lstrip": false,
      "rstrip": false,
      "normalized": false,
      "special": true
    },
    {
      "id": 3,
      "content": "<fim_suffix>",
      "single_word": false,
      "lstrip": false,
      "rstrip": false,
      "normalized": false,
      "special": true
    },
    {
      "id": 4,
      "content": "<fim_pad>",
      "single_word": false,
      "lstrip": false,
      "rstrip": false,
      "normalized": false,
      "special": true
    },
    {
      "id": 5,
      "content": "<filename>",
      "single_word": false,
      "lstrip": false,
      "rstrip": false,
      "normalized": false,
      "special": true
    },
    {
      "id": 6,
      "content": "<gh_stars>",
      "single_word": false,
      "lstrip": false,
      "rstrip": false,
      "normalized": false,
      "special": true
    },
    {
      "id": 7,
      "content": "<issue_start>",
      "single_word": false,
      "lstrip": false,
      "rstrip": false,
      "normalized": false,
      "special": true
    },
    {
      "id": 8,
      "content": "<issue_comment>",
      "single_word": false,
      "lstrip": false,
      "rstrip": false,
      "normalized": false,
      "special": true
    },
    {
      "id": 9,
      "content": "<issue_closed>",
      "single_word": false,
      "lstrip": false,
      "rstrip": false,
      "normalized": false,
      "special": true
    },
    {
      "id": 10,
      "content": "<jupyter_start>",
      "single_word": false,
      "lstrip": false,
      "rstrip": false,
      "normalized": false,
      "special": true
    },
    {
      "id": 11,
      "content": "<jupyter_text>",
      "single_word": false,
      "lstrip": false,
      "rstrip": false,
      "normalized": false,
      "special": true
    },
    {
      "id": 12,
      "content": "<jupyter_code>",
      "single_word": false,
      "lstrip": false,
      "rstrip": false,
      "normalized": false,
      "special": true
    },
    {
      "id": 13,
      "content": "<jupyter_output>",
      "single_word": false,
      "lstrip": false,
      "rstrip": false,
      "normalized": false,
      "special": true
    },
    {
      "id": 14,
      "content": "<empty_output>",
      "single_word": false,
      "lstrip": false,
      "rstrip": false,
      "normalized": false,
      "special": true
    },
    {
      "id": 15,
      "content": "<commit_before>",
      "single_word": false,
      "lstrip": false,
      "rstrip": false,
      "normalized": false,
      "special": true
    },
    {
      "id": 16,
      "content": "<commit_msg>",
      "single_word": false,
      "lstrip": false,
      "rstrip": false,
      "normalized": false,
      "special": true
    },
    {
      "id": 17,
      "content": "<commit_after>",
      "single_word": false,
      "lstrip": false,
      "rstrip": false,
      "normalized": false,
      "special": true
    },
    {
      "id": 18,
      "content": "<reponame>",
      "single_word": false,
      "lstrip": false,
      "rstrip": false,
      "normalized": false,
      "special": true
    },
    {
      "id": 19,
      "content": "<system>",
      "single_word": false,
      "lstrip": false,
      "rstrip": false,
      "normalized": false,
      "special": true
    },
    {
      "id": 20,
      "content": "</system>",
      "single_word": false,
      "lstrip": false,
      "rstrip": false,
      "normalized": false,
      "special": true
    },
    {
      "id": 21,
      "content": "<user>",
      "single_word": false,
      "lstrip": false,
      "rstrip": false,
      "normalized": false,
      "special": true
    },
    {
      "id": 22,
      "content": "</user>",
      "single_word": false,
      "lstrip": false,
      "rstrip": false,
      "normalized": false,
      "special": true
    },
    {
      "id": 23,
      "content": "<assistant>",
      "single_word": false,
      "lstrip": false,
      "rstrip": false,
      "normalized": false,
      "special": true
    },
    {
      "id": 24,
      "content": "</assistant>",
      "single_word": false,
      "lstrip": false,
      "rstrip": false,
      "normalized": false,
      "special": true
    },
    {
      "id": 25,
      "content": "<think>",
      "single_word": false,
      "lstrip": false,
      "rstrip": false,
      "normalized": false,
      "special": true
    },
    {
      "id": 26,
      "content": "</think>",
      "single_word": false,
      "lstrip": false,
      "rstrip": false,
      "normalized": false,
      "special": true
    }
  ],
  "normalizer": null,
  "pre_tokenizer": {
    "type": "ByteLevel",
    "add_prefix_space": false,
    "trim_offsets": true,
    "use_regex": true
  },
  "post_processor": {
    "type": "ByteLevel",
    "add_prefix_space": true,
    "trim_offsets": false,
    "use_regex": true
  },
  "decoder": {
    "type": "ByteLevel",
    "add_prefix_space": true,
    "trim_offsets": true,
    "use_regex": true
  },
  "model": {
    "type": "BPE",
    "dropout": null,
    "unk_token": null,
    "continuing_subword_prefix": "",
    "end_of_word_suffix": "",
    "fuse_unk": false,
    "byte_fallback": false,
    "ignore_merges": false,
    "vocab": {
      "<|endoftext|>": 0,
      "<fim_prefix>": 1,
      "<fim_middle>": 2,
      "<fim_suffix>": 3,
      "<fim_pad>": 4,
      "<filename>": 5,
      "<gh_stars>": 6,
      "<issue_start>": 7,
      "<issue_comment>": 8,
      "<issue_closed>": 9,
      "<jupyter_start>": 10,
      "<jupyter_text>": 11,
      "<jupyter_code>": 12,
      "<jupyter_output>": 13,
      "<empty_output>": 14,
      "<commit_before>": 15,
      "<commit_msg>": 16,
      "<commit_after>": 17,
      "<reponame>": 18,
      "<system>": 19,
      "</system>": 20,
      "<user>": 21,
      "</user>": 22,
      "<assistant>": 23,
      "</assistant>": 24,
      "<think>": 25,
      "</think>": 26,
      "!": 27,
      "\"": 28,
      "#": 29,
      "$": 30,
      "%": 31,
      "&": 32,
      "'": 33,
      "(": 34,
      ")": 35,
      "*": 36,
      "+": 37,
      ",": 38,
      "-": 39,
      ".": 40,
      "/": 41,
      "0": 42,
      "1": 43,
      "2": 44,
      "3": 45,
      "4": 46,
      "5": 47,
      "6": 48,
      "7": 49,
      "8": 50,
      "9": 51,
      ":": 52,
      ";": 53,
      "<": 54,
      "=": 55,
      ">": 56,
      "?": 57,
      "@": 58,
      "A": 59,
      "B": 60,
      "C": 61,
      "D": 62,
      "E": 63,
      "F": 64,
      "G": 65,
      "H": 66,
      "I": 67,
      "J": 68,
      "K": 69,
      "L": 70,
      "M": 71,
      "N": 72,
      "O": 73,
      "P": 74,
      "Q": 75,
      "R": 76,
      "S": 77,
      "T": 78,
      "U": 79,
      "V": 80,
      "W": 81,
      "X": 82,
      "Y": 83,
      "Z": 84,
      "[": 85,
      "\\": 86,
      "]": 87,
      "^": 88,
      "_": 89,
      "`": 90,
      "a": 91,
      "b": 92,
      "c": 93,
      "d": 94,
      "e": 95,
      "f": 96,
      "g": 97,
      "h": 98,
      "i": 99,
      "j": 100,
      "k": 101,
      "l": 102,
      "m": 103,
      "n": 104,
      "o": 105,
      "p": 106,
      "q": 107,
      "r": 108,
      "s": 109,
      "t": 110,
      "u": 111,
      "v": 112,
      "w": 113,
      "x": 114,
      "y": 115,
      "z": 116,
      "{": 117,
      "|": 118,
      "}": 119,
      "~": 120,
      "¡": 121,
      "¢": 122,
      "£": 123,
      "¤": 124,
      "¥": 125,
      "¦": 126,
      "§": 127,
      "¨": 128,
      "©": 129,
      "ª": 130,
      "«": 131,
      "¬": 132,
      "®": 133,
      "¯": 134,
      "°": 135,
      "±": 136,
      "²": 137,
      "³": 138,
      "´": 139,
      "µ": 140,
      "¶": 141,
      "·": 142,
      "¸": 143,
      "¹": 144,
      "º": 145,
      "»": 146,
      "¼": 147,
      "½": 148,
      "¾": 149,
      "¿": 150,
      "À": 151,
      "Á": 152,
      "Â": 153,
      "Ã": 154,
      "Ä": 155,
      "Å": 156,
      "Æ": 157,
      "Ç": 158,
      "È": 159,
      "É": 160,
      "Ê": 161,
      "Ë": 162,
      "Ì": 163,
      "Í": 164,
      "Î": 165,
      "Ï": 166,
      "Ð": 167,
      "Ñ": 168,
      "Ò": 169,
      "Ó": 170,
      "Ô": 171,
      "Õ": 172,
      "Ö": 173,
      "×": 174,
      "Ø": 175,
      "Ù": 176,
      "Ú": 177,
      "Û": 178,
      "Ü": 179,
      "Ý": 180,
      "Þ": 181,
      "ß": 182,
      "à": 183,
      "á": 184,
      "â": 185,
      "ã": 186,
      "ä": 187,
      "å": 188,
      "æ": 189,
      "ç": 190,
      "è": 191,
      "é": 192,
      "ê": 193,
      "ë": 194,
      "ì": 195,
      "í": 196,
      "î": 197,
      "ï": 198,
      "ð": 199,
      "ñ": 200,
      "ò": 201,
      "ó": 202,
      "ô": 203,
      "õ": 204,
      "ö": 205,
      "÷": 206,
      "ø": 207,
      "ù": 208,
      "ú": 209,
      "û": 210,
      "ü": 211,
      "ý": 212,
      "þ": 213,
      "ÿ": 214,
      "Ā": 215,
      "ā": 216,
      "Ă": 217,
      "ă": 218,
      "Ą": 219,
      "ą": 220,
      "Ć": 221,
      "ć": 222,
      "Ĉ": 223,
      "ĉ": 224,
      "Ċ": 225,
      "ċ": 226,
      "Č": 227,
      "č": 228,
      "Ď": 229,
      "ď": 230,
      "Đ": 231,
      "đ": 232,
      "Ē": 233,
      "ē": 234,
      "Ĕ": 235,
      "ĕ": 236,
      "Ė": 237,
      "ė": 238,
      "Ę": 239,
      "ę": 240,
      "Ě": 241,
      "ě": 242,
      "Ĝ": 243,
      "ĝ": 244,
      "Ğ": 245,
      "ğ": 246,
      "Ġ": 247,
      "ġ": 248,
      "Ģ": 249,
      "ģ": 250,
      "Ĥ": 251,
      "ĥ": 252,
      "Ħ": 253,
      "ħ": 254,
      "Ĩ": 255,
      "ĩ": 256,
      "Ī": 257,
      "ī": 258,
      "Ĭ": 259,
      "ĭ": 260,
      "Į": 261,
      "į": 262,
      "İ": 263,
      "ı": 264,
      "Ĳ": 265,
      "ĳ": 266,
      "Ĵ": 267,
      "ĵ": 268,
      "Ķ": 269,
      "ķ": 270,
      "ĸ": 271,
      "Ĺ": 272,
      "ĺ": 273,
      "Ļ": 274,
      "ļ": 275,
      "Ľ": 276,
      "ľ": 277,
      "Ŀ": 278,
      "ŀ": 279,
      "Ł": 280,
      "ł": 281,
      "Ń": 282,
      "Ġa": 283,
      "de": 284,
      "he": 285,
      "me": 286,
      "ar": 287,
      "al": 288,
      "io": 289,
      "Ġi": 290,
      "co": 291,
      "Ġs": 292,
      "ng": 293,
      "ion": 294,
      "ro": 295,
      "et": 296,
      "it": 297,
      "to": 298,
      "=\"": 299,
      "nd": 300,
      "ri": 301,
      "ta": 302,
      "Ġ<": 303,
      "is": 304,
      "ne": 305,
      "Ġ=": 306,
      "Ġo": 307,
      "ce": 308,
      "tion": 309,
      "the": 310,
      "as": 311,
      "pe": 312,
      "Ġf": 313,
      "--": 314,
      "ur": 315,
      "ve": 316,
      "ĉĉ": 317,
      "ra": 318,
      "Ġp": 319,
      "Ġthe": 320,
      "ed": 321,
      "il": 322,
      "li": 323,
      "ns": 324,
      "lo": 325,
      "Ġc": 326,
      "Ġ\"": 327,
      "Ġw": 328,
      "ma": 329,
      "ut": 330,
      "Ġb": 331,
      "el": 332,
      "ing": 333,
      "čĊ": 334,
      "Ġr": 335,
      "00": 336,
      "na": 337,
      ");": 338,
      "Ġ{": 339,
      "us": 340,
      "Ġ(": 341,
      "ct": 342,
      "ue": 343,
      "id": 344,
      "mp": 345,
      "ge": 346,
      "la": 347,
      "</": 348,
      "//": 349,
      "Ġe": 350,
      "Ġin": 351,
      "Ġco": 352,
      "rt": 353,
      "un": 354,
      "ul": 355,
      "Ġd": 356,
      "ss": 357,
      "ha": 358,
      "Co": 359,
      "Ġto": 360,
      "ea": 361,
      "tr": 362,
      "ho": 363,
      "ic": 364,
      "no": 365,
      "rs": 366,
      "Ġ}": 367,
      "**": 368,
      "Ġ0": 369,
      "mo": 370,
      "ĠS": 371,
      "Ġ*": 372,
      "tri": 373,
      "ck": 374,
      "ig": 375,
      "----": 376,
      "Ġv": 377,
      "ht": 378,
      "Ġof": 379,
      "name": 380,
      "Ġ1": 381,
      "Ġ'": 382,
      "ex": 383,
      "\",": 384,
      "Ġre": 385,
      "po": 386,
      "men": 387,
      "Ġand": 388,
      "ass": 389,
      "bl": 390,
      "ĠI": 391,
      "em": 392,
      "\">": 393,
      "ch": 394,
      "pa": 395,
      "ĠT": 396,
      "ke": 397,
      "ype": 398,
      "Ġfo": 399,
      "fo": 400,
      "20": 401,
      "ĠA": 402,
      "()": 403,
      "==": 404,
      "Ġde": 405,
      "ts": 406,
      "his": 407,
      "ub": 408,
      "ction": 409,
      "ie": 410,
      "get": 411,
      "ect": 412,
      "Ġ-": 413,
      "Re": 414,
      "ir": 415,
      "if": 416,
      "ile": 417,
      "ata": 418,
      "um": 419,
      "ad": 420,
      "lass": 421,
      "Ġfor": 422,
      "der": 423,
      "up": 424,
      "ol": 425,
      "tring": 426,
      "Ġ$": 427,
      "ble": 428,
      "/>": 429,
      "ment": 430,
      "etur": 431,
      "Ġis": 432,
      "this": 433,
      "Ġm": 434,
      "alue": 435,
      "ation": 436,
      "Ġy": 437,
      "ĠP": 438,
      "ame": 439,
      "use": 440,
      "tor": 441,
      "',": 442,
      "Ġ</": 443,
      "ĠC": 444,
      "nce": 445,
      "so": 446,
      "ext": 447,
      "eturn": 448,
      "ist": 449,
      "tat": 450,
      "iz": 451,
      "ms": 452,
      "ef": 453,
      "ver": 454,
      "::": 455,
      "Ġl": 456,
      "Ġbe": 457,
      "be": 458,
      "rea": 459,
      "ith": 460,
      "Ġ[": 461,
      "ĠM": 462,
      "mpo": 463,
      "Ġg": 464,
      "ll": 465,
      "##": 466,
      "for": 467,
      "lic": 468,
      "con": 469,
      "type": 470,
      "age": 471,
      "bo": 472,
      "In": 473,
      "all": 474,
      "Ġno": 475,
      "Ġif": 476,
      "->": 477,
      "ĉĉĉĉ": 478,
      "di": 479,
      "ĠD": 480,
      "ĠL": 481,
      "ĠN": 482,
      "pp": 483,
      "Ġn": 484,
      "art": 485,
      "ee": 486,
      "tra": 487,
      "--------": 488,
      "com": 489,
      "ys": 490,
      "ption": 491,
      "nc": 492,
      "ĠĊ": 493,
      "ou": 494,
      "ase": 495,
      "ine": 496,
      "ec": 497,
      "hat": 498,
      "vi": 499,
      "Ġ2": 500,
      "Ġma": 501,
      "..": 502,
      "))": 503,
      "ure": 504,
      "qu": 505,
      "Con": 506,
      "ess": 507,
      "ity": 508,
      "tp": 509,
      "ime": 510,
      "Ġclass": 511,
      "âĢ": 512,
      "ĠF": 513,
      "10": 514,
      "ult": 515,
      "sc": 516,
      "Ġname": 517,
      "ot": 518,
      "Ġh": 519,
      "Ġthis": 520,
      "Ġ//": 521,
      "Ġne": 522,
      "Ġpro": 523,
      "ject": 524,
      "ĠB": 525,
      "Ġex": 526,
      "que": 527,
      "tem": 528,
      "****": 529,
      "va": 530,
      "rom": 531,
      "ĠE": 532,
      "(\"": 533,
      "rg": 534,
      "ff": 535,
      "Ġ:": 536,
      "ive": 537,
      "ly": 538,
      "da": 539,
      "text": 540,
      "ize": 541,
      "Ġmo": 542,
      "pro": 543,
      "Ġcon": 544,
      "Ġreturn": 545,
      "ara": 546,
      "http": 547,
      "ers": 548,
      "('": 549,
      "nst": 550,
      "lu": 551,
      "ite": 552,
      "12": 553,
      "set": 554,
      "ow": 555,
      "\":": 556,
      "Ġon": 557,
      "====": 558,
      "elf": 559,
      "oc": 560,
      "mport": 561,
      "Ġ+": 562,
      "ĠO": 563,
      "://": 564,
      "that": 565,
      "__": 566,
      "fa": 567,
      "als": 568,
      "Ġthat": 569,
      "Ġlo": 570,
      "Ġse": 571,
      "ublic": 572,
      "),": 573,
      "Name": 574,
      "che": 575,
      "\"/>": 576,
      "Ġst": 577,
      "Ġme": 578,
      "per": 579,
      "11": 580,
      "ted": 581,
      "ry": 582,
      "Ġ@": 583,
      "ĠG": 584,
      "put": 585,
      "nk": 586,
      "ber": 587,
      "os": 588,
      "ĠW": 589,
      "Ġ|": 590,
      "IN": 591,
      "33": 592,
      "ca": 593,
      "();": 594,
      "Ġwith": 595,
      "ia": 596,
      "ill": 597,
      "ind": 598,
      "ref": 599,
      "unt": 600,
      "Ġan": 601,
      "mpl": 602,
      "msg": 603,
      "wo": 604,
      "Ġli": 605,
      "ven": 606,
      "ĠR": 607,
      "eg": 608,
      "Ġas": 609,
      "pt": 610,
      "str": 611,
      "nse": 612,
      "ER": 613,
      "Ġar": 614,
      "16": 615,
      "ĠH": 616,
      "ight": 617,
      "urce": 618,
      "Type": 619,
      "Ġint": 620,
      "Ġca": 621,
      "Ma": 622,
      "ãģ": 623,
      "19": 624,
      "ary": 625,
      "ack": 626,
      "lay": 627,
      "0000": 628,
      "32": 629,
      "ute": 630,
      "rro": 631,
      "ml": 632,
      "Ġhe": 633,
      "Ġx": 634,
      "end": 635,
      "unction": 636,
      "Pro": 637,
      "data": 638,
      "ĉĉĉ": 639,
      "user": 640,
      "Ġvalue": 641,
      "Ġ/>": 642,
      "15": 643,
      "dd": 644,
      "pr": 645,
      "Ġso": 646,
      "div": 647,
      ").": 648,
      "ON": 649,
      "Ġit": 650,
      "ĠV": 651,
      "gi": 652,
      "import": 653,
      "Ġnot": 654,
      "port": 655,
      "iew": 656,
      "Ġ#": 657,
      "Ġor": 658,
      "ull": 659,
      "Ġnew": 660,
      "Ġwe": 661,
      "are": 662,
      "lat": 663,
      "td": 664,
      "Ġha": 665,
      "tro": 666,
      "del": 667,
      "Id": 668,
      "Ġ&": 669,
      "ĠU": 670,
      "Ġfrom": 671,
      "im": 672,
      "ast": 673,
      "nal": 674,
      "spa": 675,
      "Mo": 676,
      "rd": 677,
      "Ġid": 678,
      "mat": 679,
      "fig": 680,
      "ay": 681,
      "bject": 682,
      "ition": 683,
      "nde": 684,
      "Ġ.": 685,
      "Ġ`": 686,
      "14": 687,
      "Ġj": 688,
      "Ġdo": 689,
      "Ġ3": 690,
      "Ġyou": 691,
      "rk": 692,
      "tate": 693,
      "Ex": 694,
      "bu": 695,
      "18": 696,
      "and": 697,
      "rror": 698,
      "out": 699,
      "vice": 700,
      "13": 701,
      "Ġ=>": 702,
      "Ġ/": 703,
      "ystem": 704,
      "string": 705,
      "Ġres": 706,
      "25": 707,
      "nge": 708,
      "Ġtype": 709,
      "ĠCo": 710,
      "><": 711,
      "fe": 712,
      "time": 713,
      "ard": 714,
      "scri": 715,
      "ty": 716,
      "cess": 717,
      "ting": 718,
      "17": 719,
      "To": 720,
      "ip": 721,
      "ĠĠĊ": 722,
      "alse": 723,
      "64": 724,
      "file": 725,
      "ĠThe": 726,
      "und": 727,
      "99": 728,
      "ph": 729,
      "ies": 730,
      "Ġpublic": 731,
      "Ġby": 732,
      "Se": 733,
      "rc": 734,
      "mi": 735,
      "RE": 736,
      "Ġat": 737,
      "fi": 738,
      "key": 739,
      "ques": 740,
      "https": 741,
      "ft": 742,
      "ule": 743,
      "oo": 744,
      "Ġtr": 745,
      "AT": 746,
      "lude": 747,
      "Ġare": 748,
      "line": 749,
      "oid": 750,
      "py": 751,
      "``": 752,
      "low": 753,
      "Ġ*/": 754,
      "Ġel": 755,
      "ww": 756,
      "pos": 757,
      "ac": 758,
      "ild": 759,
      "ST": 760,
      "Ġfi": 761,
      "tho": 762,
      "reat": 763,
      "ght": 764,
      "eld": 765,
      "row": 766,
      "22": 767,
      "Ġal": 768,
      "rr": 769,
      "nts": 770,
      "\",\"": 771,
      "source": 772,
      "],": 773,
      "para": 774,
      "Ġ4": 775,
      "ps": 776,
      "roup": 777,
      "ĠÐ": 778,
      "Ġget": 779,
      "iss": 780,
      "----------------": 781,
      "mple": 782,
      "bs": 783,
      "ä¸": 784,
      "ME": 785,
      "Ġk": 786,
      "ear": 787,
      "ID": 788,
      "pert": 789,
      "lor": 790,
      "De": 791,
      "Ġwo": 792,
      "ice": 793,
      "ger": 794,
      "Ġself": 795,
      "ide": 796,
      "********": 797,
      ",,": 798,
      "ial": 799,
      "Ġ20": 800,
      "vers": 801,
      "Ġun": 802,
      "String": 803,
      "Data": 804,
      "Ġ==": 805,
      "ert": 806,
      "code": 807,
      "NA": 808,
      "Ġ\\": 809,
      "50": 810,
      "gin": 811,
      "pi": 812,
      "ray": 813,
      "Ġ_": 814,
      "pri": 815,
      "mage": 816,
      "âĢĻ": 817,
      "ĠIn": 818,
      "\")": 819,
      "ĠRe": 820,
      "Ġdata": 821,
      "able": 822,
      "add": 823,
      "No": 824,
      "ï¼": 825,
      "ection": 826,
      "her": 827,
      "log": 828,
      "uct": 829,
      "rvice": 830,
      "dat": 831,
      "ther": 832,
      "our": 833,
      "Ð¾": 834,
      "ars": 835,
      "bel": 836,
      "Ġ!": 837,
      "uld": 838,
      "40": 839,
      "rm": 840,
      "val": 841,
      "Ġfunction": 842,
      "pat": 843,
      "itl": 844,
      "reate": 845,
      "####": 846,
      "ãĤ": 847,
      "000": 848,
      "Ġta": 849,
      "Ġ%": 850,
      "Ġcom": 851,
      "')": 852,
      "vent": 853,
      "Ġpri": 854,
      "itle": 855,
      "Ġset": 856,
      "30": 857,
      "idt": 858,
      "ree": 859,
      "OR": 860,
      "ust": 861,
      "Ġu": 862,
      "Ġen": 863,
      "idth": 864,
      "late": 865,
      "value": 866,
      "Ġcan": 867,
      "trans": 868,
      "Ð°": 869,
      "Ġbo": 870,
      "return": 871,
      "AR": 872,
      "emp": 873,
      "cal": 874,
      "ning": 875,
      "ãĥ": 876,
      "form": 877,
      "========": 878,
      "LE": 879,
      "tation": 880,
      "quest": 881,
      "Ġconst": 882,
      "lie": 883,
      "24": 884,
      "date": 885,
      "Ġho": 886,
      "trib": 887,
      "Ðµ": 888,
      "Fo": 889,
      "Ġpo": 890,
      "):": 891,
      "span": 892,
      "21": 893,
      "80": 894,
      "org": 895,
      "ress": 896,
      "ĠJ": 897,
      "></": 898,
      "nsta": 899,
      "we": 900,
      "dy": 901,
      "Ġus": 902,
      "ner": 903,
      "def": 904,
      "nat": 905,
      "Ġout": 906,
      "AL": 907,
      "ep": 908,
      "br": 909,
      "pec": 910,
      "IT": 911,
      "SE": 912,
      "tar": 913,
      "do": 914,
      "Ġfile": 915,
      "ence": 916,
      "34": 917,
      "Ġla": 918,
      "['": 919,
      "ire": 920,
      "Pa": 921,
      "Ġ\"\"": 922,
      "tatic": 923,
      "Ġvar": 924,
      "class": 925,
      "à¤": 926,
      "ny": 927,
      "gra": 928,
      "66": 929,
      "ration": 930,
      "cl": 931,
      "List": 932,
      "perty": 933,
      "Ġ--": 934,
      "umber": 935,
      "Ġdis": 936,
      "Value": 937,
      "ava": 938,
      "Ġ5": 939,
      "dule": 940,
      "mit": 941,
      "](": 942,
      "27": 943,
      "ãĢ": 944,
      "fer": 945,
      "param": 946,
      "////": 947,
      "ĠĠĠĊ": 948,
      "nclude": 949,
      "lock": 950,
      "try": 951,
      "version": 952,
      "nu": 953,
      "urr": 954,
      "EN": 955,
      "gs": 956,
      "net": 957,
      "ark": 958,
      "']": 959,
      "Ġhave": 960,
      "Res": 961,
      "Ġwh": 962,
      "($": 963,
      "vat": 964,
      "60": 965,
      "28": 966,
      "act": 967,
      "min": 968,
      "ments": 969,
      "den": 970,
      "},": 971,
      "nit": 972,
      "Ġsho": 973,
      "ement": 974,
      "\");": 975,
      "iv": 976,
      "msgstr": 977,
      "msgid": 978,
      "37": 979,
      "html": 980,
      "px": 981,
      "wa": 982,
      "self": 983,
      "ĠĠĠĠĊ": 984,
      "size": 985,
      "work": 986,
      "Ġstring": 987,
      "Ġwill": 988,
      "ok": 989,
      "Ġch": 990,
      "55": 991,
      "Ġuse": 992,
      "ersion": 993,
      "son": 994,
      "DE": 995,
      "Int": 996,
      "\";": 997,
      "title": 998,
      "Ġpr": 999,
      "CT": 1000,
      "ba": 1001,
      "url": 1002,
      "The": 1003,
      "Ġra": 1004,
      "ton": 1005,
      "sp": 1006,
      "tory": 1007,
      "sh": 1008,
      "Ġtime": 1009,
      "go": 1010,
      "rame": 1011,
      "../": 1012,
      "ÑĤ": 1013,
      "Ġpa": 1014,
      "tatus": 1015,
      "path": 1016,
      "right": 1017,
      "Ġ>": 1018,
      "ey": 1019,
      "#:": 1020,
      "Ġnull": 1021,
      "Ð¸": 1022,
      "tart": 1023,
      "vate": 1024,
      "eng": 1025,
      "cen": 1026,
      "Ġyour": 1027,
      "Ġels": 1028,
      "hen": 1029,
      "ded": 1030,
      "29": 1031,
      "à¸": 1032,
      "urre": 1033,
      "Ġend": 1034,
      "Ġelse": 1035,
      "item": 1036,
      "scription": 1037,
      "app": 1038,
      "tribute": 1039,
      "Ġvoid": 1040,
      "38": 1041,
      "rite": 1042,
      "ash": 1043,
      "lien": 1044,
      "ception": 1045,
      "45": 1046,
      "35": 1047,
      "Ġup": 1048,
      "ug": 1049,
      "39": 1050,
      "Ġwas": 1051,
      "Ġtrue": 1052,
      "Ass": 1053,
      "lient": 1054,
      "ni": 1055,
      "Ġ)": 1056,
      "fault": 1057,
      "Ġapp": 1058,
      "Ġ},": 1059,
      "ponse": 1060,
      "ld": 1061,
      "Set": 1062,
      "eri": 1063,
      "ew": 1064,
      "Te": 1065,
      "mary": 1066,
      "Ġhref": 1067,
      "rst": 1068,
      "ell": 1069,
      "Ġass": 1070,
      "rder": 1071,
      "Lo": 1072,
      "ĠK": 1073,
      "26": 1074,
      "roid": 1075,
      "view": 1076,
      "ual": 1077,
      "han": 1078,
      "ead": 1079,
      "48": 1080,
      "uc": 1081,
      "ilt": 1082,
      "ï¼Į": 1083,
      "var": 1084,
      "Ġall": 1085,
      "uto": 1086,
      "ample": 1087,
      "UL": 1088,
      "ally": 1089,
      "tch": 1090,
      "one": 1091,
      "01": 1092,
      "Ġdef": 1093,
      "ud": 1094,
      "ken": 1095,
      "05": 1096,
      "Ġinte": 1097,
      "RO": 1098,
      "ete": 1099,
      "çļ": 1100,
      "ito": 1101,
      "AN": 1102,
      "Us": 1103,
      "Po": 1104,
      "ign": 1105,
      "col": 1106,
      "Ġro": 1107,
      "pect": 1108,
      "eam": 1109,
      "count": 1110,
      "çļĦ": 1111,
      "For": 1112,
      "04": 1113,
      "link": 1114,
      "ppe": 1115,
      "75": 1116,
      "cc": 1117,
      "Version": 1118,
      "ix": 1119,
      "urren": 1120,
      "yt": 1121,
      "list": 1122,
      "urrent": 1123,
      "68": 1124,
      "not": 1125,
      "System": 1126,
      "arame": 1127,
      "target": 1128,
      "Ð½": 1129,
      "mpone": 1130,
      "new": 1131,
      "mand": 1132,
      "tom": 1133,
      "Ġfalse": 1134,
      "js": 1135,
      "load": 1136,
      "back": 1137,
      "md": 1138,
      "play": 1139,
      "table": 1140,
      "ific": 1141,
      "xt": 1142,
      "aramet": 1143,
      "Ġfa": 1144,
      "tyl": 1145,
      "engt": 1146,
      "ength": 1147,
      "En": 1148,
      "ich": 1149,
      "nstance": 1150,
      "'s": 1151,
      "loa": 1152,
      "ker": 1153,
      "tt": 1154,
      "bly": 1155,
      "sum": 1156,
      "cor": 1157,
      "elect": 1158,
      "pen": 1159,
      "eve": 1160,
      "xs": 1161,
      "Ġstr": 1162,
      "SS": 1163,
      "Text": 1164,
      "rat": 1165,
      "tal": 1166,
      "View": 1167,
      "ĠâĢ": 1168,
      "Ġadd": 1169,
      "File": 1170,
      "issue": 1171,
      "pl": 1172,
      "='": 1173,
      "base": 1174,
      "];": 1175,
      "ssage": 1176,
      "des": 1177,
      "Ġ///": 1178,
      "67": 1179,
      "hange": 1180,
      "Object": 1181,
      "65": 1182,
      "rver": 1183,
      "tyle": 1184,
      "49": 1185,
      "red": 1186,
      "username": 1187,
      "');": 1188,
      "dex": 1189,
      "own": 1190,
      "ument": 1191,
      "indow": 1192,
      "Item": 1193,
      "Config": 1194,
      "Ġ!=": 1195,
      "include": 1196,
      "temp": 1197,
      "ga": 1198,
      "ils": 1199,
      "top": 1200,
      "read": 1201,
      "Ġhas": 1202,
      "utton": 1203,
      "ean": 1204,
      "nder": 1205,
      "www": 1206,
      "sta": 1207,
      "Bu": 1208,
      "Ġcomp": 1209,
      "Ð¾Ð": 1210,
      "));": 1211,
      "Ġbu": 1212,
      "ession": 1213,
      "nel": 1214,
      "ÑĢ": 1215,
      "ets": 1216,
      "Time": 1217,
      "Ġz": 1218,
      "public": 1219,
      "cent": 1220,
      "ithub": 1221,
      "FF": 1222,
      "sho": 1223,
      "lace": 1224,
      "uration": 1225,
      "inde": 1226,
      "hi": 1227,
      "Ġper": 1228,
      "23": 1229,
      "UT": 1230,
      "Ġpe": 1231,
      "mation": 1232,
      "word": 1233,
      "Ġsrc": 1234,
      "ui": 1235,
      "sub": 1236,
      "IC": 1237,
      "Ġ10": 1238,
      "Ġac": 1239,
      "lt": 1240,
      "';": 1241,
      ".</": 1242,
      "Info": 1243,
      "At": 1244,
      "Ġdes": 1245,
      "Fi": 1246,
      "98": 1247,
      "ION": 1248,
      "Ġinc": 1249,
      "MA": 1250,
      "':": 1251,
      "ned": 1252,
      "Get": 1253,
      "ang": 1254,
      "77": 1255,
      "group": 1256,
      "Ġ8": 1257,
      "Bo": 1258,
      "eft": 1259,
      "Ñģ": 1260,
      "Error": 1261,
      "heck": 1262,
      "ptions": 1263,
      "Ca": 1264,
      "ĠY": 1265,
      "here": 1266,
      "ĠMa": 1267,
      "thod": 1268,
      "ĠString": 1269,
      "mb": 1270,
      "of": 1271,
      "gl": 1272,
      "round": 1273,
      "dis": 1274,
      "gt": 1275,
      "sk": 1276,
      "Ġsa": 1277,
      ",\"": 1278,
      "nection": 1279,
      "arse": 1280,
      "44": 1281,
      "Tes": 1282,
      "face": 1283,
      "Pat": 1284,
      "ise": 1285,
      "const": 1286,
      "github": 1287,
      "unc": 1288,
      ".\"": 1289,
      "åı": 1290,
      "embly": 1291,
      "ins": 1292,
      "08": 1293,
      "Ġstatic": 1294,
      "Ġ->": 1295,
      "Ġrel": 1296,
      ",-": 1297,
      "label": 1298,
      "doc": 1299,
      "php": 1300,
      "69": 1301,
      "lang": 1302,
      "07": 1303,
      "ical": 1304,
      "```": 1305,
      "index": 1306,
      "Path": 1307,
      "Ġsu": 1308,
      "ring": 1309,
      "pre": 1310,
      "ens": 1311,
      "OT": 1312,
      "Ã©": 1313,
      "ab": 1314,
      "config": 1315,
      "ease": 1316,
      "ron": 1317,
      "ask": 1318,
      "So": 1319,
      "().": 1320,
      "summary": 1321,
      "ilte": 1322,
      "****************": 1323,
      "Ġge": 1324,
      "los": 1325,
      "core": 1326,
      "true": 1327,
      "Ġbut": 1328,
      "ãĢĤ": 1329,
      "].": 1330,
      "eat": 1331,
      "Ġpos": 1332,
      "ob": 1333,
      "Ġkey": 1334,
      "trol": 1335,
      "Ġcase": 1336,
      "cond": 1337,
      "hing": 1338,
      "cont": 1339,
      "ĉĉĉĉĉ": 1340,
      "rie": 1341,
      "yl": 1342,
      "Ġone": 1343,
      "Ġ&&": 1344,
      "Ġ7": 1345,
      "mon": 1346,
      "Key": 1347,
      "teg": 1348,
      "ĠPro": 1349,
      "uage": 1350,
      "tity": 1351,
      "Ġda": 1352,
      "om": 1353,
      "Tra": 1354,
      "map": 1355,
      "ä»": 1356,
      "Ġprivate": 1357,
      "=\"-": 1358,
      "space": 1359,
      "Assembly": 1360,
      "State": 1361,
      "pack": 1362,
      "47": 1363,
      "Ġ?": 1364,
      "now": 1365,
      "...": 1366,
      "model": 1367,
      "Ġwhich": 1368,
      "Ġval": 1369,
      "lication": 1370,
      "sa": 1371,
      "03": 1372,
      "ilter": 1373,
      "NAME": 1374,
      "++": 1375,
      "02": 1376,
      "Ġany": 1377,
      "Ġtext": 1378,
      "09": 1379,
      "mai": 1380,
      "Ġwa": 1381,
      "eb": 1382,
      "IL": 1383,
      "start": 1384,
      "Ġcall": 1385,
      "ĠĠĠĠĠĊ": 1386,
      "ote": 1387,
      "ncy": 1388,
      "Ġinter": 1389,
      "comment": 1390,
      "define": 1391,
      "move": 1392,
      "Ġmor": 1393,
      "loat": 1394,
      "ES": 1395,
      "Ġcons": 1396,
      "Ar": 1397,
      "Inte": 1398,
      "Add": 1399,
      "evel": 1400,
      "image": 1401,
      "Ġwhen": 1402,
      "Exception": 1403,
      "man": 1404,
      "rator": 1405,
      "vert": 1406,
      "from": 1407,
      "DI": 1408,
      "nput": 1409,
      "ĠInt": 1410,
      "CO": 1411,
      "äº": 1412,
      "Test": 1413,
      "Ch": 1414,
      "input": 1415,
      "ier": 1416,
      "yte": 1417,
      "06": 1418,
      "mponen": 1419,
      "mponent": 1420,
      "200": 1421,
      "ĠĠĠĠĠĠĊ": 1422,
      "Service": 1423,
      "ics": 1424,
      "ffe": 1425,
      "Use": 1426,
      "reg": 1427,
      "void": 1428,
      "ling": 1429,
      "88": 1430,
      "ized": 1431,
      "ference": 1432,
      "ale": 1433,
      "laye": 1434,
      "ired": 1435,
      "ET": 1436,
      "Ġabo": 1437,
      "AD": 1438,
      "layer": 1439,
      "\\\"": 1440,
      "Ġtrans": 1441,
      "ick": 1442,
      "Ġgo": 1443,
      "æľ": 1444,
      "db": 1445,
      "(),": 1446,
      "lle": 1447,
      "dir": 1448,
      "AC": 1449,
      "ULL": 1450,
      "Ġlet": 1451,
      "conte": 1452,
      "\"><": 1453,
      "à½": 1454,
      "Ġmore": 1455,
      "iste": 1456,
      "tore": 1457,
      "aren": 1458,
      "Ġorg": 1459,
      "UR": 1460,
      "ĠThis": 1461,
      "color": 1462,
      "Ġsub": 1463,
      "/*": 1464,
      "function": 1465,
      "Li": 1466,
      "vo": 1467,
      "width": 1468,
      "Ġrequ": 1469,
      "Ġì": 1470,
      "Da": 1471,
      "36": 1472,
      "Ġspec": 1473,
      "Ġcont": 1474,
      "Ġsome": 1475,
      "Ġwork": 1476,
      "--------------------------------": 1477,
      "cs": 1478,
      "node": 1479,
      "main": 1480,
      "Ġ6": 1481,
      "upport": 1482,
      "Ġover": 1483,
      "taine": 1484,
      "Ġ/**": 1485,
      "field": 1486,
      "])": 1487,
      "rate": 1488,
      "rid": 1489,
      "########": 1490,
      "lob": 1491,
      "Ġstyl": 1492,
      "Ġad": 1493,
      "false": 1494,
      "loc": 1495,
      "Ġ**": 1496,
      "ible": 1497,
      "Ġ:=": 1498,
      "icense": 1499,
      "Mem": 1500,
      "ution": 1501,
      "Ġ-->": 1502,
      "El": 1503,
      "PI": 1504,
      "comp": 1505,
      "ĠSystem": 1506,
      "icro": 1507,
      "ders": 1508,
      "Model": 1509,
      "\\\\": 1510,
      "NT": 1511,
      "very": 1512,
      "jo": 1513,
      "fte": 1514,
      "qual": 1515,
      "Com": 1516,
      "Ġpre": 1517,
      "95": 1518,
      "Comp": 1519,
      "lib": 1520,
      "error": 1521,
      "alt": 1522,
      "head": 1523,
      "Def": 1524,
      "essage": 1525,
      "ĠMo": 1526,
      "${": 1527,
      "pende": 1528,
      "nfo": 1529,
      "97": 1530,
      "================": 1531,
      "ync": 1532,
      "Ge": 1533,
      "ED": 1534,
      "hor": 1535,
      "dent": 1536,
      "Ġwidth": 1537,
      "Ġstyle": 1538,
      "Ø§": 1539,
      "trai": 1540,
      "bi": 1541,
      "umn": 1542,
      "IG": 1543,
      "conten": 1544,
      "Node": 1545,
      "åĪ": 1546,
      "Ġmy": 1547,
      "fore": 1548,
      "Ġother": 1549,
      "object": 1550,
      "arent": 1551,
      "mber": 1552,
      "Met": 1553,
      "og": 1554,
      "ĠĠĠĠĠĠĠĊ": 1555,
      "urs": 1556,
      "Map": 1557,
      "content": 1558,
      "Ġdefault": 1559,
      "cord": 1560,
      "poi": 1561,
      "2020": 1562,
      "ffer": 1563,
      "Ġstate": 1564,
      "ume": 1565,
      "rn": 1566,
      "Size": 1567,
      "Ġuser": 1568,
      "bug": 1569,
      "Ġbool": 1570,
      "Ġsize": 1571,
      "lation": 1572,
      "raw": 1573,
      "fter": 1574,
      "////////": 1575,
      "Ġext": 1576,
      "template": 1577,
      "Dis": 1578,
      "mail": 1579,
      "nager": 1580,
      "ved": 1581,
      "stro": 1582,
      "ĠĠĠĠĠĠĠĠĊ": 1583,
      "Code": 1584,
      "action": 1585,
      "());": 1586,
      "ze": 1587,
      "Ġnumber": 1588,
      "Group": 1589,
      "duct": 1590,
      "ility": 1591,
      "._": 1592,
      "ag": 1593,
      "\"></": 1594,
      "ndl": 1595,
      "Ġshould": 1596,
      "CH": 1597,
      "Class": 1598,
      "}}": 1599,
      "Ġ__": 1600,
      "state": 1601,
      "soft": 1602,
      "lp": 1603,
      "max": 1604,
      "its": 1605,
      "gle": 1606,
      "Ġmay": 1607,
      "âĢĿ": 1608,
      "rial": 1609,
      "cons": 1610,
      "!--": 1611,
      "info": 1612,
      "Ġ);": 1613,
      "prin": 1614,
      "La": 1615,
      "java": 1616,
      "ector": 1617,
      "ding": 1618,
      "cri": 1619,
      "App": 1620,
      "cho": 1621,
      "ions": 1622,
      "Ġerror": 1623,
      "query": 1624,
      "31": 1625,
      "rage": 1626,
      "Ġlist": 1627,
      "print": 1628,
      "Ġpat": 1629,
      "Ġline": 1630,
      "LO": 1631,
      "rows": 1632,
      "tings": 1633,
      "arg": 1634,
      "Ġresult": 1635,
      "Request": 1636,
      "Ġ});": 1637,
      "Ġpart": 1638,
      "ĠčĊ": 1639,
      "Event": 1640,
      "am": 1641,
      "sult": 1642,
      "ach": 1643,
      "arch": 1644,
      "nate": 1645,
      "57": 1646,
      "'t": 1647,
      "box": 1648,
      "Member": 1649,
      "Ġarg": 1650,
      "ole": 1651,
      "format": 1652,
      "frame": 1653,
      "du": 1654,
      "çĶ": 1655,
      "Ġstart": 1656,
      "Ġher": 1657,
      "åħ": 1658,
      "AS": 1659,
      "Context": 1660,
      "Que": 1661,
      "Ġ<<": 1662,
      "reak": 1663,
      "api": 1664,
      "Ġle": 1665,
      "User": 1666,
      "ervice": 1667,
      "100": 1668,
      "Pos": 1669,
      "option": 1670,
      "ĠEx": 1671,
      "ound": 1672,
      "Me": 1673,
      "Ġthey": 1674,
      "tego": 1675,
      "vis": 1676,
      "src": 1677,
      "Ġobject": 1678,
      "å®": 1679,
      "Message": 1680,
      "ugh": 1681,
      "PE": 1682,
      "58": 1683,
      "Ġback": 1684,
      "ouble": 1685,
      "46": 1686,
      "formation": 1687,
      "ĠDe": 1688,
      "Ġ9": 1689,
      "ations": 1690,
      "valid": 1691,
      "ian": 1692,
      "ush": 1693,
      "Ġversion": 1694,
      "ĠFo": 1695,
      "Ġandroid": 1696,
      "Ġimport": 1697,
      "Field": 1698,
      "Cont": 1699,
      "Ġcode": 1700,
      "ctor": 1701,
      "bb": 1702,
      "())": 1703,
      "Ġweight": 1704,
      "IS": 1705,
      "ĠLicense": 1706,
      "Ġ]": 1707,
      ",,,,": 1708,
      "json": 1709,
      "llection": 1710,
      "module": 1711,
      "TR": 1712,
      "ĠSo": 1713,
      "df": 1714,
      "Ġact": 1715,
      "rue": 1716,
      "ller": 1717,
      "icrosoft": 1718,
      "Ð»": 1719,
      "ING": 1720,
      "2021": 1721,
      "78": 1722,
      "igh": 1723,
      "ify": 1724,
      "aramete": 1725,
      "Ġerr": 1726,
      "arameter": 1727,
      "dia": 1728,
      "Of": 1729,
      "ica": 1730,
      "ndle": 1731,
      "AB": 1732,
      "num": 1733,
      "Str": 1734,
      "ader": 1735,
      "mer": 1736,
      "Ġcol": 1737,
      "package": 1738,
      "thon": 1739,
      "[]": 1740,
      "ien": 1741,
      "åĲ": 1742,
      "ied": 1743,
      "By": 1744,
      "((": 1745,
      "ä½": 1746,
      "aste": 1747,
      "ges": 1748,
      "Ġstd": 1749,
      "Ġreg": 1750,
      "ci": 1751,
      "Ġthen": 1752,
      "};": 1753,
      "create": 1754,
      "ql": 1755,
      "rnal": 1756,
      "ride": 1757,
      "Ġconfig": 1758,
      "Index": 1759,
      "tainer": 1760,
      "Ġfirst": 1761,
      "eature": 1762,
      "using": 1763,
      "ground": 1764,
      "ware": 1765,
      "Ġ};": 1766,
      "ric": 1767,
      "AG": 1768,
      "troller": 1769,
      "Ġmi": 1770,
      "op": 1771,
      "59": 1772,
      "Ġmake": 1773,
      "Ġabout": 1774,
      "MP": 1775,
      "llow": 1776,
      "Ġtheir": 1777,
      "err": 1778,
      "Up": 1779,
      "tai": 1780,
      "unit": 1781,
      "Out": 1782,
      "esult": 1783,
      "rit": 1784,
      "Ġonly": 1785,
      "US": 1786,
      "Ġmethod": 1787,
      "ja": 1788,
      "result": 1789,
      "[\"": 1790,
      "Ã¡": 1791,
      "Color": 1792,
      "Mode": 1793,
      "Hand": 1794,
      "itor": 1795,
      "nation": 1796,
      "property": 1797,
      "Ro": 1798,
      "Ġhis": 1799,
      "Ġ||": 1800,
      "Ġther": 1801,
      "assert": 1802,
      "ĉĠ": 1803,
      "mm": 1804,
      "ries": 1805,
      "let": 1806,
      "ackage": 1807,
      "length": 1808,
      "ĠNo": 1809,
      "Attribute": 1810,
      "Dat": 1811,
      "util": 1812,
      "init": 1813,
      "eta": 1814,
      "Ġmodel": 1815,
      "pache": 1816,
      "Ġused": 1817,
      "Dir": 1818,
      "Ġ[]": 1819,
      "Ġunder": 1820,
      "uth": 1821,
      "ĠNULL": 1822,
      "Ġtra": 1823,
      "ilder": 1824,
      "TI": 1825,
      "lick": 1826,
      "eturns": 1827,
      "Ġthere": 1828,
      "Ġwho": 1829,
      "As": 1830,
      "ily": 1831,
      "Array": 1832,
      "{{": 1833,
      "Ġsh": 1834,
      "&#": 1835,
      "rap": 1836,
      "Ġpath": 1837,
      "Ġassert": 1838,
      "Property": 1839,
      "ish": 1840,
      "Ġsta": 1841,
      "tors": 1842,
      "Ġusing": 1843,
      "42": 1844,
      "å¤": 1845,
      "Ġ,": 1846,
      "nno": 1847,
      "Conte": 1848,
      "Date": 1849,
      "Ġed": 1850,
      "connection": 1851,
      "=\"#": 1852,
      "dl": 1853,
      "Ġfinal": 1854,
      "TE": 1855,
      "my": 1856,
      "$(": 1857,
      "Ġrun": 1858,
      "els": 1859,
      "iable": 1860,
      "eader": 1861,
      "message": 1862,
      "poin": 1863,
      "Ġalso": 1864,
      "ka": 1865,
      "è¿": 1866,
      "ib": 1867,
      "Ġinto": 1868,
      "On": 1869,
      "Doc": 1870,
      "equ": 1871,
      "default": 1872,
      "style": 1873,
      "Ra": 1874,
      "export": 1875,
      "tract": 1876,
      "local": 1877,
      "Ġour": 1878,
      "Ġ/*": 1879,
      "tl": 1880,
      "Ġve": 1881,
      "3333": 1882,
      "Ġexpect": 1883,
      "PO": 1884,
      "Ġcreate": 1885,
      "\"]": 1886,
      "ified": 1887,
      "Ġlog": 1888,
      "Ġmessage": 1889,
      "ĠX": 1890,
      "Ġneed": 1891,
      "Ġcl": 1892,
      "Ġlike": 1893,
      "description": 1894,
      "ds": 1895,
      "fl": 1896,
      "æĸ": 1897,
      "ĠIf": 1898,
      "func": 1899,
      "ppend": 1900,
      "Ñĥ": 1901,
      "Ġdir": 1902,
      "ves": 1903,
      "point": 1904,
      "cript": 1905,
      "Ġdoc": 1906,
      "UN": 1907,
      "','": 1908,
      "eq": 1909,
      "Ġdest": 1910,
      "Ġnil": 1911,
      "nature": 1912,
      "si": 1913,
      "Ġpoi": 1914,
      "Ġbee": 1915,
      "ular": 1916,
      "cus": 1917,
      "ĠValue": 1918,
      "body": 1919,
      "ern": 1920,
      "56": 1921,
      "ifact": 1922,
      "uccess": 1923,
      "ults": 1924,
      "89": 1925,
      "sg": 1926,
      "earch": 1927,
      "LI": 1928,
      "gen": 1929,
      "status": 1930,
      "HE": 1931,
      "ĠIt": 1932,
      "equest": 1933,
      "79": 1934,
      "Ð°Ð": 1935,
      "Ġ;": 1936,
      "ols": 1937,
      "Pr": 1938,
      "request": 1939,
      "Ġcurrent": 1940,
      "ĠUs": 1941,
      "layout": 1942,
      "bled": 1943,
      "itial": 1944,
      "check": 1945,
      "Ġsi": 1946,
      "/**": 1947,
      "43": 1948,
      "static": 1949,
      "Ac": 1950,
      "({": 1951,
      "img": 1952,
      "hread": 1953,
      "rl": 1954,
      "Ġjava": 1955,
      "æĺ": 1956,
      "build": 1957,
      "Handl": 1958,
      "lose": 1959,
      "Ġconte": 1960,
      "gn": 1961,
      "Ġbeen": 1962,
      "={": 1963,
      "nstall": 1964,
      "Ġ()": 1965,
      "indows": 1966,
      "tive": 1967,
      "ĉĉĉĉĉĉ": 1968,
      "ML": 1969,
      "Response": 1970,
      "array": 1971,
      "part": 1972,
      "Ġcheck": 1973,
      "erver": 1974,
      "Element": 1975,
      "meta": 1976,
      "Ġarray": 1977,
      "ffset": 1978,
      "bar": 1979,
      "æĪ": 1980,
      "Ġprin": 1981,
      "Ġope": 1982,
      "lugin": 1983,
      "Loc": 1984,
      "Ġsee": 1985,
      "Ġtarget": 1986,
      "train": 1987,
      "erm": 1988,
      "nv": 1989,
      "Ġmax": 1990,
      "ernal": 1991,
      "Ġce": 1992,
      "Count": 1993,
      "tn": 1994,
      "ault": 1995,
      "CE": 1996,
      "icl": 1997,
      "Ġprovi": 1998,
      "Ġqu": 1999,
      "lot": 2000,
      "With": 2001,
      "Not": 2002,
      "ient": 2003,
      "erial": 2004,
      "Poi": 2005,
      "ĠâĢľ": 2006,
      "Trans": 2007,
      "rel": 2008,
      "cope": 2009,
      "Conten": 2010,
      "Ġfield": 2011,
      "ance": 2012,
      "gram": 2013,
      "miss": 2014,
      "aster": 2015,
      "output": 2016,
      "icle": 2017,
      "Ġ(=": 2018,
      "Log": 2019,
      "Content": 2020,
      "nable": 2021,
      "block": 2022,
      "87": 2023,
      "arameters": 2024,
      "../../": 2025,
      "Ġright": 2026,
      "Ġits": 2027,
      ";&": 2028,
      "xml": 2029,
      "event": 2030,
      "ignature": 2031,
      "aract": 2032,
      "Handle": 2033,
      "reen": 2034,
      "Client": 2035,
      "eight": 2036,
      "Ġauto": 2037,
      "Ġinput": 2038,
      "Ġmin": 2039,
      "argin": 2040,
      "00000000": 2041,
      "54": 2042,
      "Ġfon": 2043,
      "86": 2044,
      "down": 2045,
      "ization": 2046,
      "wit": 2047,
      "mod": 2048,
      "uthor": 2049,
      "char": 2050,
      "hannel": 2051,
      "ior": 2052,
      "anguage": 2053,
      "ĠTe": 2054,
      "ope": 2055,
      "cle": 2056,
      "cente": 2057,
      "ends": 2058,
      "ving": 2059,
      "png": 2060,
      "Ġwould": 2061,
      "Ġwhat": 2062,
      "ious": 2063,
      "nect": 2064,
      "lan": 2065,
      "assword": 2066,
      "Sub": 2067,
      "Ġfont": 2068,
      "od": 2069,
      "Line": 2070,
      "rmal": 2071,
      "Ġsource": 2072,
      "ĠCon": 2073,
      "Ġitem": 2074,
      "mentation": 2075,
      "lice": 2076,
      "sm": 2077,
      "Ġchar": 2078,
      "artifact": 2079,
      "zure": 2080,
      "\":\"": 2081,
      "ected": 2082,
      "Ġob": 2083,
      "lobal": 2084,
      "ities": 2085,
      "member": 2086,
      "ran": 2087,
      "script": 2088,
      "call": 2089,
      "Ġheight": 2090,
      "Is": 2091,
      "Ġcolor": 2092,
      "Pri": 2093,
      "project": 2094,
      "Ġjust": 2095,
      "ida": 2096,
      "Ġoff": 2097,
      "---": 2098,
      "à¥": 2099,
      "sts": 2100,
      "left": 2101,
      "brary": 2102,
      "###": 2103,
      "hape": 2104,
      "tegory": 2105,
      "Ġ\"\"\"": 2106,
      "Ġ(!": 2107,
      "ĠGet": 2108,
      "Ġ+=": 2109,
      "thing": 2110,
      "ap": 2111,
      "){": 2112,
      "button": 2113,
      "ists": 2114,
      "Manager": 2115,
      "igned": 2116,
      "perties": 2117,
      "service": 2118,
      "center": 2119,
      "ple": 2120,
      "è¯": 2121,
      "oogle": 2122,
      "tan": 2123,
      "than": 2124,
      "Image": 2125,
      "nnotation": 2126,
      "velo": 2127,
      "ua": 2128,
      "ki": 2129,
      "rface": 2130,
      "day": 2131,
      "Ġ12": 2132,
      "android": 2133,
      "ret": 2134,
      "AssemblyVersion": 2135,
      "Ġprint": 2136,
      "nav": 2137,
      "åľ": 2138,
      "depende": 2139,
      "Ġrequest": 2140,
      "Ġdif": 2141,
      "ĠTo": 2142,
      "ook": 2143,
      "Ġtry": 2144,
      "Input": 2145,
      "hro": 2146,
      "ared": 2147,
      "Ġfollow": 2148,
      "DO": 2149,
      "ÙĦ": 2150,
      "41": 2151,
      "ĠBo": 2152,
      "})": 2153,
      "sources": 2154,
      "Style": 2155,
      "ws": 2156,
      "args": 2157,
      "idget": 2158,
      "ĉĠĠ": 2159,
      "Ed": 2160,
      "xy": 2161,
      "Ġoutput": 2162,
      "owe": 2163,
      "page": 2164,
      "OL": 2165,
      "latform": 2166,
      "Ġë": 2167,
      "ĠWe": 2168,
      "Ġwhere": 2169,
      "aso": 2170,
      "ful": 2171,
      "mark": 2172,
      "Ġchange": 2173,
      "Cell": 2174,
      "ectory": 2175,
      "ased": 2176,
      "Ġpara": 2177,
      "90": 2178,
      "Be": 2179,
      "Over": 2180,
      "Configuration": 2181,
      "yn": 2182,
      "reated": 2183,
      "Ġindex": 2184,
      "ined": 2185,
      "70": 2186,
      "Ġthan": 2187,
      "85": 2188,
      "Status": 2189,
      "Table": 2190,
      "post": 2191,
      "ĠQ": 2192,
      "Ġimage": 2193,
      "ìĿ": 2194,
      "light": 2195,
      "ifier": 2196,
      "Result": 2197,
      "AA": 2198,
      "pu": 2199,
      "./": 2200,
      "long": 2201,
      "client": 2202,
      "Fa": 2203,
      "mt": 2204,
      "Poin": 2205,
      "graph": 2206,
      "St": 2207,
      "Ġahead": 2208,
      "Ġwer": 2209,
      "Ġbuild": 2210,
      "Val": 2211,
      "Ġprocess": 2212,
      "CL": 2213,
      ">(": 2214,
      "Ġurl": 2215,
      "Å¿": 2216,
      "ĠInclude": 2217,
      ")))": 2218,
      "hrow": 2219,
      "height": 2220,
      "TH": 2221,
      "Point": 2222,
      "iled": 2223,
      "Ġdoe": 2224,
      "Ġind": 2225,
      "tain": 2226,
      "ely": 2227,
      "ister": 2228,
      "ÐµÐ": 2229,
      "ru": 2230,
      "Format": 2231,
      "Ġthem": 2232,
      "Ġdoes": 2233,
      "Ġconten": 2234,
      "ost": 2235,
      "ĠYou": 2236,
      "True": 2237,
      "rop": 2238,
      "_{": 2239,
      "Ġhttps": 2240,
      "][": 2241,
      "ĠFor": 2242,
      "tic": 2243,
      "<?": 2244,
      "Reg": 2245,
      "rso": 2246,
      "\"\"": 2247,
      "Ġtho": 2248,
      "select": 2249,
      "FI": 2250,
      "CON": 2251,
      "web": 2252,
      "torage": 2253,
      "Ġgive": 2254,
      "flow": 2255,
      "wi": 2256,
      "std": 2257,
      "ÃŃ": 2258,
      "Ġknow": 2259,
      "Ġinstance": 2260,
      "'),": 2261,
      "wn": 2262,
      "æķ": 2263,
      "apache": 2264,
      "case": 2265,
      "PRO": 2266,
      "ndition": 2267,
      "Ġcontent": 2268,
      "ĉĉĉĉĉĉĉĉ": 2269,
      "untime": 2270,
      "Base": 2271,
      "New": 2272,
      "gr": 2273,
      "Ġrequire": 2274,
      "Source": 2275,
      "Ġbreak": 2276,
      "Action": 2277,
      "Col": 2278,
      "by": 2279,
      "write": 2280,
      "ward": 2281,
      "wait": 2282,
      "irit": 2283,
      "ATE": 2284,
      "Ġservice": 2285,
      "loy": 2286,
      "ecur": 2287,
      "with": 2288,
      "Ġref": 2289,
      "een": 2290,
      "cket": 2291,
      "Ġgene": 2292,
      "cept": 2293,
      "eed": 2294,
      "Ġbet": 2295,
      "Wo": 2296,
      "~~": 2297,
      "Lay": 2298,
      "Ġtitle": 2299,
      "ĠAN": 2300,
      "rld": 2301,
      "Ġyear": 2302,
      "proto": 2303,
      "ification": 2304,
      "From": 2305,
      "ĠĠĠĠĠĠĠĠĠĊ": 2306,
      "Ġread": 2307,
      "FO": 2308,
      "à¦": 2309,
      "Ġstruct": 2310,
      "Button": 2311,
      "rand": 2312,
      "Ġinformation": 2313,
      "ĉĠĠĠ": 2314,
      "mpty": 2315,
      "fon": 2316,
      "Ġ100": 2317,
      "Ġdon": 2318,
      "Ġinclude": 2319,
      "hos": 2320,
      "Gene": 2321,
      "two": 2322,
      "over": 2323,
      ")\"": 2324,
      "åĬ": 2325,
      "iter": 2326,
      "}\"": 2327,
      "Ġxml": 2328,
      "current": 2329,
      "can": 2330,
      "Cl": 2331,
      "ris": 2332,
      "Ġwere": 2333,
      "Ext": 2334,
      "nage": 2335,
      "UE": 2336,
      "AP": 2337,
      "62": 2338,
      "ched": 2339,
      "Sa": 2340,
      "ä¸Ģ": 2341,
      "ĠGe": 2342,
      "struct": 2343,
      "Ġlocal": 2344,
      "Arg": 2345,
      "hod": 2346,
      "element": 2347,
      "IP": 2348,
      "null": 2349,
      "bsp": 2350,
      "run": 2351,
      "iden": 2352,
      "Ġafter": 2353,
      "cpp": 2354,
      "cu": 2355,
      "Ġ15": 2356,
      "End": 2357,
      "ĠLanguage": 2358,
      "çĶ¨": 2359,
      "Token": 2360,
      "Filter": 2361,
      "This": 2362,
      "vider": 2363,
      "ĠIN": 2364,
      "mic": 2365,
      "uid": 2366,
      "ated": 2367,
      "Sta": 2368,
      "uch": 2369,
      "nbsp": 2370,
      "Reference": 2371,
      "Ġhow": 2372,
      "Na": 2373,
      "ĠNone": 2374,
      "%%": 2375,
      "method": 2376,
      "ivity": 2377,
      "84": 2378,
      "pping": 2379,
      "Query": 2380,
      "74": 2381,
      "any": 2382,
      "nume": 2383,
      "font": 2384,
      "Ġnode": 2385,
      "Ġ16": 2386,
      "rtual": 2387,
      "lder": 2388,
      "sponse": 2389,
      "TY": 2390,
      "Ñı": 2391,
      "Ġhttp": 2392,
      "EX": 2393,
      "000000": 2394,
      "Ġpage": 2395,
      "DIR": 2396,
      "Ġsupport": 2397,
      "CC": 2398,
      "Ã³": 2399,
      "Ġlong": 2400,
      "Ġfill": 2401,
      "bot": 2402,
      "....": 2403,
      "update": 2404,
      "uted": 2405,
      "ftware": 2406,
      "arget": 2407,
      "pg": 2408,
      "Para": 2409,
      "ĠCa": 2410,
      "Ġins": 2411,
      "Page": 2412,
      "Do": 2413,
      "96": 2414,
      "append": 2415,
      "Ut": 2416,
      "olution": 2417,
      "arser": 2418,
      "Controller": 2419,
      "itory": 2420,
      "tile": 2421,
      "Ġdel": 2422,
      "ĠNP": 2423,
      "Ġfind": 2424,
      "MO": 2425,
      "cro": 2426,
      "HT": 2427,
      "FA": 2428,
      "Ġevent": 2429,
      "Box": 2430,
      "spec": 2431,
      "ĠĠĠĠĠĠĠĠĠĠĊ": 2432,
      "ä¹": 2433,
      "Signature": 2434,
      "tag": 2435,
      "Ġstro": 2436,
      "Ġresponse": 2437,
      "ĠOR": 2438,
      "Project": 2439,
      "byte": 2440,
      "hang": 2441,
      "And": 2442,
      "nition": 2443,
      "Ġmodule": 2444,
      "Ġcontext": 2445,
      "nor": 2446,
      "ĠCh": 2447,
      "ingl": 2448,
      "Number": 2449,
      "qua": 2450,
      "KE": 2451,
      "Act": 2452,
      "ecurity": 2453,
      "Var": 2454,
      "artifactId": 2455,
      ";\"": 2456,
      "thro": 2457,
      "52": 2458,
      "Ġ200": 2459,
      "å°": 2460,
      "Component": 2461,
      "Ġimp": 2462,
      "note": 2463,
      "76": 2464,
      "pyright": 2465,
      "Ġproject": 2466,
      "INT": 2467,
      "Ġmust": 2468,
      "zo": 2469,
      "ood": 2470,
      "ãĢģ": 2471,
      "ĠDa": 2472,
      "cd": 2473,
      "tribu": 2474,
      "ĠHe": 2475,
      "hout": 2476,
      "sche": 2477,
      "Ġwan": 2478,
      "else": 2479,
      "bin": 2480,
      "pression": 2481,
      "MS": 2482,
      "ople": 2483,
      "Frame": 2484,
      "Ġ((": 2485,
      "53": 2486,
      "Un": 2487,
      "rag": 2488,
      "wer": 2489,
      "Âł": 2490,
      "UI": 2491,
      "gene": 2492,
      "Al": 2493,
      "OP": 2494,
      "old": 2495,
      "Ġcommand": 2496,
      "Ġui": 2497,
      "ingle": 2498,
      "Instance": 2499,
      "Ġbase": 2500,
      "Ġeven": 2501,
      "Link": 2502,
      "æĺ¯": 2503,
      "parent": 2504,
      "Ġdi": 2505,
      ":\"": 2506,
      "quot": 2507,
      "token": 2508,
      "ssue": 2509,
      "lin": 2510,
      "51": 2511,
      "åŃ": 2512,
      "All": 2513,
      "last": 2514,
      "(&": 2515,
      "Ġview": 2516,
      "board": 2517,
      "94": 2518,
      "INE": 2519,
      "Ġlabel": 2520,
      "Ġtable": 2521,
      "Ġhad": 2522,
      "ĠApp": 2523,
      "order": 2524,
      "Ġvis": 2525,
      "âĶ": 2526,
      "fs": 2527,
      "ĠØ": 2528,
      ">>": 2529,
      "requ": 2530,
      "tions": 2531,
      "ĠSet": 2532,
      "Del": 2533,
      "72": 2534,
      "trix": 2535,
      "pace": 2536,
      "ilable": 2537,
      "city": 2538,
      "exec": 2539,
      "Title": 2540,
      "ttp": 2541,
      "ĠUn": 2542,
      "ged": 2543,
      "bool": 2544,
      "rv": 2545,
      "rated": 2546,
      "groupId": 2547,
      "annotation": 2548,
      "ele": 2549,
      "context": 2550,
      "ç»": 2551,
      "Ġ<!--": 2552,
      "Ġcount": 2553,
      "then": 2554,
      "mpor": 2555,
      "ak": 2556,
      "pres": 2557,
      "Ġeach": 2558,
      "rem": 2559,
      "has": 2560,
      "Ġnow": 2561,
      "Ġbefore": 2562,
      ">\\": 2563,
      "find": 2564,
      "ãģ®": 2565,
      "framework": 2566,
      "____": 2567,
      "place": 2568,
      "Ġupdate": 2569,
      "ptr": 2570,
      "raph": 2571,
      "ĉĊ": 2572,
      "hed": 2573,
      "admin": 2574,
      "Ġwhile": 2575,
      "DB": 2576,
      "([": 2577,
      "refe": 2578,
      "Create": 2579,
      "Ñĭ": 2580,
      "æĹ": 2581,
      "Pre": 2582,
      "Ġmai": 2583,
      "Bi": 2584,
      "bers": 2585,
      "ĠĠĠĠĠĠĠĠĠĠĠĊ": 2586,
      "ustom": 2587,
      "').": 2588,
      "Write": 2589,
      "Label": 2590,
      "ĠLa": 2591,
      "Ġthes": 2592,
      "ome": 2593,
      "VER": 2594,
      "Web": 2595,
      "menu": 2596,
      "float": 2597,
      "PL": 2598,
      "hr": 2599,
      "ging": 2600,
      "ĠTra": 2601,
      "ĠLo": 2602,
      "aa": 2603,
      "Handler": 2604,
      "ĠList": 2605,
      "number": 2606,
      "ĠName": 2607,
      "Call": 2608,
      "Builder": 2609,
      "less": 2610,
      "throw": 2611,
      "Ġdat": 2612,
      "etwork": 2613,
      "Ġmain": 2614,
      "è¡": 2615,
      "Ġgroup": 2616,
      "********************************": 2617,
      "cke": 2618,
      "Ġpoin": 2619,
      "hy": 2620,
      "NO": 2621,
      "ntry": 2622,
      "dev": 2623,
      "Ġthese": 2624,
      "Pe": 2625,
      "loud": 2626,
      "pc": 2627,
      "Ġsystem": 2628,
      "book": 2629,
      "Ġserial": 2630,
      "lign": 2631,
      "63": 2632,
      "Ġtwo": 2633,
      "ness": 2634,
      "Ðº": 2635,
      "Ġrequired": 2636,
      "Ġsuper": 2637,
      "Ġvalues": 2638,
      "Resource": 2639,
      "CK": 2640,
      "Collection": 2641,
      "HO": 2642,
      "sv": 2643,
      "uter": 2644,
      "Ġ===": 2645,
      "search": 2646,
      "mponents": 2647,
      "ube": 2648,
      "BU": 2649,
      "uin": 2650,
      "Ġform": 2651,
      "Ġlook": 2652,
      "Ġwk": 2653,
      "ĠĠĠĠĠĠĠĠĠĠĠĠĊ": 2654,
      "åį": 2655,
      "refer": 2656,
      "nding": 2657,
      "aracte": 2658,
      "tant": 2659,
      "aracter": 2660,
      "udio": 2661,
      "Ref": 2662,
      "82": 2663,
      "è®": 2664,
      "ĠData": 2665,
      "ngl": 2666,
      "Ġ($": 2667,
      "Ġsecond": 2668,
      "pan": 2669,
      "pository": 2670,
      "ye": 2671,
      "tmp": 2672,
      "open": 2673,
      "ython": 2674,
      "ift": 2675,
      "lack": 2676,
      "rep": 2677,
      "Ġke": 2678,
      "nes": 2679,
      "Return": 2680,
      "press": 2681,
      "Ġaction": 2682,
      "cr": 2683,
      "Ġlast": 2684,
      "docs": 2685,
      "Ä±": 2686,
      "fill": 2687,
      "oth": 2688,
      "åº": 2689,
      "íķ": 2690,
      "Task": 2691,
      "Ġ19": 2692,
      "ENT": 2693,
      "tected": 2694,
      "Sho": 2695,
      "mory": 2696,
      "Start": 2697,
      "obj": 2698,
      "nabled": 2699,
      "################": 2700,
      "ches": 2701,
      "åĽ": 2702,
      "Ġpass": 2703,
      "Fac": 2704,
      "Ġnum": 2705,
      "Ġ${": 2706,
      "ans": 2707,
      "Ġsame": 2708,
      "Ġrea": 2709,
      "ech": 2710,
      "Ġmsg": 2711,
      "ĠUse": 2712,
      "filename": 2713,
      "Ġselect": 2714,
      "licy": 2715,
      "Ġba": 2716,
      "Method": 2717,
      "83": 2718,
      "Ġlayer": 2719,
      "uments": 2720,
      ";;": 2721,
      "ĠFile": 2722,
      "Output": 2723,
      "tu": 2724,
      "Ġallow": 2725,
      "![": 2726,
      "ures": 2727,
      "ĠAr": 2728,
      "Ġfloat": 2729,
      "ĠZ": 2730,
      "Hel": 2731,
      "epo": 2732,
      "namespace": 2733,
      "Ġpoint": 2734,
      "Ġfound": 2735,
      "Ġthro": 2736,
      "Ġ})": 2737,
      "Ġhere": 2738,
      "Ġhelp": 2739,
      "Ġexample": 2740,
      "\").": 2741,
      "2022": 2742,
      "see": 2743,
      "uni": 2744,
      "`,": 2745,
      "Ġuin": 2746,
      "MM": 2747,
      "ĠAs": 2748,
      "prese": 2749,
      "ason": 2750,
      "False": 2751,
      "Ad": 2752,
      "Default": 2753,
      "rrors": 2754,
      "Ġposition": 2755,
      "cker": 2756,
      "king": 2757,
      "ECT": 2758,
      "nsert": 2759,
      "Equal": 2760,
      "css": 2761,
      "73": 2762,
      "header": 2763,
      "Ġ\"\\": 2764,
      "SP": 2765,
      "Control": 2766,
      "Ġplace": 2767,
      ">,": 2768,
      "////////////////": 2769,
      "TO": 2770,
      "strong": 2771,
      "Check": 2772,
      "tur": 2773,
      "ÐµÐ½": 2774,
      "It": 2775,
      "tact": 2776,
      "Ġuint": 2777,
      "viron": 2778,
      "Options": 2779,
      "Ġblock": 2780,
      "clude": 2781,
      "à¼": 2782,
      "media": 2783,
      "Ġtop": 2784,
      "uint": 2785,
      "Ġlang": 2786,
      "stroke": 2787,
      "ĠNew": 2788,
      "Ġoptions": 2789,
      "Command": 2790,
      "chema": 2791,
      "Ġ{}": 2792,
      "nn": 2793,
      "ĠĠčĊ": 2794,
      "Target": 2795,
      "ĠReg": 2796,
      "Ð²": 2797,
      "process": 2798,
      "quan": 2799,
      "Ġorder": 2800,
      "display": 2801,
      "Ã¤": 2802,
      "ttribute": 2803,
      "Ġrange": 2804,
      "EL": 2805,
      "lag": 2806,
      "esponse": 2807,
      "server": 2808,
      "fere": 2809,
      "*/": 2810,
      "Cons": 2811,
      "Ġet": 2812,
      "///": 2813,
      "Ġwant": 2814,
      "section": 2815,
      "response": 2816,
      "cha": 2817,
      "Ġà¤": 2818,
      "Ġcould": 2819,
      "cause": 2820,
      "]]": 2821,
      "refix": 2822,
      "bit": 2823,
      "cale": 2824,
      "control": 2825,
      "éĢ": 2826,
      "host": 2827,
      "sol": 2828,
      "push": 2829,
      "Ġred": 2830,
      "ffect": 2831,
      "ests": 2832,
      "Ġfollowing": 2833,
      "Ġdisplay": 2834,
      "auto": 2835,
      "ween": 2836,
      "ria": 2837,
      "å¼": 2838,
      "root": 2839,
      "Ã¼": 2840,
      "AM": 2841,
      "mily": 2842,
      "ident": 2843,
      "SI": 2844,
      "ax": 2845,
      "Stream": 2846,
      "Sh": 2847,
      "ĠType": 2848,
      "Ġtri": 2849,
      "ower": 2850,
      "Ùħ": 2851,
      "CD": 2852,
      "oi": 2853,
      "none": 2854,
      "quence": 2855,
      "cf": 2856,
      "Ġstatus": 2857,
      "Ġdown": 2858,
      "ension": 2859,
      "Ġ}}": 2860,
      "tx": 2861,
      "æī": 2862,
      "Ġsuch": 2863,
      "ĠOF": 2864,
      "ithout": 2865,
      "ÑĮ": 2866,
      "Ġ11": 2867,
      "options": 2868,
      "Ġret": 2869,
      "NS": 2870,
      "Microsoft": 2871,
      "Ġpeople": 2872,
      "ultip": 2873,
      "hs": 2874,
      "Ġdescription": 2875,
      "first": 2876,
      "cell": 2877,
      "cat": 2878,
      "SON": 2879,
      "Ġimple": 2880,
      "icon": 2881,
      "land": 2882,
      "Ġes": 2883,
      "Package": 2884,
      "Ġnext": 2885,
      "entry": 2886,
      "come": 2887,
      "Ġque": 2888,
      "ndard": 2889,
      "term": 2890,
      "vailable": 2891,
      "joi": 2892,
      "{\"": 2893,
      "Ġproperty": 2894,
      "ATA": 2895,
      "Ð¼": 2896,
      "Ġshow": 2897,
      "ices": 2898,
      "coding": 2899,
      "uns": 2900,
      "change": 2901,
      "position": 2902,
      "Ġdu": 2903,
      "tains": 2904,
      "Cor": 2905,
      "Ġstroke": 2906,
      "Ġop": 2907,
      "Ġformat": 2908,
      "MemberSignature": 2909,
      "sy": 2910,
      "gins": 2911,
      "edge": 2912,
      "SC": 2913,
      "spirit": 2914,
      "system": 2915,
      "Ġshe": 2916,
      "Ġapplication": 2917,
      "Block": 2918,
      "next": 2919,
      "cy": 2920,
      "ced": 2921,
      "witch": 2922,
      "gai": 2923,
      "92": 2924,
      "ĠID": 2925,
      "pers": 2926,
      "instance": 2927,
      "arning": 2928,
      "Ġsc": 2929,
      "unk": 2930,
      "Ġmod": 2931,
      "Row": 2932,
      "tru": 2933,
      "Windows": 2934,
      "Ġ...": 2935,
      "med": 2936,
      "Ġlevel": 2937,
      "ERR": 2938,
      "nly": 2939,
      "mount": 2940,
      "thi": 2941,
      "ala": 2942,
      "Ġmos": 2943,
      "Override": 2944,
      "wh": 2945,
      "tance": 2946,
      "Ġchild": 2947,
      "ings": 2948,
      "ĠÐ¿": 2949,
      "Ġelement": 2950,
      "ceive": 2951,
      "nstan": 2952,
      "ãĥ¼": 2953,
      "Ġlink": 2954,
      "});": 2955,
      "ĠPa": 2956,
      "ngine": 2957,
      "join": 2958,
      "reference": 2959,
      "ndo": 2960,
      "}{": 2961,
      "IO": 2962,
      "pose": 2963,
      "TP": 2964,
      "Ġss": 2965,
      "Ġbecause": 2966,
      "Entity": 2967,
      "Ġissue": 2968,
      "ttr": 2969,
      "Ġcompl": 2970,
      "ĠAdd": 2971,
      "ĠâĢĵ": 2972,
      "61": 2973,
      "sca": 2974,
      "Ġway": 2975,
      "Unit": 2976,
      "Layout": 2977,
      "google": 2978,
      "dependency": 2979,
      "<!--": 2980,
      "pring": 2981,
      "Ġ['": 2982,
      "ĠInte": 2983,
      "feren": 2984,
      "Ġnp": 2985,
      "fr": 2986,
      "undl": 2987,
      "command": 2988,
      "ÑģÑĤ": 2989,
      "Ġecho": 2990,
      "Url": 2991,
      "æķ°": 2992,
      "Ġborder": 2993,
      "lags": 2994,
      "endif": 2995,
      "ÙĨ": 2996,
      "Ġextends": 2997,
      "params": 2998,
      "If": 2999,
      "Ġmost": 3000,
      "nstant": 3001,
      "uste": 3002,
      "ferent": 3003,
      "pla": 3004,
      "ĠAss": 3005,
      "ĠCON": 3006,
      "Ġdouble": 3007,
      "Ġaccess": 3008,
      "Compile": 3009,
      "xe": 3010,
      "Ã§": 3011,
      "ative": 3012,
      "mot": 3013,
      "lope": 3014,
      "etch": 3015,
      "Server": 3016,
      "jpg": 3017,
      "plugin": 3018,
      "rec": 3019,
      "nis": 3020,
      "Ġfiles": 3021,
      "Ġleft": 3022,
      "undle": 3023,
      "peri": 3024,
      "93": 3025,
      "buf": 3026,
      "lease": 3027,
      "Ġperso": 3028,
      "Update": 3029,
      "ude": 3030,
      "Ġclient": 3031,
      "ĠWo": 3032,
      "dle": 3033,
      "logy": 3034,
      "ä¸į": 3035,
      "Ġthrow": 3036,
      "ĠRo": 3037,
      "åľ¨": 3038,
      "Ġcorr": 3039,
      "81": 3040,
      "Http": 3041,
      "Ġmat": 3042,
      "ital": 3043,
      "private": 3044,
      "Ġtake": 3045,
      "way": 3046,
      "tails": 3047,
      "Ġthrough": 3048,
      "Ġ::": 3049,
      "commit": 3050,
      "Ope": 3051,
      "tre": 3052,
      "Ġcopy": 3053,
      "Ġexec": 3054,
      "eek": 3055,
      "Ġ50": 3056,
      "np": 3057,
      "Module": 3058,
      "Back": 3059,
      "Ġsp": 3060,
      "Form": 3061,
      "images": 3062,
      "filter": 3063,
      "ĠSt": 3064,
      "izer": 3065,
      "pacity": 3066,
      "æľī": 3067,
      "blem": 3068,
      "cher": 3069,
      "Ġloc": 3070,
      "..\\": 3071,
      "Ġ14": 3072,
      "Vis": 3073,
      "Ġday": 3074,
      "INFO": 3075,
      "Debug": 3076,
      "à¼ĭ": 3077,
      "\"),": 3078,
      "Ġwrite": 3079,
      "author": 3080,
      "Mat": 3081,
      "xx": 3082,
      "Or": 3083,
      "ĠTes": 3084,
      "txt": 3085,
      "Ġserver": 3086,
      "vironment": 3087,
      "ëĭ": 3088,
      "Ġbyt": 3089,
      "show": 3090,
      "Bin": 3091,
      "å¾": 3092,
      "9999": 3093,
      "iction": 3094,
      "attr": 3095,
      "None": 3096,
      "Ġhandle": 3097,
      "iness": 3098,
      "election": 3099,
      "Ġopen": 3100,
      "æĿ": 3101,
      "attribute": 3102,
      "handle": 3103,
      "Ġoption": 3104,
      "ready": 3105,
      "ÙĪ": 3106,
      "Ġlen": 3107,
      ".,": 3108,
      "=>": 3109,
      "Ġwithout": 3110,
      "++)": 3111,
      "repo": 3112,
      "ĠAnd": 3113,
      "Ġbyte": 3114,
      "ĠDo": 3115,
      "uster": 3116,
      "tributed": 3117,
      "tests": 3118,
      "Ġlimit": 3119,
      "urse": 3120,
      "pha": 3121,
      "URL": 3122,
      "itional": 3123,
      "à®": 3124,
      "Ġmap": 3125,
      "Ġbackground": 3126,
      "Ġgiven": 3127,
      "Ġwell": 3128,
      "common": 3129,
      "home": 3130,
      "Ġthi": 3131,
      "Ġawait": 3132,
      "scribe": 3133,
      "pse": 3134,
      "ener": 3135,
      "she": 3136,
      "QL": 3137,
      "location": 3138,
      "Ø±": 3139,
      "ĠDE": 3140,
      "ĉĉĉĉĉĉĉ": 3141,
      "ori": 3142,
      "nner": 3143,
      "emove": 3144,
      "hanged": 3145,
      "à¹": 3146,
      "ract": 3147,
      "product": 3148,
      "dc": 3149,
      "ntity": 3150,
      "wrap": 3151,
      "remove": 3152,
      ")]": 3153,
      "utils": 3154,
      "Length": 3155,
      "match": 3156,
      "Part": 3157,
      "stream": 3158,
      "nded": 3159,
      "FT": 3160,
      "():": 3161,
      "child": 3162,
      "alle": 3163,
      "python": 3164,
      "rations": 3165,
      "je": 3166,
      "Mi": 3167,
      "Ġcar": 3168,
      "CA": 3169,
      "Ġaddress": 3170,
      "ces": 3171,
      "each": 3172,
      "ĠAl": 3173,
      "Ġinstall": 3174,
      "Ġvi": 3175,
      "Ġserialized": 3176,
      "Rel": 3177,
      "LINE": 3178,
      "SER": 3179,
      "velop": 3180,
      "address": 3181,
      "nagement": 3182,
      "71": 3183,
      "ORT": 3184,
      "Ã¶": 3185,
      "umentation": 3186,
      "Null": 3187,
      "UP": 3188,
      "VAL": 3189,
      "tte": 3190,
      "Core": 3191,
      "å¯": 3192,
      "Description": 3193,
      "'],": 3194,
      "Ġboolean": 3195,
      "]);": 3196,
      "Ġart": 3197,
      "ä¸ª": 3198,
      "files": 3199,
      "Slope": 3200,
      "dk": 3201,
      "seg": 3202,
      "================================": 3203,
      "neral": 3204,
      "ASS": 3205,
      "(_": 3206,
      "Ġdate": 3207,
      "ose": 3208,
      "ä¸Ń": 3209,
      "ither": 3210,
      "alth": 3211,
      "Ġcal": 3212,
      "ffff": 3213,
      "zz": 3214,
      "Ġ],": 3215,
      "make": 3216,
      "VE": 3217,
      "spo": 3218,
      "amples": 3219,
      "car": 3220,
      "IM": 3221,
      "card": 3222,
      "fra": 3223,
      "Ġmany": 3224,
      "Î±": 3225,
      "asic": 3226,
      "Ġpres": 3227,
      "Function": 3228,
      "ĠMe": 3229,
      "lit": 3230,
      "Ġ18": 3231,
      "esource": 3232,
      "Per": 3233,
      "oin": 3234,
      "Ġfac": 3235,
      "ivers": 3236,
      "SH": 3237,
      "ĠBe": 3238,
      "}/": 3239,
      "env": 3240,
      "}\\": 3241,
      "Factory": 3242,
      "thread": 3243,
      "91": 3244,
      "resource": 3245,
      "quantile": 3246,
      "debug": 3247,
      "mote": 3248,
      "imum": 3249,
      "CP": 3250,
      "Change": 3251,
      "RA": 3252,
      "stri": 3253,
      "ĠSa": 3254,
      "Ġdifferent": 3255,
      "Select": 3256,
      "Ġwrit": 3257,
      "Ġent": 3258,
      "rth": 3259,
      "pte": 3260,
      "Buffer": 3261,
      ")</": 3262,
      "Ġos": 3263,
      ")\\": 3264,
      "gress": 3265,
      "LP": 3266,
      "iso": 3267,
      "ya": 3268,
      "Ġpost": 3269,
      "ngle": 3270,
      "ĠNOT": 3271,
      "shop": 3272,
      "idden": 3273,
      "ÙĬ": 3274,
      "alte": 3275,
      "adding": 3276,
      "XX": 3277,
      "range": 3278,
      "TIME": 3279,
      "utho": 3280,
      "fy": 3281,
      "Parameter": 3282,
      "ura": 3283,
      "Level": 3284,
      "We": 3285,
      "bf": 3286,
      "btn": 3287,
      "parse": 3288,
      "usiness": 3289,
      ":#": 3290,
      "lugins": 3291,
      "native": 3292,
      "su": 3293,
      "Spec": 3294,
      "hone": 3295,
      "Ġmargin": 3296,
      "ĠTest": 3297,
      "ULT": 3298,
      "lip": 3299,
      "Ġbetween": 3300,
      "Ġq": 3301,
      "Ġbeing": 3302,
      "tech": 3303,
      "ko": 3304,
      ":\\": 3305,
      "gh": 3306,
      "Ġdid": 3307,
      "åĩ": 3308,
      "nso": 3309,
      "Ġpi": 3310,
      "Ġload": 3311,
      "defined": 3312,
      "Build": 3313,
      "Offset": 3314,
      "Temp": 3315,
      "scrip": 3316,
      "Width": 3317,
      "Ġsm": 3318,
      "Ġagai": 3319,
      "ATION": 3320,
      "ulti": 3321,
      "Header": 3322,
      "Ġ13": 3323,
      "Ġmatch": 3324,
      "Ġthing": 3325,
      "Ġtemplate": 3326,
      "level": 3327,
      "ĠserializedVersion": 3328,
      "mes": 3329,
      "email": 3330,
      "ginal": 3331,
      "éĩ": 3332,
      "Read": 3333,
      "ways": 3334,
      "Ġinst": 3335,
      "upl": 3336,
      "Max": 3337,
      "iff": 3338,
      "column": 3339,
      "ĠAPI": 3340,
      "license": 3341,
      "Ġinterface": 3342,
      "ĠCom": 3343,
      "=\"_": 3344,
      "vious": 3345,
      "rdi": 3346,
      "prite": 3347,
      "ĠClass": 3348,
      "Ġbi": 3349,
      "Column": 3350,
      "Ġthink": 3351,
      "Ġpackage": 3352,
      "ALL": 3353,
      "pea": 3354,
      "Json": 3355,
      "cp": 3356,
      "ibility": 3357,
      "ĠSe": 3358,
      "OS": 3359,
      "pected": 3360,
      "Address": 3361,
      "mem": 3362,
      "river": 3363,
      "2019": 3364,
      "traint": 3365,
      "hrows": 3366,
      "Provider": 3367,
      "ision": 3368,
      "Ġargs": 3369,
      "presen": 3370,
      "pter": 3371,
      "ctx": 3372,
      "scope": 3373,
      "åĨ": 3374,
      "ines": 3375,
      "\"))": 3376,
      "ls": 3377,
      "dated": 3378,
      "Ġspecific": 3379,
      "bility": 3380,
      "zon": 3381,
      "nue": 3382,
      "metadata": 3383,
      "Interface": 3384,
      "eatures": 3385,
      "Order": 3386,
      "ĠLi": 3387,
      "Ġdocument": 3388,
      "rnate": 3389,
      "Position": 3390,
      "Settings": 3391,
      "mun": 3392,
      "Ġori": 3393,
      "vector": 3394,
      "untry": 3395,
      "sig": 3396,
      "total": 3397,
      "TYPE": 3398,
      "RAN": 3399,
      "delete": 3400,
      "Ġvariable": 3401,
      "Ñĩ": 3402,
      "SD": 3403,
      "ORD": 3404,
      "returns": 3405,
      "vide": 3406,
      "where": 3407,
      "cast": 3408,
      "mpos": 3409,
      "Ġ\"<": 3410,
      "GL": 3411,
      "Ġinitial": 3412,
      "Equ": 3413,
      "blis": 3414,
      "VM": 3415,
      "align": 3416,
      "non": 3417,
      "ero": 3418,
      "Byte": 3419,
      "Ġ~": 3420,
      "Types": 3421,
      "ĠINT": 3422,
      "Ġsk": 3423,
      "rad": 3424,
      "ĠObject": 3425,
      "ĠDis": 3426,
      "sting": 3427,
      ",'": 3428,
      "Ġim": 3429,
      "Ġph": 3430,
      "dict": 3431,
      "UM": 3432,
      "ĠIs": 3433,
      "Ġĉ": 3434,
      "{\\": 3435,
      "Ġremove": 3436,
      "olume": 3437,
      "task": 3438,
      "nds": 3439,
      "container": 3440,
      "Ġuni": 3441,
      "ä¼": 3442,
      "ump": 3443,
      "IB": 3444,
      "nos": 3445,
      "Ġvery": 3446,
      "Ġevery": 3447,
      "nline": 3448,
      "ABLE": 3449,
      "device": 3450,
      "tle": 3451,
      "Ġmark": 3452,
      "mode": 3453,
      "001": 3454,
      "hel": 3455,
      "application": 3456,
      "store": 3457,
      "ross": 3458,
      "ĠFi": 3459,
      "Ġattribute": 3460,
      "Ġ$(": 3461,
      "Ġdevice": 3462,
      "00000": 3463,
      "Ġ30": 3464,
      "256": 3465,
      "=\\\"": 3466,
      "cur": 3467,
      "Mod": 3468,
      "uctor": 3469,
      "Ġavailable": 3470,
      "Tag": 3471,
      "255": 3472,
      "âĶĢ": 3473,
      "bind": 3474,
      "çĽ": 3475,
      "enume": 3476,
      "bstract": 3477,
      "UB": 3478,
      "mbol": 3479,
      "2018": 3480,
      "Ġfe": 3481,
      "Ġna": 3482,
      "ĠIS": 3483,
      "ali": 3484,
      "ĠBool": 3485,
      "ĠCreate": 3486,
      "Ð´": 3487,
      "128": 3488,
      "Ta": 3489,
      "æł": 3490,
      "math": 3491,
      "Ġ32": 3492,
      "mportant": 3493,
      "namic": 3494,
      "Ġuns": 3495,
      "Run": 3496,
      "MENT": 3497,
      "compile": 3498,
      "Bar": 3499,
      "ãģĻ": 3500,
      "inue": 3501,
      "Si": 3502,
      "Ġlanguage": 3503,
      "types": 3504,
      "Ġhigh": 3505,
      "gu": 3506,
      "Ã£": 3507,
      "Ġcur": 3508,
      "modules": 3509,
      "widget": 3510,
      "Platform": 3511,
      "Bundle": 3512,
      "nown": 3513,
      "xsd": 3514,
      "ĠBu": 3515,
      "ĠTHE": 3516,
      "begin": 3517,
      "cache": 3518,
      "ender": 3519,
      "Ġproduct": 3520,
      "Ġgood": 3521,
      ",,,,,,,,": 3522,
      "Ġnon": 3523,
      "compl": 3524,
      "áĢ": 3525,
      "Ġposs": 3526,
      "Ġreport": 3527,
      "Entry": 3528,
      "av": 3529,
      "}</": 3530,
      "lied": 3531,
      "ife": 3532,
      "empty": 3533,
      "git": 3534,
      "ncies": 3535,
      "ĠDat": 3536,
      "Weight": 3537,
      "Ġquery": 3538,
      "mission": 3539,
      "Ġ\"/": 3540,
      "side": 3541,
      "è¦": 3542,
      "ĠRE": 3543,
      "Ġrow": 3544,
      "ĠÐ²": 3545,
      "ev": 3546,
      "Ġreal": 3547,
      "sl": 3548,
      "=\"/": 3549,
      "jar": 3550,
      "Ġfl": 3551,
      "FL": 3552,
      "ï¼ļ": 3553,
      ")(": 3554,
      "rms": 3555,
      "=\"\"": 3556,
      "HS": 3557,
      "bse": 3558,
      "Ġ>=": 3559,
      "truct": 3560,
      "ordi": 3561,
      "ners": 3562,
      "Ġframe": 3563,
      "å¹": 3564,
      "throws": 3565,
      "sor": 3566,
      "nks": 3567,
      "gger": 3568,
      "ney": 3569,
      "Ġsur": 3570,
      "ĠState": 3571,
      "åĮ": 3572,
      "rowse": 3573,
      "uple": 3574,
      "Î¿": 3575,
      "Ġword": 3576,
      "Ġlength": 3577,
      "cb": 3578,
      "ped": 3579,
      "()->": 3580,
      "lid": 3581,
      "Ġport": 3582,
      "ITY": 3583,
      "ĠÃ": 3584,
      "ront": 3585,
      "333333": 3586,
      "sha": 3587,
      "ãĤĴ": 3588,
      "vents": 3589,
      "Ġlate": 3590,
      "Ġsuccess": 3591,
      ";/": 3592,
      "eep": 3593,
      "master": 3594,
      "close": 3595,
      "ĠÑģ": 3596,
      "Ġconf": 3597,
      "Listener": 3598,
      "æ³": 3599,
      "Net": 3600,
      "idat": 3601,
      "Ġsaid": 3602,
      "âĢ¦": 3603,
      "ĠCopyright": 3604,
      "weight": 3605,
      "ei": 3606,
      "Top": 3607,
      "team": 3608,
      "category": 3609,
      "Import": 3610,
      "settings": 3611,
      "offset": 3612,
      "forma": 3613,
      "inition": 3614,
      "âĢľ": 3615,
      "Ġmode": 3616,
      "sql": 3617,
      "verage": 3618,
      "Ġ../": 3619,
      "Ġga": 3620,
      "nger": 3621,
      "Ġparent": 3622,
      "Api": 3623,
      "rol": 3624,
      "oter": 3625,
      "JECT": 3626,
      "ĠUp": 3627,
      "ptim": 3628,
      "Ġxmlns": 3629,
      "ĠTO": 3630,
      "truction": 3631,
      "æŃ": 3632,
      "áĥ": 3633,
      "Ġalign": 3634,
      "tos": 3635,
      "gg": 3636,
      "ĠDef": 3637,
      "Ġ''": 3638,
      "hot": 3639,
      "edit": 3640,
      "ux": 3641,
      "ifica": 3642,
      "ĠPo": 3643,
      "Ġjson": 3644,
      "tf": 3645,
      "Ġ17": 3646,
      "component": 3647,
      "Ø§ÙĦ": 3648,
      "Ġoverride": 3649,
      "Ġalt": 3650,
      "Deta": 3651,
      "ialog": 3652,
      "idate": 3653,
      "conf": 3654,
      "Ġê": 3655,
      "ÏĦ": 3656,
      "RL": 3657,
      "ä»¥": 3658,
      "Access": 3659,
      "Ġvalid": 3660,
      "arks": 3661,
      "utes": 3662,
      "ĠSee": 3663,
      "ĠComp": 3664,
      "ĠVersion": 3665,
      "arm": 3666,
      "API": 3667,
      "2017": 3668,
      "components": 3669,
      "Ġsoftware": 3670,
      "ttern": 3671,
      "Ġrol": 3672,
      "Ġtask": 3673,
      "ught": 3674,
      "ĠAll": 3675,
      "Ġprotected": 3676,
      "PR": 3677,
      "å¸": 3678,
      "Case": 3679,
      "bottom": 3680,
      "Ġ<=": 3681,
      "$/": 3682,
      "Option": 3683,
      "esting": 3684,
      "ĠEX": 3685,
      "ili": 3686,
      "Ã£o": 3687,
      "STR": 3688,
      "ĠDate": 3689,
      "#.": 3690,
      "å·": 3691,
      "ĠclassName": 3692,
      "dt": 3693,
      "Auto": 3694,
      "enumeration": 3695,
      "ios": 3696,
      "ually": 3697,
      "Menu": 3698,
      "lated": 3699,
      "LL": 3700,
      "voke": 3701,
      "Ġcref": 3702,
      "Ð¾Ð²": 3703,
      "ĠĠĠĠĠĠĠĠĠĠĠĠĠĊ": 3704,
      "SO": 3705,
      "trie": 3706,
      "Ġlea": 3707,
      "Ġobj": 3708,
      "Ġdistributed": 3709,
      "EMA": 3710,
      "eps": 3711,
      "spring": 3712,
      "Ġexpected": 3713,
      "Ġpay": 3714,
      "Ġadded": 3715,
      "Ġ00": 3716,
      "uthen": 3717,
      "Ġresource": 3718,
      "'.": 3719,
      "ncel": 3720,
      "tructor": 3721,
      "Ġcontrol": 3722,
      "Ġplay": 3723,
      "Process": 3724,
      "Î½": 3725,
      "nother": 3726,
      "connect": 3727,
      "riz": 3728,
      "stamp": 3729,
      "auth": 3730,
      "Øª": 3731,
      "active": 3732,
      "Ġbody": 3733,
      "#,": 3734,
      "Ġpadding": 3735,
      "Height": 3736,
      "Ġcatch": 3737,
      "iod": 3738,
      "SET": 3739,
      "!!": 3740,
      "ĠCO": 3741,
      "peed": 3742,
      "mid": 3743,
      "`.": 3744,
      "Application": 3745,
      "Ġconsole": 3746,
      "ression": 3747,
      "ari": 3748,
      "You": 3749,
      "Ġ{{": 3750,
      "Location": 3751,
      "GE": 3752,
      "ured": 3753,
      "ules": 3754,
      "\\+": 3755,
      "mos": 3756,
      "double": 3757,
      "----------------------------------------------------------------": 3758,
      "Connection": 3759,
      "rved": 3760,
      "ãģĹ": 3761,
      "'))": 3762,
      "tools": 3763,
      "ĠPri": 3764,
      "Ġmuch": 3765,
      "mas": 3766,
      "vm": 3767,
      "Ġthos": 3768,
      "SA": 3769,
      "æĢ": 3770,
      "ĠUser": 3771,
      "=\"&#": 3772,
      "Ġthose": 3773,
      "kern": 3774,
      "Ġboth": 3775,
      "hes": 3776,
      "wire": 3777,
      "vel": 3778,
      "tax": 3779,
      "ART": 3780,
      "xhtml": 3781,
      "req": 3782,
      "amp": 3783,
      "Ġbes": 3784,
      "Ġgame": 3785,
      "ĥ½": 3786,
      "ĉĉĠ": 3787,
      "Ġexist": 3788,
      "ird": 3789,
      "cene": 3790,
      "tree": 3791,
      "values": 3792,
      "gree": 3793,
      "Ba": 3794,
      "á»": 3795,
      "Ġ2020": 3796,
      "ÐĿ": 3797,
      "Ġmove": 3798,
      "Definition": 3799,
      "åı¯": 3800,
      "tries": 3801,
      "à°": 3802,
      "Ġproblem": 3803,
      "Ġeither": 3804,
      "Ġappro": 3805,
      "send": 3806,
      "Ġcolumn": 3807,
      "bsite": 3808,
      "413": 3809,
      "ĉĠĠĠĠ": 3810,
      "Ġspecified": 3811,
      "Open": 3812,
      "Ġident": 3813,
      "pay": 3814,
      "nan": 3815,
      "password": 3816,
      "ous": 3817,
      "Exec": 3818,
      "nore": 3819,
      "èĢ": 3820,
      "aries": 3821,
      "Ġworld": 3822,
      "session": 3823,
      "umns": 3824,
      "ĠĠĠĠĠĠĠĠĠĠĠĠĠĠĊ": 3825,
      "vision": 3826,
      "Ġexp": 3827,
      "Ġcho": 3828,
      "(*": 3829,
      "Ġdec": 3830,
      "Ġyears": 3831,
      "Ġrole": 3832,
      "ploy": 3833,
      "Ġtag": 3834,
      "Ġcha": 3835,
      "Ġgu": 3836,
      "tool": 3837,
      "shape": 3838,
      "etsy": 3839,
      "help": 3840,
      "ideo": 3841,
      "ĠÎ": 3842,
      "ett": 3843,
      "Ġcondition": 3844,
      "Thread": 3845,
      "buffer": 3846,
      "Ġam": 3847,
      "href": 3848,
      "à¤¾": 3849,
      "ĠVP": 3850,
      "usto": 3851,
      "save": 3852,
      "xf": 3853,
      "hip": 3854,
      "tars": 3855,
      "Click": 3856,
      "Min": 3857,
      "uture": 3858,
      "äºĨ": 3859,
      "enso": 3860,
      "tab": 3861,
      "\".": 3862,
      "ranch": 3863,
      "nx": 3864,
      "ements": 3865,
      "Ġasync": 3866,
      "hash": 3867,
      "Ġpar": 3868,
      "family": 3869,
      "ngen": 3870,
      "inc": 3871,
      "kit": 3872,
      "maven": 3873,
      "cks": 3874,
      "ung": 3875,
      "irect": 3876,
      "iant": 3877,
      "elector": 3878,
      "alternate": 3879,
      "ids": 3880,
      "require": 3881,
      "percent": 3882,
      "ĠNot": 3883,
      "GET": 3884,
      "^^": 3885,
      "icat": 3886,
      "nta": 3887,
      "ultipl": 3888,
      "views": 3889,
      "ĠRa": 3890,
      "background": 3891,
      "Ġmade": 3892,
      "æĶ": 3893,
      "ä¿": 3894,
      "Ġfree": 3895,
      "æİ": 3896,
      "Ġresults": 3897,
      "Ġdea": 3898,
      "rp": 3899,
      "tep": 3900,
      "125": 3901,
      "umb": 3902,
      "Ġoffset": 3903,
      "TD": 3904,
      "KEY": 3905,
      "Schema": 3906,
      "å½": 3907,
      "AssemblyName": 3908,
      "Ġroot": 3909,
      "items": 3910,
      "ĠAn": 3911,
      "verse": 3912,
      "Equals": 3913,
      "%;": 3914,
      "BO": 3915,
      "æŀ": 3916,
      "ural": 3917,
      "?>": 3918,
      "Child": 3919,
      "off": 3920,
      "Ġinit": 3921,
      "tail": 3922,
      "Ġ?>": 3923,
      "ä¸º": 3924,
      "Container": 3925,
      "Template": 3926,
      "library": 3927,
      "Ġalready": 3928,
      "rmi": 3929,
      "ãģ«": 3930,
      "ç½": 3931,
      "erface": 3932,
      "mu": 3933,
      "terface": 3934,
      "Ð°Ð½": 3935,
      "lable": 3936,
      "losed": 3937,
      "ically": 3938,
      "ATH": 3939,
      "Ġri": 3940,
      "AssemblyInfo": 3941,
      "IR": 3942,
      "ĠAd": 3943,
      "Ġbit": 3944,
      "Ġprese": 3945,
      "hree": 3946,
      "Ġbest": 3947,
      "chine": 3948,
      "tribution": 3949,
      "hkern": 3950,
      "Window": 3951,
      "icate": 3952,
      "nterface": 3953,
      "imal": 3954,
      "tial": 3955,
      "è§": 3956,
      "Ġsy": 3957,
      "ks": 3958,
      "VID": 3959,
      "Ġdeat": 3960,
      "Ġtoken": 3961,
      "Ġstill": 3962,
      "Local": 3963,
      "fin": 3964,
      "Ġlice": 3965,
      "Last": 3966,
      "itive": 3967,
      "ultiple": 3968,
      "Ġ\\\"": 3969,
      "âĸ": 3970,
      "border": 3971,
      "umi": 3972,
      "Ġreference": 3973,
      "]:": 3974,
      "Ġ*)": 3975,
      "esources": 3976,
      "Ġlocation": 3977,
      ";</": 3978,
      "interface": 3979,
      "ZE": 3980,
      "Serial": 3981,
      "Load": 3982,
      "Ġcreated": 3983,
      "velopment": 3984,
      "å®ļ": 3985,
      "mate": 3986,
      "bj": 3987,
      "Ġtotal": 3988,
      "dp": 3989,
      "Ġexcept": 3990,
      "Params": 3991,
      "Device": 3992,
      "arge": 3993,
      "resources": 3994,
      "ĠTrue": 3995,
      "Dec": 3996,
      "printf": 3997,
      "fic": 3998,
      "Empty": 3999,
      "Ptr": 4000,
      "za": 4001,
      "Ġsum": 4002,
      "ĠANY": 4003,
      "ĠTime": 4004,
      "Ġsite": 4005,
      "plugins": 4006,
      "Ġhome": 4007,
      "ĠĠĠĠĠĠĠĠĠĠĠĠĠĠĠĊ": 4008,
      "Ð°ÑĤ": 4009,
      "Ð¿": 4010,
      ".\\": 4011,
      "stars": 4012,
      "FFFF": 4013,
      "props": 4014,
      "è¡Į": 4015,
      "ternal": 4016,
      "Async": 4017,
      "hav": 4018,
      "network": 4019,
      "af": 4020,
      "ĠPe": 4021,
      "Ġrecord": 4022,
      "bc": 4023,
      "ĉĉĊ": 4024,
      "Valid": 4025,
      "sec": 4026,
      "older": 4027,
      "Parameters": 4028,
      "vas": 4029,
      "luding": 4030,
      "Inter": 4031,
      "Ġmeta": 4032,
      "bed": 4033,
      "used": 4034,
      "cer": 4035,
      "éĹ": 4036,
      "models": 4037,
      "Port": 4038,
      "Ġ24": 4039,
      "echo": 4040,
      "ARE": 4041,
      "profile": 4042,
      "ãĤĭ": 4043,
      "Vector": 4044,
      "âĶĢâĶĢ": 4045,
      "Ġfull": 4046,
      "ict": 4047,
      "nternal": 4048,
      "break": 4049,
      "33333334": 4050,
      "EMAIL": 4051,
      "ITE": 4052,
      "internal": 4053,
      "Ġser": 4054,
      "scale": 4055,
      "limit": 4056,
      "Ġ25": 4057,
      "Ġdone": 4058,
      "nux": 4059,
      "NE": 4060,
      "ĠRegion": 4061,
      "Texture": 4062,
      "Ġprogram": 4063,
      "PRE": 4064,
      "utf": 4065,
      "An": 4066,
      "ensions": 4067,
      "example": 4068,
      "CI": 4069,
      "margin": 4070,
      "TER": 4071,
      "Ġ'<": 4072,
      "step": 4073,
      "Ġsearch": 4074,
      "lone": 4075,
      "Ġsure": 4076,
      "Wa": 4077,
      "Ġexperi": 4078,
      "react": 4079,
      "=\"@": 4080,
      "Ġstu": 4081,
      "window": 4082,
      "Ġfunc": 4083,
      "Ġ2019": 4084,
      "pped": 4085,
      "Search": 4086,
      "rowser": 4087,
      "AY": 4088,
      "Ġdeath": 4089,
      "ĠHT": 4090,
      "Ñħ": 4091,
      "ience": 4092,
      "editor": 4093,
      "esh": 4094,
      "Ġwhe": 4095,
      "Ġold": 4096,
      "Ġpoints": 4097,
      "^{": 4098,
      "patch": 4099,
      "ĠÐ½": 4100,
      "rb": 4101,
      "[:": 4102,
      "hal": 4103,
      "eal": 4104,
      "ĠOn": 4105,
      "role": 4106,
      "LIC": 4107,
      "split": 4108,
      "Left": 4109,
      "Range": 4110,
      "normal": 4111,
      "nito": 4112,
      "Num": 4113,
      "Ġstore": 4114,
      "'>": 4115,
      "OK": 4116,
      "trict": 4117,
      "Ġput": 4118,
      "NULL": 4119,
      "cel": 4120,
      "Ġaccount": 4121,
      "Ġ('": 4122,
      "Ġ[\"": 4123,
      "Ġweb": 4124,
      "cing": 4125,
      "ĠĠĠĠĠĠĠĠĠĠĠĠĠĠĠĠĊ": 4126,
      "reponame": 4127,
      "ictionary": 4128,
      "CS": 4129,
      "Ġ),": 4130,
      "Ġfun": 4131,
      "éĻ": 4132,
      "Right": 4133,
      "BUG": 4134,
      "IGH": 4135,
      "Ġgover": 4136,
      "Ġshort": 4137,
      "ii": 4138,
      "ãĥ³": 4139,
      "Record": 4140,
      "Ġpython": 4141,
      "grid": 4142,
      "Database": 4143,
      "Bool": 4144,
      "ĠAD": 4145,
      "gent": 4146,
      "ĠWAR": 4147,
      "ĠService": 4148,
      "IE": 4149,
      "pon": 4150,
      "exception": 4151,
      "Ġorga": 4152,
      "language": 4153,
      "?:": 4154,
      "ĠInitial": 4155,
      "pk": 4156,
      "istry": 4157,
      "Ġfix": 4158,
      "bla": 4159,
      "site": 4160,
      "ERROR": 4161,
      "mar": 4162,
      "Ġdelete": 4163,
      "ç«": 4164,
      "ysis": 4165,
      ">&": 4166,
      "~~~~": 4167,
      "sort": 4168,
      "Ġreceive": 4169,
      "è¦ģ": 4170,
      "eted": 4171,
      "Ġsto": 4172,
      "AND": 4173,
      "Ġown": 4174,
      "Current": 4175,
      "erms": 4176,
      "Utils": 4177,
      "scape": 4178,
      ">.": 4179,
      "First": 4180,
      "meri": 4181,
      "eport": 4182,
      "BA": 4183,
      "2016": 4184,
      "Ins": 4185,
      "rge": 4186,
      "Ġcalled": 4187,
      "ryp": 4188,
      "ensor": 4189,
      "inline": 4190,
      "Ġcell": 4191,
      "iet": 4192,
      "He": 4193,
      "BR": 4194,
      "Ġconfiguration": 4195,
      "Ġfn": 4196,
      "Ġmea": 4197,
      "Store": 4198,
      "naged": 4199,
      "sw": 4200,
      "ici": 4201,
      "report": 4202,
      "à´": 4203,
      "CR": 4204,
      "Ġxlink": 4205,
      "copy": 4206,
      "upp": 4207,
      "Ġparameter": 4208,
      "document": 4209,
      "Properties": 4210,
      "tb": 4211,
      "ĠEn": 4212,
      "ited": 4213,
      "desc": 4214,
      "åĢ": 4215,
      "ãģĹãģ": 4216,
      "fc": 4217,
      "xa": 4218,
      "Ġinfo": 4219,
      "NET": 4220,
      "ordinate": 4221,
      "draw": 4222,
      ":(": 4223,
      "Î¹": 4224,
      "rect": 4225,
      "Down": 4226,
      "FE": 4227,
      "svg": 4228,
      "pth": 4229,
      "edia": 4230,
      "Ġ'/": 4231,
      "Tree": 4232,
      "Sy": 4233,
      "ering": 4234,
      "Ð¡": 4235,
      "Ġvirtual": 4236,
      "zy": 4237,
      "Ġcustom": 4238,
      "Ø¯": 4239,
      "Ġbook": 4240,
      "ĠTrans": 4241,
      "FAULT": 4242,
      "Ġsim": 4243,
      "tocol": 4244,
      "account": 4245,
      "Ġ2018": 4246,
      "æĸĩ": 4247,
      "custom": 4248,
      "ship": 4249,
      "ĠLog": 4250,
      "Cache": 4251,
      "lue": 4252,
      "ENSE": 4253,
      "ç§": 4254,
      "110": 4255,
      "nchor": 4256,
      "\\\\\\\\": 4257,
      "par": 4258,
      "ĠMat": 4259,
      "Ġhreflang": 4260,
      "Script": 4261,
      "idx": 4262,
      "sys": 4263,
      "Body": 4264,
      "------------": 4265,
      "ACT": 4266,
      "lica": 4267,
      "pin": 4268,
      "tel": 4269,
      "FILE": 4270,
      "Ġconnection": 4271,
      "lipse": 4272,
      "ega": 4273,
      "Ġparams": 4274,
      "ĠArray": 4275,
      "æĹ¶": 4276,
      "asure": 4277,
      "ado": 4278,
      "gon": 4279,
      "Users": 4280,
      "uri": 4281,
      "aders": 4282,
      "cos": 4283,
      "Ġabove": 4284,
      "replace": 4285,
      "arp": 4286,
      "ĠPr": 4287,
      "should": 4288,
      "Ġcor": 4289,
      "ĠPR": 4290,
      "Character": 4291,
      "ĉĠĠĠĠĠ": 4292,
      "nch": 4293,
      "ä¾": 4294,
      "tags": 4295,
      "ÐµÑĢ": 4296,
      "ntial": 4297,
      "Ġsingle": 4298,
      "Îµ": 4299,
      "Args": 4300,
      "Ġ\"$": 4301,
      "Work": 4302,
      "Ġlife": 4303,
      "ND": 4304,
      "Ġhim": 4305,
      "Ġbased": 4306,
      "schema": 4307,
      "Session": 4308,
      "tral": 4309,
      "cmd": 4310,
      "forms": 4311,
      "unts": 4312,
      "Ġtoo": 4313,
      "Ve": 4314,
      "âĢĶ": 4315,
      "testing": 4316,
      "sto": 4317,
      "Ġpol": 4318,
      "rable": 4319,
      "ĠFalse": 4320,
      "access": 4321,
      "ĠText": 4322,
      "stop": 4323,
      "fd": 4324,
      "Ġques": 4325,
      "high": 4326,
      "Ġsprite": 4327,
      "Hash": 4328,
      "Ġgra": 4329,
      "AGE": 4330,
      "ĠCons": 4331,
      "xc": 4332,
      "Ġnetwork": 4333,
      "Edit": 4334,
      "clear": 4335,
      "Ġvo": 4336,
      "ĠFa": 4337,
      "Ġrat": 4338,
      "mons": 4339,
      "wise": 4340,
      "æĮ": 4341,
      "missions": 4342,
      "Tool": 4343,
      "insert": 4344,
      "(-": 4345,
      "Grid": 4346,
      "ĠMicrosoft": 4347,
      "Ġpur": 4348,
      "Ġanother": 4349,
      "Mai": 4350,
      "Ġprovided": 4351,
      "success": 4352,
      "abled": 4353,
      "ĠÐ¸": 4354,
      "gor": 4355,
      "Post": 4356,
      "remarks": 4357,
      "nto": 4358,
      "Ġwithi": 4359,
      "Ġwithin": 4360,
      "ĠAc": 4361,
      "names": 4362,
      "uro": 4363,
      "parameter": 4364,
      "iority": 4365,
      "ĠAND": 4366,
      "Ġduring": 4367,
      "ä»¶": 4368,
      "ACK": 4369,
      "Ġ{\"": 4370,
      "Ġwindow": 4371,
      "usr": 4372,
      "econd": 4373,
      "Ġeffect": 4374,
      "Draw": 4375,
      "ination": 4376,
      "eact": 4377,
      "dow": 4378,
      ">=": 4379,
      "sign": 4380,
      "lif": 4381,
      "tach": 4382,
      "DU": 4383,
      "Ġsince": 4384,
      "holder": 4385,
      "Ġcomponent": 4386,
      "Ġunit": 4387,
      "Main": 4388,
      "tern": 4389,
      "Ke": 4390,
      "äºº": 4391,
      "kt": 4392,
      "Ġmon": 4393,
      "hoto": 4394,
      "Ġ%}": 4395,
      "Ident": 4396,
      "Ġbegin": 4397,
      "Ġdefined": 4398,
      "nstants": 4399,
      "Root": 4400,
      "full": 4401,
      "pub": 4402,
      "channel": 4403,
      "Param": 4404,
      "ircle": 4405,
      "2010": 4406,
      "Ġ2021": 4407,
      "500": 4408,
      "scriptor": 4409,
      "ä¸Ĭ": 4410,
      "bd": 4411,
      "yes": 4412,
      "å±": 4413,
      "exp": 4414,
      "mor": 4415,
      "Ġnote": 4416,
      "cloud": 4417,
      "MD": 4418,
      "ales": 4419,
      "ĠAzure": 4420,
      "Ġinternal": 4421,
      "release": 4422,
      "å¿": 4423,
      "æį": 4424,
      "Ġchanges": 4425,
      "nsion": 4426,
      "ORM": 4427,
      ".*": 4428,
      "tw": 4429,
      "ìĹ": 4430,
      "=\"$": 4431,
      "keys": 4432,
      "Ġside": 4433,
      "Ġpu": 4434,
      "nimation": 4435,
      "çī": 4436,
      "IND": 4437,
      "pts": 4438,
      "plit": 4439,
      "ROM": 4440,
      "Ġemail": 4441,
      "ters": 4442,
      "finition": 4443,
      "Ġsession": 4444,
      "ãģĦ": 4445,
      "ggle": 4446,
      "èĩ": 4447,
      "Ġtransform": 4448,
      "inding": 4449,
      "Ġheader": 4450,
      "igation": 4451,
      "Parser": 4452,
      "Ġbtn": 4453,
      "Ġparameters": 4454,
      "points": 4455,
      "Ġmight": 4456,
      "ĠEd": 4457,
      "amera": 4458,
      ".âĢĿ": 4459,
      "Ġeas": 4460,
      "Ġlear": 4461,
      "Ġfilter": 4462,
      "\"}": 4463,
      "ONLINE": 4464,
      "Ġhos": 4465,
      "ĠJa": 4466,
      "ĠĠĠčĊ": 4467,
      "My": 4468,
      "ĠSi": 4469,
      "ula": 4470,
      "Ġdirectory": 4471,
      "DF": 4472,
      "Ġspace": 4473,
      "Ġlaw": 4474,
      "Runtime": 4475,
      "argument": 4476,
      "Ġalways": 4477,
      "Ġcenter": 4478,
      "Hi": 4479,
      "Values": 4480,
      "Delete": 4481,
      "IF": 4482,
      "terms": 4483,
      "ything": 4484,
      "Ġdb": 4485,
      "Ġrender": 4486,
      "Ġty": 4487,
      "fix": 4488,
      "Ġfr": 4489,
      "120": 4490,
      "WR": 4491,
      "Azure": 4492,
      "decl": 4493,
      "bsol": 4494,
      "Next": 4495,
      "ĠBut": 4496,
      "coder": 4497,
      "three": 4498,
      "ln": 4499,
      "ada": 4500,
      "Ġnormal": 4501,
      "ros": 4502,
      "click": 4503,
      "win": 4504,
      "ëĭ¤": 4505,
      ")),": 4506,
      "assets": 4507,
      "Ġtypes": 4508,
      "Ġ'./": 4509,
      "Ġí": 4510,
      "ACE": 4511,
      "gorith": 4512,
      "ocia": 4513,
      "templates": 4514,
      "Ġpla": 4515,
      "Ġthrows": 4516,
      "ai": 4517,
      "Ġsection": 4518,
      "une": 4519,
      "Ġfail": 4520,
      "One": 4521,
      "(){": 4522,
      "Le": 4523,
      "Ġsen": 4524,
      "ĠError": 4525,
      "lab": 4526,
      "ĠWARRAN": 4527,
      "Ġprodu": 4528,
      "Ġcontinue": 4529,
      "ä½¿": 4530,
      "WORD": 4531,
      "eque": 4532,
      "%%%%": 4533,
      "Ġscript": 4534,
      "_.": 4535,
      "Ġacc": 4536,
      "Ġglobal": 4537,
      "Ġsomething": 4538,
      "Ġver": 4539,
      "Ġconnect": 4540,
      "=\"{{": 4541,
      "Docs": 4542,
      "Ġempty": 4543,
      "HHS": 4544,
      "Char": 4545,
      "fn": 4546,
      "Ðŀ": 4547,
      "lines": 4548,
      "eded": 4549,
      "ÐµÑĤ": 4550,
      "ĉĉĠĠ": 4551,
      "support": 4552,
      "Ġasset": 4553,
      "Ġpl": 4554,
      "Ġparse": 4555,
      "IGHT": 4556,
      "åĴ": 4557,
      "Ġdetails": 4558,
      "Expression": 4559,
      "Ġâ": 4560,
      "300": 4561,
      "Ġbuffer": 4562,
      "Ġselected": 4563,
      "Graph": 4564,
      "Ġhu": 4565,
      "Ġest": 4566,
      "Channel": 4567,
      "bt": 4568,
      "ĠSub": 4569,
      "Ð¾Ð»": 4570,
      "ecord": 4571,
      "roll": 4572,
      "Ġio": 4573,
      "Ġclear": 4574,
      "ynamic": 4575,
      "PROJECT": 4576,
      "Ġreturns": 4577,
      "ottom": 4578,
      "Ġpossible": 4579,
      "Ġow": 4580,
      "quests": 4581,
      "Ġsig": 4582,
      "Helper": 4583,
      "licit": 4584,
      "å¦": 4585,
      "ffic": 4586,
      "constraint": 4587,
      "ĠÂ": 4588,
      "microsoft": 4589,
      "hu": 4590,
      "}$": 4591,
      "END": 4592,
      "Ġ++": 4593,
      "UD": 4594,
      "second": 4595,
      "HER": 4596,
      "Ġ22": 4597,
      "éĿ": 4598,
      "Util": 4599,
      "Ġ21": 4600,
      "fit": 4601,
      "Ġactive": 4602,
      "oom": 4603,
      "Stack": 4604,
      "-->": 4605,
      "Game": 4606,
      "NLP": 4607,
      "Ġdatabase": 4608,
      "irm": 4609,
      "raft": 4610,
      "{}": 4611,
      "é¡": 4612,
      "netframework": 4613,
      "åĳ": 4614,
      "otal": 4615,
      "entity": 4616,
      "Ġpresen": 4617,
      "('/": 4618,
      "global": 4619,
      "PS": 4620,
      "Ġcr": 4621,
      "ä¸ĭ": 4622,
      ">();": 4623,
      "Report": 4624,
      "ãģ§": 4625,
      "PC": 4626,
      "ĠTher": 4627,
      "MT": 4628,
      "users": 4629,
      "è¿Ļ": 4630,
      "Ġ(-": 4631,
      "GB": 4632,
      "Ġkeep": 4633,
      "Ġ\",": 4634,
      "Integer": 4635,
      "eting": 4636,
      "Ġman": 4637,
      "Ġ23": 4638,
      "LOG": 4639,
      "Ġincluding": 4640,
      "ðŁ": 4641,
      "Ġstream": 4642,
      "tick": 4643,
      "ĠÐ¾": 4644,
      "Cal": 4645,
      "ĠSho": 4646,
      "Sc": 4647,
      "vec": 4648,
      "PER": 4649,
      "ĠCheck": 4650,
      "Ġinv": 4651,
      "bout": 4652,
      "Ġreally": 4653,
      "Engine": 4654,
      "1000": 4655,
      "ji": 4656,
      "opt": 4657,
      "ues": 4658,
      "padd": 4659,
      "Ġprovide": 4660,
      "Ġ(\"": 4661,
      "yntax": 4662,
      "à¥į": 4663,
      "trateg": 4664,
      "record": 4665,
      "Ġincr": 4666,
      "luci": 4667,
      "Ġbusiness": 4668,
      "ĠEl": 4669,
      "ngo": 4670,
      "tip": 4671,
      "Ã³n": 4672,
      "PT": 4673,
      "wp": 4674,
      "åĪ°": 4675,
      "before": 4676,
      "bile": 4677,
      "=\"${": 4678,
      "Ġperson": 4679,
      "'m": 4680,
      "Collections": 4681,
      "URE": 4682,
      "Ġnamespace": 4683,
      "))))": 4684,
      "Ġequ": 4685,
      "ĠÐ´": 4686,
      "464": 4687,
      "Ġthings": 4688,
      "Ġlicense": 4689,
      "2015": 4690,
      "ita": 4691,
      "utable": 4692,
      "ĠSta": 4693,
      "CRE": 4694,
      "........": 4695,
      "manager": 4696,
      "arr": 4697,
      "'])": 4698,
      "Ġvert": 4699,
      "login": 4700,
      "Ġ×": 4701,
      "Ġgoing": 4702,
      "ĠThere": 4703,
      "game": 4704,
      "Ġcommun": 4705,
      "Tri": 4706,
      "Ġeditor": 4707,
      "Product": 4708,
      "400": 4709,
      "ãģ¯": 4710,
      "uce": 4711,
      "ĠWIT": 4712,
      "Ġsay": 4713,
      "Ġclose": 4714,
      "Repository": 4715,
      "Widget": 4716,
      "\"},": 4717,
      "drop": 4718,
      "Ġentry": 4719,
      "playe": 4720,
      "zone": 4721,
      "Ġ<-": 4722,
      "Ġplan": 4723,
      "ĠMet": 4724,
      "register": 4725,
      "pred": 4726,
      "adata": 4727,
      "________": 4728,
      "olve": 4729,
      "\"],": 4730,
      "Ind": 4731,
      "uk": 4732,
      "mbda": 4733,
      "route": 4734,
      "trap": 4735,
      "player": 4736,
      "\"));": 4737,
      "IONS": 4738,
      "127": 4739,
      "mploy": 4740,
      "formance": 4741,
      "fields": 4742,
      "Ġ60": 4743,
      "Ġocc": 4744,
      "NN": 4745,
      "Ġaround": 4746,
      "Ġsign": 4747,
      "addr": 4748,
      "Ġdie": 4749,
      "ario": 4750,
      "ndor": 4751,
      "åī": 4752,
      "Ġ'',": 4753,
      "''": 4754,
      "Pi": 4755,
      "Storage": 4756,
      "blue": 4757,
      "æĸ¹": 4758,
      "etime": 4759,
      "ĠÐº": 4760,
      "å¤§": 4761,
      "ĠØ§ÙĦ": 4762,
      "ission": 4763,
      "Ġnone": 4764,
      "diff": 4765,
      "Include": 4766,
      "PATH": 4767,
      "esol": 4768,
      "Ġcallback": 4769,
      "final": 4770,
      "region": 4771,
      "ĠAct": 4772,
      "pop": 4773,
      "Ġenum": 4774,
      "(:": 4775,
      "render": 4776,
      "Impl": 4777,
      "Ġwi": 4778,
      "Display": 4779,
      "Ġmem": 4780,
      "Ġwriting": 4781,
      "resol": 4782,
      "åĴĮ": 4783,
      "ĠBa": 4784,
      "Ġgreat": 4785,
      "ĠWhen": 4786,
      "itude": 4787,
      "æĪĲ": 4788,
      "PORT": 4789,
      "Ġsend": 4790,
      "Ġtech": 4791,
      "æĪĳ": 4792,
      "Ġmont": 4793,
      "Red": 4794,
      "Ġ(*": 4795,
      "Ð·": 4796,
      "ngent": 4797,
      "iversity": 4798,
      "Reader": 4799,
      "SL": 4800,
      "She": 4801,
      "oop": 4802,
      "Ġencoding": 4803,
      "Ġrand": 4804,
      "alance": 4805,
      "MAX": 4806,
      "required": 4807,
      "QU": 4808,
      "Cur": 4809,
      "some": 4810,
      "Activity": 4811,
      "Icon": 4812,
      "Ġanal": 4813,
      "year": 4814,
      "ik": 4815,
      "illa": 4816,
      "ĠĠĠĠčĊ": 4817,
      "Ce": 4818,
      "nia": 4819,
      "free": 4820,
      "chool": 4821,
      "xref": 4822,
      "LECT": 4823,
      "Ġdri": 4824,
      "ord": 4825,
      "yy": 4826,
      "vid": 4827,
      "Ġstep": 4828,
      "configuration": 4829,
      "Ùĩ": 4830,
      "Ġ2017": 4831,
      "erved": 4832,
      "ette": 4833,
      "sheet": 4834,
      "pm": 4835,
      "Rule": 4836,
      "Ġdirect": 4837,
      "virtual": 4838,
      "iga": 4839,
      "rve": 4840,
      "nf": 4841,
      "Route": 4842,
      "BE": 4843,
      "Ġtests": 4844,
      "nda": 4845,
      "ìĿ´": 4846,
      "SR": 4847,
      "DEBUG": 4848,
      "åİ": 4849,
      "xff": 4850,
      "Ġ40": 4851,
      "Directory": 4852,
      "Ġhead": 4853,
      "romise": 4854,
      "xis": 4855,
      "Dialog": 4856,
      "Ġitems": 4857,
      "Callback": 4858,
      "Ġsort": 4859,
      "valida": 4860,
      "cated": 4861,
      "Document": 4862,
      "short": 4863,
      "çİ": 4864,
      "rule": 4865,
      "mut": 4866,
      "Ġhost": 4867,
      "Ġsec": 4868,
      "Ġconvert": 4869,
      "execution": 4870,
      "dius": 4871,
      "eto": 4872,
      "è¾": 4873,
      "Xml": 4874,
      "Ġ33": 4875,
      "Scale": 4876,
      "Ġbro": 4877,
      "PH": 4878,
      "Items": 4879,
      "Ġunt": 4880,
      "Ġconce": 4881,
      "bound": 4882,
      "<<": 4883,
      "Requ": 4884,
      "nsed": 4885,
      "#\"": 4886,
      "stack": 4887,
      "cm": 4888,
      "ÛĮ": 4889,
      "ĠUnit": 4890,
      "ĠMy": 4891,
      "ĠVAL": 4892,
      "èĥ½": 4893,
      "Account": 4894,
      "equal": 4895,
      "æ³ķ": 4896,
      "ivid": 4897,
      "Render": 4898,
      "Ġ64": 4899,
      "gest": 4900,
      "Ġpassword": 4901,
      "..\\..\\": 4902,
      "Ġscale": 4903,
      ")/": 4904,
      "ĠNode": 4905,
      "('#": 4906,
      "Compl": 4907,
      "nerg": 4908,
      "hre": 4909,
      "Ġcrea": 4910,
      "Ġwhether": 4911,
      "Ġtur": 4912,
      "Generic": 4913,
      "Ġappe": 4914,
      "bra": 4915,
      "Ġbutton": 4916,
      "__(": 4917,
      "Ġlibrary": 4918,
      "uses": 4919,
      "ider": 4920,
      "opacity": 4921,
      "plot": 4922,
      "ĠSome": 4923,
      ")'": 4924,
      "Ġ``": 4925,
      "Ġgot": 4926,
      "ëĬ": 4927,
      "NOT": 4928,
      "Ġever": 4929,
      "Ġjs": 4930,
      "ĠST": 4931,
      "JSON": 4932,
      "kernel": 4933,
      "ae": 4934,
      "2014": 4935,
      "Qu": 4936,
      "Ġkind": 4937,
      "Ġcy": 4938,
      "Ġbytes": 4939,
      "other": 4940,
      "fect": 4941,
      "Editor": 4942,
      "ĠWa": 4943,
      "Auth": 4944,
      "ulation": 4945,
      "Ġusers": 4946,
      "Any": 4947,
      "national": 4948,
      "Ġtangent": 4949,
      "Ġmsgid": 4950,
      "ragment": 4951,
      "Fon": 4952,
      "*)": 4953,
      "mont": 4954,
      "Ġenvironment": 4955,
      "OUT": 4956,
      "ĠAM": 4957,
      "åĪĨ": 4958,
      "Ġ\"#": 4959,
      "Ġdoesn": 4960,
      "espo": 4961,
      "ĠJSON": 4962,
      "Ġsolid": 4963,
      "isten": 4964,
      "TIES": 4965,
      "Ġsettings": 4966,
      ".$": 4967,
      "ç¨": 4968,
      "ĠÅ¿": 4969,
      "ĉĉĠĠĠ": 4970,
      "Space": 4971,
      "properties": 4972,
      "pass": 4973,
      "lg": 4974,
      "exe": 4975,
      "ById": 4976,
      "ificat": 4977,
      "met": 4978,
      "uthentic": 4979,
      "prefix": 4980,
      "Ġtexture": 4981,
      "toString": 4982,
      "Ġrepresen": 4983,
      "actions": 4984,
      "Ġservices": 4985,
      "Show": 4986,
      "POS": 4987,
      "Vert": 4988,
      "Font": 4989,
      "ĠURL": 4990,
      "zip": 4991,
      "Ġexception": 4992,
      ";->": 4993,
      "Ġable": 4994,
      "XML": 4995,
      "'=>": 4996,
      "Ġweek": 4997,
      "Wi": 4998,
      "ermi": 4999,
      "area": 5000,
      "sults": 5001,
      "å¦Ĥ": 5002,
      "å¯¹": 5003,
      "Ġjob": 5004,
      "acy": 5005,
      "DR": 5006,
      "prec": 5007,
      "erso": 5008,
      "croll": 5009,
      "TEST": 5010,
      "alpha": 5011,
      "liance": 5012,
      "Ġbett": 5013,
      "tric": 5014,
      "ĠMi": 5015,
      "Ġunsigned": 5016,
      "blob": 5017,
      "ĠWeb": 5018,
      "Ġbette": 5019,
      "ĠSoftware": 5020,
      "lors": 5021,
      "bil": 5022,
      "Enabled": 5023,
      "Ġbetter": 5024,
      "BC": 5025,
      "çĲ": 5026,
      "EE": 5027,
      "egal": 5028,
      "Ø§Ø": 5029,
      "Uni": 5030,
      "foo": 5031,
      "Ġrights": 5032,
      "cn": 5033,
      "vance": 5034,
      "Ġgenerate": 5035,
      "Ġ^": 5036,
      "azure": 5037,
      "Ġagain": 5038,
      "rating": 5039,
      "ãĥĪ": 5040,
      "iteral": 5041,
      "peline": 5042,
      "lar": 5043,
      "bre": 5044,
      "Ġpub": 5045,
      "after": 5046,
      "Ġchannel": 5047,
      "Player": 5048,
      "ral": 5049,
      "=$": 5050,
      "'r": 5051,
      "'re": 5052,
      "edent": 5053,
      "Prin": 5054,
      "lyph": 5055,
      "Ada": 5056,
      "375": 5057,
      "Ġworking": 5058,
      "Ġcannot": 5059,
      "padding": 5060,
      "Invalid": 5061,
      "Ġexpress": 5062,
      "sted": 5063,
      "éģ": 5064,
      "errors": 5065,
      "Ġ{},": 5066,
      "ĠInter": 5067,
      "real": 5068,
      "SIZE": 5069,
      "CDATA": 5070,
      "times": 5071,
      "jor": 5072,
      "tstrap": 5073,
      "Ġ[[": 5074,
      "mock": 5075,
      "Ġrunning": 5076,
      "Ġsent": 5077,
      "kens": 5078,
      "ãĤ¹": 5079,
      "Operation": 5080,
      "Ġthree": 5081,
      "425": 5082,
      "ificate": 5083,
      "hidden": 5084,
      "Ne": 5085,
      "æĬ": 5086,
      "impl": 5087,
      "chedule": 5088,
      "shared": 5089,
      "ä½ľ": 5090,
      "(\\": 5091,
      "cep": 5092,
      "SION": 5093,
      "Ġexperience": 5094,
      "SERT": 5095,
      "modal": 5096,
      "ashboard": 5097,
      "Ġans": 5098,
      "MB": 5099,
      "6666": 5100,
      "lates": 5101,
      ")|": 5102,
      "sur": 5103,
      "termi": 5104,
      "Float": 5105,
      "Ġcontains": 5106,
      "services": 5107,
      "arn": 5108,
      "PAR": 5109,
      "OB": 5110,
      "uss": 5111,
      "Ite": 5112,
      "Ġlight": 5113,
      "nary": 5114,
      "ĠAssert": 5115,
      "à¤°": 5116,
      "ially": 5117,
      "Ġcontainer": 5118,
      "Remove": 5119,
      "ittle": 5120,
      "á½": 5121,
      "ĠOpen": 5122,
      "uthoriz": 5123,
      "tations": 5124,
      "419": 5125,
      ">\"": 5126,
      "install": 5127,
      "ione": 5128,
      "rien": 5129,
      "wiki": 5130,
      "Ġ$\\": 5131,
      "donly": 5132,
      "eger": 5133,
      "thers": 5134,
      "}.": 5135,
      "Ġchildr": 5136,
      "blish": 5137,
      "DS": 5138,
      "Ġcommon": 5139,
      "Obj": 5140,
      "ĠCe": 5141,
      "ç¬": 5142,
      "dist": 5143,
      "bg": 5144,
      "Ġcollection": 5145,
      "transform": 5146,
      "tter": 5147,
      "Ġchildre": 5148,
      "ational": 5149,
      ")).": 5150,
      "Ùī": 5151,
      "Ġchildren": 5152,
      "licenses": 5153,
      "Ð¢": 5154,
      "è¨": 5155,
      "STAT": 5156,
      "Files": 5157,
      "ĠPre": 5158,
      "havior": 5159,
      "ä½¿çĶ¨": 5160,
      "ĠCondition": 5161,
      "ĠPRO": 5162,
      "dial": 5163,
      "Ïģ": 5164,
      "usic": 5165,
      "Ġapply": 5166,
      "0000000": 5167,
      "fac": 5168,
      "rf": 5169,
      "Ġpred": 5170,
      "random": 5171,
      "Ġless": 5172,
      "eclipse": 5173,
      "unch": 5174,
      "van": 5175,
      "mask": 5176,
      "izing": 5177,
      "Metadata": 5178,
      "blished": 5179,
      "ĉĠĠĠĠĠĠ": 5180,
      "ĠOption": 5181,
      "Framework": 5182,
      "ĠException": 5183,
      "Ġmen": 5184,
      "SQL": 5185,
      "loo": 5186,
      "ĠReturns": 5187,
      "POST": 5188,
      "ĠMay": 5189,
      "ĠinSlope": 5190,
      "ĠoutSlope": 5191,
      "___": 5192,
      "dentity": 5193,
      "ield": 5194,
      "Ġraise": 5195,
      "ĠtangentMode": 5196,
      "hird": 5197,
      ":</": 5198,
      "ĠApache": 5199,
      "Ġhash": 5200,
      "domain": 5201,
      "rapper": 5202,
      "Ġrec": 5203,
      "Ġbelow": 5204,
      "101": 5205,
      "License": 5206,
      "Panel": 5207,
      "aring": 5208,
      "Ġswitch": 5209,
      "Ġprevious": 5210,
      "Ġqual": 5211,
      "tage": 5212,
      "\"`": 5213,
      "Ġsha": 5214,
      "Ġlos": 5215,
      "áº": 5216,
      ")->": 5217,
      "job": 5218,
      "aded": 5219,
      "Ġspe": 5220,
      "ÑĨ": 5221,
      "raction": 5222,
      "Ġcorrect": 5223,
      "Forms": 5224,
      "hl": 5225,
      "GR": 5226,
      "Ġstop": 5227,
      "è¡¨": 5228,
      "ĠAmeri": 5229,
      "ĠJo": 5230,
      "ixed": 5231,
      "ĠUpdate": 5232,
      "Queue": 5233,
      "åĩº": 5234,
      "vest": 5235,
      "Ġinline": 5236,
      "FLAG": 5237,
      "Found": 5238,
      "utt": 5239,
      "ï¼ī": 5240,
      "ĠSO": 5241,
      "Ġfields": 5242,
      ";\">": 5243,
      "Ġ{@": 5244,
      "WS": 5245,
      "XT": 5246,
      "Ġthread": 5247,
      "PP": 5248,
      "Ġapi": 5249,
      "ï¼Ī": 5250,
      "Ġunders": 5251,
      "UES": 5252,
      "Ġrelease": 5253,
      "Ġrev": 5254,
      "Ġap": 5255,
      "sse": 5256,
      "\"\"\"": 5257,
      "Ġsave": 5258,
      "teger": 5259,
      "Ð¾Ð´": 5260,
      "4098": 5261,
      "ĠKey": 5262,
      "uthentication": 5263,
      "black": 5264,
      "Only": 5265,
      "Note": 5266,
      "REG": 5267,
      "Security": 5268,
      "åŁ": 5269,
      "Ġtemp": 5270,
      "egat": 5271,
      "å¥": 5272,
      "lia": 5273,
      "ives": 5274,
      "#~": 5275,
      "Ġselection": 5276,
      "Ġ!==": 5277,
      "Admin": 5278,
      "rist": 5279,
      "braries": 5280,
      "ilar": 5281,
      "Ġide": 5282,
      "llect": 5283,
      "Ġfeature": 5284,
      "Changed": 5285,
      "nteger": 5286,
      "ĠĠĠĠĠĠĠĠĠĠĠĠĠĠĠĠĠĊ": 5287,
      "UID": 5288,
      "lim": 5289,
      "poly": 5290,
      "Ġinstead": 5291,
      "ĠOut": 5292,
      "vendor": 5293,
      ",$": 5294,
      "hanks": 5295,
      "ëĬĶ": 5296,
      "CF": 5297,
      "Card": 5298,
      "kers": 5299,
      "ials": 5300,
      "nen": 5301,
      "Ġcommit": 5302,
      "Ð¾Ðº": 5303,
      ":/": 5304,
      "ç®": 5305,
      "Role": 5306,
      "Policy": 5307,
      "çĤ": 5308,
      "nergy": 5309,
      "ĠNa": 5310,
      "article": 5311,
      "////////////////////////////////": 5312,
      "vs": 5313,
      "issing": 5314,
      "Ġ2016": 5315,
      "integer": 5316,
      "nex": 5317,
      "Ġfailed": 5318,
      "Shape": 5319,
      "Pay": 5320,
      "tea": 5321,
      "\\_": 5322,
      "Variable": 5323,
      "Ġdepende": 5324,
      "Ġoperation": 5325,
      "Ð±": 5326,
      "Support": 5327,
      "Ġ>>": 5328,
      "bsolute": 5329,
      "egate": 5330,
      "frac": 5331,
      "ç¤": 5332,
      "gorithm": 5333,
      "Ġsimple": 5334,
      "++;": 5335,
      "nl": 5336,
      "Ġgraph": 5337,
      "Place": 5338,
      "Ġmethods": 5339,
      "à¯": 5340,
      "classe": 5341,
      "fri": 5342,
      "Custom": 5343,
      "ĠWARRANTIES": 5344,
      "Ġ];": 5345,
      "words": 5346,
      "/.": 5347,
      "Ġscope": 5348,
      "READ": 5349,
      "'];": 5350,
      "Common": 5351,
      "Ġcome": 5352,
      "MI": 5353,
      "alk": 5354,
      "Ġtree": 5355,
      "Ð¸ÑĤ": 5356,
      "à²": 5357,
      "Active": 5358,
      "ek": 5359,
      "Ġundefined": 5360,
      "Ġfew": 5361,
      "urt": 5362,
      "DD": 5363,
      "æĽ": 5364,
      "Ġ(+": 5365,
      "urrency": 5366,
      "áŀ": 5367,
      "bytes": 5368,
      "Ġbig": 5369,
      "ĠThey": 5370,
      "tk": 5371,
      "Ġtmp": 5372,
      "Rat": 5373,
      "Ġnever": 5374,
      "INSERT": 5375,
      "ìĦ": 5376,
      "vc": 5377,
      "æı": 5378,
      "Ġ255": 5379,
      "TL": 5380,
      "score": 5381,
      "Ġite": 5382,
      "bri": 5383,
      "Ġmultiple": 5384,
      "Ġnet": 5385,
      "Attributes": 5386,
      "_,": 5387,
      "Msg": 5388,
      "################################": 5389,
      "Identifier": 5390,
      "zontal": 5391,
      "ãģĮ": 5392,
      "nization": 5393,
      "Ġ\"\",": 5394,
      "unsigned": 5395,
      "eer": 5396,
      "150": 5397,
      "serial": 5398,
      "classes": 5399,
      "matrix": 5400,
      "Ġhand": 5401,
      "mov": 5402,
      "ĠLO": 5403,
      "tatist": 5404,
      "cover": 5405,
      "sample": 5406,
      "istration": 5407,
      "allow": 5408,
      "çĲĨ": 5409,
      "iting": 5410,
      "ONE": 5411,
      "Ġmeans": 5412,
      "includes": 5413,
      "training": 5414,
      "ille": 5415,
      "Make": 5416,
      "Ġvia": 5417,
      "vg": 5418,
      "white": 5419,
      "naps": 5420,
      ">{": 5421,
      "Ph": 5422,
      "urn": 5423,
      "ãģ¨": 5424,
      "Ð¾ÑĢ": 5425,
      "Ġhel": 5426,
      "Network": 5427,
      "oint": 5428,
      "Ġ80": 5429,
      "ocial": 5430,
      "scala": 5431,
      "Ġteam": 5432,
      "Non": 5433,
      "Ġproperties": 5434,
      "Profile": 5435,
      "ĠĠĠĠĠĠĠĠĠĠĠĠĠĠĠĠĠĠĊ": 5436,
      "Ġmean": 5437,
      "cap": 5438,
      "LICENSE": 5439,
      "Models": 5440,
      "ims": 5441,
      "Ġpower": 5442,
      "Ġerrors": 5443,
      "Ïĥ": 5444,
      "SY": 5445,
      "Ġfri": 5446,
      "Ġbox": 5447,
      ">;": 5448,
      "Ġimportant": 5449,
      "rker": 5450,
      "dr": 5451,
      "StyleID": 5452,
      ".<": 5453,
      "nsor": 5454,
      "ĠHo": 5455,
      "Ġanno": 5456,
      "initial": 5457,
      "Host": 5458,
      "mk": 5459,
      "Logger": 5460,
      "gex": 5461,
      "çľ": 5462,
      "taining": 5463,
      "details": 5464,
      "ina": 5465,
      "æľ¬": 5466,
      "(!": 5467,
      "Ġmemory": 5468,
      "468": 5469,
      "queue": 5470,
      "Public": 5471,
      "bos": 5472,
      "Ġig": 5473,
      "ball": 5474,
      "iag": 5475,
      "Op": 5476,
      "ĠDefault": 5477,
      "123": 5478,
      "ÐµÐ´": 5479,
      "ĠAt": 5480,
      "[$": 5481,
      "storage": 5482,
      "Ġsubject": 5483,
      "Ġonce": 5484,
      "Writer": 5485,
      "Ġentity": 5486,
      "ustomer": 5487,
      "ĠINTO": 5488,
      "ĠProject": 5489,
      "rtain": 5490,
      "æĸ°": 5491,
      "irc": 5492,
      "AV": 5493,
      "ĠInd": 5494,
      "rify": 5495,
      "Ġva": 5496,
      "ĠMem": 5497,
      "resh": 5498,
      "Su": 5499,
      "chai": 5500,
      "RI": 5501,
      "ĠCl": 5502,
      "ãģ¾": 5503,
      "variable": 5504,
      "kes": 5505,
      "Ġhappe": 5506,
      "dot": 5507,
      "javas": 5508,
      "esults": 5509,
      "Ġcos": 5510,
      "bad": 5511,
      "rypto": 5512,
      "Ġtimes": 5513,
      "Desc": 5514,
      "egi": 5515,
      "operator": 5516,
      "Ġoriginal": 5517,
      "wd": 5518,
      "created": 5519,
      "èµ": 5520,
      "eas": 5521,
      "Ġage": 5522,
      "usion": 5523,
      "Category": 5524,
      "')->": 5525,
      "NG": 5526,
      "uting": 5527,
      "ï»": 5528,
      "UTF": 5529,
      "humb": 5530,
      "quare": 5531,
      "Argument": 5532,
      "Ġrandom": 5533,
      "Ġder": 5534,
      "yo": 5535,
      "flex": 5536,
      "æį®": 5537,
      "ĠMap": 5538,
      "Ġali": 5539,
      "herit": 5540,
      "licable": 5541,
      "Perm": 5542,
      "Ġdont": 5543,
      "results": 5544,
      "Init": 5545,
      "Folder": 5546,
      "primary": 5547,
      "Has": 5548,
      "ima": 5549,
      "voice": 5550,
      "Bytes": 5551,
      "Art": 5552,
      "Align": 5553,
      "OF": 5554,
      "ĠEvent": 5555,
      "Ġneeds": 5556,
      "Ġnames": 5557,
      "wat": 5558,
      "ĠCount": 5559,
      "ç½®": 5560,
      "\"/></": 5561,
      "tegories": 5562,
      "Ġmodels": 5563,
      "ndef": 5564,
      "Media": 5565,
      "Ġ\"-": 5566,
      "Ġsmall": 5567,
      "hn": 5568,
      "Ġicon": 5569,
      "(\"#": 5570,
      "When": 5571,
      "Ġ1000": 5572,
      "ĠReact": 5573,
      "Bit": 5574,
      "dest": 5575,
      "jup": 5576,
      "ERT": 5577,
      "160": 5578,
      "Ġwebsite": 5579,
      "MemberType": 5580,
      "Ġcla": 5581,
      "è½": 5582,
      "à§": 5583,
      "ä¸Ģä¸ª": 5584,
      "Ġatt": 5585,
      "Warning": 5586,
      "Meta": 5587,
      "iation": 5588,
      "logger": 5589,
      "ism": 5590,
      "2013": 5591,
      "ÐµÐ½Ð¸": 5592,
      "Hea": 5593,
      "yter": 5594,
      "boo": 5595,
      "ĠHa": 5596,
      "documentation": 5597,
      "tangle": 5598,
      "USER": 5599,
      "Convert": 5600,
      "Ġcache": 5601,
      "expr": 5602,
      "fb": 5603,
      "Wh": 5604,
      "inu": 5605,
      "ociated": 5606,
      ")\">": 5607,
      "ï»¿": 5608,
      "ĠRead": 5609,
      "AX": 5610,
      "Ġalpha": 5611,
      "cla": 5612,
      "íķĺ": 5613,
      "ĠFe": 5614,
      "SU": 5615,
      "closed": 5616,
      "Ġcomment": 5617,
      "OM": 5618,
      "HOUT": 5619,
      "Names": 5620,
      "Tab": 5621,
      "=(": 5622,
      "equals": 5623,
      "Ġevents": 5624,
      "ĠView": 5625,
      "Services": 5626,
      "600": 5627,
      "è´": 5628,
      "Ġrate": 5629,
      "ROOT": 5630,
      "packages": 5631,
      "Ġrespo": 5632,
      "Ġplease": 5633,
      "Ñİ": 5634,
      "Ha": 5635,
      "lb": 5636,
      "Each": 5637,
      "ä¼ļ": 5638,
      "Struct": 5639,
      "Ġexternal": 5640,
      "ĠGene": 5641,
      "Ġadmin": 5642,
      "uation": 5643,
      "xd": 5644,
      "tell": 5645,
      "ĠcallPackage": 5646,
      "ĉĠĠĠĠĠĠĠ": 5647,
      "Sha": 5648,
      "107": 5649,
      "ĠCode": 5650,
      "ĠModel": 5651,
      "eo": 5652,
      "perso": 5653,
      "tomic": 5654,
      "Release": 5655,
      "æĭ": 5656,
      "ĠPh": 5657,
      "Long": 5658,
      "Mask": 5659,
      "just": 5660,
      "ĠIP": 5661,
      "Ġ28": 5662,
      "Sp": 5663,
      "javascript": 5664,
      "/\"": 5665,
      "Func": 5666,
      "fp": 5667,
      "hicle": 5668,
      "au": 5669,
      "sident": 5670,
      "xb": 5671,
      "springframework": 5672,
      ".__": 5673,
      "Boolean": 5674,
      "Flow": 5675,
      "åĲį": 5676,
      "Ġenable": 5677,
      "Depende": 5678,
      "pand": 5679,
      "112": 5680,
      "CTION": 5681,
      "VALUE": 5682,
      "Ġnotice": 5683,
      "105": 5684,
      "Ġflex": 5685,
      "nology": 5686,
      "Assert": 5687,
      "oor": 5688,
      "Ġtal": 5689,
      "ordinates": 5690,
      "Password": 5691,
      "ReturnValue": 5692,
      "ationship": 5693,
      "Ġarea": 5694,
      "Ġcourse": 5695,
      "selected": 5696,
      "eturned": 5697,
      "Ġexport": 5698,
      "Ġ199": 5699,
      "Cen": 5700,
      "xFF": 5701,
      "enum": 5702,
      "blog": 5703,
      "Can": 5704,
      "Ent": 5705,
      "ĠRed": 5706,
      "uring": 5707,
      "ncode": 5708,
      "ĠFunction": 5709,
      "Ã§Ã£o": 5710,
      "Ġconditions": 5711,
      "upload": 5712,
      "enable": 5713,
      "iling": 5714,
      "Ġmember": 5715,
      "runtime": 5716,
      "é¢": 5717,
      "Ġfunctions": 5718,
      "lug": 5719,
      "Total": 5720,
      "åħ¥": 5721,
      "Ġrelative": 5722,
      "simple": 5723,
      "tly": 5724,
      "Ġhard": 5725,
      "ĠWhat": 5726,
      "Ġagainst": 5727,
      "ĠĠĠĠĠĠĠĠĠĠĠĠĠĠĠĠĠĠĠĊ": 5728,
      "Matrix": 5729,
      "ìł": 5730,
      "ICE": 5731,
      "Ġpermissions": 5732,
      "ĠTH": 5733,
      "egin": 5734,
      "à¸²": 5735,
      "ĠWindows": 5736,
      "Ġpy": 5737,
      "csv": 5738,
      "Ġ[],": 5739,
      "Ġsizeof": 5740,
      "Ġear": 5741,
      "\"/><": 5742,
      "ĠNS": 5743,
      "iver": 5744,
      "DIT": 5745,
      "TC": 5746,
      "ILITY": 5747,
      "æµ": 5748,
      "ç±": 5749,
      "jj": 5750,
      "cking": 5751,
      "cli": 5752,
      "urch": 5753,
      "Ġmedia": 5754,
      "reach": 5755,
      "Ġuntil": 5756,
      "endar": 5757,
      "DATA": 5758,
      "Ġdays": 5759,
      "mediat": 5760,
      "ĠInc": 5761,
      "ĠPublic": 5762,
      "Ġamount": 5763,
      "Feature": 5764,
      "ĠEnd": 5765,
      "BB": 5766,
      "Ġlove": 5767,
      "pad": 5768,
      "Props": 5769,
      "äºİ": 5770,
      "ridge": 5771,
      "Ġleast": 5772,
      "åıĸ": 5773,
      "Ġ2015": 5774,
      "Enum": 5775,
      "ounds": 5776,
      "æ¯": 5777,
      "109": 5778,
      "small": 5779,
      "junit": 5780,
      "duration": 5781,
      "expected": 5782,
      "Close": 5783,
      "tories": 5784,
      "ANT": 5785,
      "çº": 5786,
      "ÏĤ": 5787,
      "peat": 5788,
      "Ġmar": 5789,
      "database": 5790,
      "Ġprot": 5791,
      "IV": 5792,
      "IST": 5793,
      "Ġinteger": 5794,
      "Pattern": 5795,
      "ilters": 5796,
      "nom": 5797,
      "ReturnType": 5798,
      "Ġeval": 5799,
      "ĠUI": 5800,
      "\")]": 5801,
      "Ġimplementation": 5802,
      "MIN": 5803,
      "rai": 5804,
      "nance": 5805,
      "livery": 5806,
      "Step": 5807,
      "Distribute": 5808,
      "kw": 5809,
      "eet": 5810,
      "Ġactual": 5811,
      "Ġpack": 5812,
      "ĠImage": 5813,
      "Ġelements": 5814,
      "Global": 5815,
      "lier": 5816,
      "Ġhealth": 5817,
      "ullable": 5818,
      "Ġ\"%": 5819,
      "Anal": 5820,
      "fully": 5821,
      "EC": 5822,
      "Ġuses": 5823,
      "ĠâĢĺ": 5824,
      "ALSE": 5825,
      "Sk": 5826,
      "VB": 5827,
      "flag": 5828,
      "iat": 5829,
      "ÅŁ": 5830,
      "Ġ```": 5831,
      "Ġens": 5832,
      "Ġarguments": 5833,
      "ifes": 5834,
      "Mock": 5835,
      "ĠShe": 5836,
      "dec": 5837,
      "trategy": 5838,
      "Ġwat": 5839,
      "Ðķ": 5840,
      "ĠÐ¿ÑĢ": 5841,
      "Ġcompany": 5842,
      "Ġdraw": 5843,
      "troll": 5844,
      "nual": 5845,
      "Ġnav": 5846,
      "enc": 5847,
      "ĠVALUES": 5848,
      "FIG": 5849,
      "Ġstandard": 5850,
      "Occ": 5851,
      "cade": 5852,
      "zer": 5853,
      "Ġapplicable": 5854,
      "ĠInitialized": 5855,
      "Ġseem": 5856,
      "rove": 5857,
      "inner": 5858,
      "GG": 5859,
      "collection": 5860,
      "Ġ'@": 5861,
      "VERSION": 5862,
      "ĠTask": 5863,
      "Ġreq": 5864,
      "Hub": 5865,
      "Ġhtml": 5866,
      "Pack": 5867,
      "dom": 5868,
      "Ġauthor": 5869,
      "ä¹ĭ": 5870,
      "pic": 5871,
      "condition": 5872,
      "FC": 5873,
      "COL": 5874,
      "Ġsample": 5875,
      "ãĤ¤": 5876,
      "Ġ..": 5877,
      "sis": 5878,
      "ĠWITHOUT": 5879,
      "counts": 5880,
      "tensor": 5881,
      "104": 5882,
      "price": 5883,
      "witt": 5884,
      "Ġshape": 5885,
      "Ġtool": 5886,
      "CESS": 5887,
      "til": 5888,
      "Ġpor": 5889,
      "Ġsolution": 5890,
      "Ġobtain": 5891,
      "panel": 5892,
      "allet": 5893,
      "Ġlot": 5894,
      "sli": 5895,
      "builder": 5896,
      "ometry": 5897,
      "Ġfeatures": 5898,
      "Normal": 5899,
      "provider": 5900,
      "{%": 5901,
      "Ġinvoke": 5902,
      "108": 5903,
      "led": 5904,
      "ĠĠĠĠĠĠĠĠĠĠĠĠĠĠĠĠĠĠĠĠĊ": 5905,
      "'ll": 5906,
      "ĠBase": 5907,
      "What": 5908,
      "mented": 5909,
      "mers": 5910,
      "Ġsys": 5911,
      "pdf": 5912,
      "batch": 5913,
      "Ġadditional": 5914,
      "Ġoperator": 5915,
      "Ġok": 5916,
      "æīĢ": 5917,
      "ĠâĢĶ": 5918,
      "corr": 5919,
      "ìĹĲ": 5920,
      "Nav": 5921,
      "Ġreplace": 5922,
      "æĿ¥": 5923,
      "Success": 5924,
      "Ġctx": 5925,
      "ĠCor": 5926,
      ".\",": 5927,
      "Ġfamily": 5928,
      "Ġlittle": 5929,
      "168": 5930,
      "witte": 5931,
      "owever": 5932,
      "fail": 5933,
      "Ġpret": 5934,
      "only": 5935,
      "DA": 5936,
      "Management": 5937,
      "Ġplayer": 5938,
      "Ġspecial": 5939,
      "ĠLoc": 5940,
      ")}": 5941,
      "chain": 5942,
      "boolean": 5943,
      "rive": 5944,
      "Scope": 5945,
      "uby": 5946,
      "geo": 5947,
      "ÏĢ": 5948,
      "Ġ27": 5949,
      "ë¥": 5950,
      "å¼ı": 5951,
      "tuple": 5952,
      "witter": 5953,
      "Ġcard": 5954,
      "ilo": 5955,
      "ÐĶ": 5956,
      "olver": 5957,
      "parser": 5958,
      "traints": 5959,
      "SK": 5960,
      "ãģª": 5961,
      "('.": 5962,
      "ĠCen": 5963,
      "nitor": 5964,
      "ients": 5965,
      "ĠCar": 5966,
      "ifest": 5967,
      "Copy": 5968,
      "Hin": 5969,
      "Ġundersta": 5970,
      "Parent": 5971,
      "Email": 5972,
      "102": 5973,
      "prop": 5974,
      "ç¨ĭ": 5975,
      "ARY": 5976,
      "theme": 5977,
      "Ġreason": 5978,
      "lies": 5979,
      "contact": 5980,
      "Ġforeach": 5981,
      "Ġhosp": 5982,
      "Ġpai": 5983,
      ")*": 5984,
      "bor": 5985,
      "IGN": 5986,
      "Ġdet": 5987,
      "Match": 5988,
      "Details": 5989,
      "Qual": 5990,
      "TA": 5991,
      "Ġfin": 5992,
      "+\"": 5993,
      "Ġlib": 5994,
      "Flags": 5995,
      "PUT": 5996,
      "Ł¥": 5997,
      "ĠDel": 5998,
      "æĥ": 5999,
      "ÂłÂł": 6000,
      "ĠServer": 6001,
      "ĠAS": 6002,
      "åĲİ": 6003,
      "bat": 6004,
      ">:": 6005,
      "Ġclick": 6006,
      "ĠPP": 6007,
      "cut": 6008,
      "ium": 6009,
      "ever": 6010,
      "ë¡": 6011,
      "Plugin": 6012,
      "EXT": 6013,
      "Ġterms": 6014,
      "Ġsit": 6015,
      "docker": 6016,
      "DC": 6017,
      "Job": 6018,
      "Ġ{'": 6019,
      "Ġextra": 6020,
      "Static": 6021,
      "eset": 6022,
      "Ġcompa": 6023,
      "èĩª": 6024,
      "LA": 6025,
      "Ġbar": 6026,
      "ÑĪ": 6027,
      "third": 6028,
      "screen": 6029,
      "æ±": 6030,
      "ĠFOR": 6031,
      "Ġsever": 6032,
      "tex": 6033,
      "Ġko": 6034,
      "ĠAR": 6035,
      "æ²": 6036,
      "Ġworks": 6037,
      "||": 6038,
      "cate": 6039,
      "cogn": 6040,
      "Ġdocumentation": 6041,
      "åŃĹ": 6042,
      "ĉĉĉĉĉĉĉĉĉ": 6043,
      "180": 6044,
      "console": 6045,
      "Ġund": 6046,
      "wt": 6047,
      "cuss": 6048,
      "Ġneeded": 6049,
      "Ġmodules": 6050,
      "covery": 6051,
      "åīį": 6052,
      "security": 6053,
      "åĬł": 6054,
      "encode": 6055,
      "itch": 6056,
      "Ġcompile": 6057,
      "Ġstructure": 6058,
      "ĠNote": 6059,
      "merge": 6060,
      "apply": 6061,
      "println": 6062,
      "ntion": 6063,
      "Ġdebug": 6064,
      "dim": 6065,
      "material": 6066,
      "ÐĴ": 6067,
      "Tr": 6068,
      "Ġargument": 6069,
      "'ve": 6070,
      "Ġ26": 6071,
      "ivation": 6072,
      "angl": 6073,
      "feature": 6074,
      "Simple": 6075,
      "xi": 6076,
      "ĠFROM": 6077,
      "Hint": 6078,
      "Ġbecome": 6079,
      "Sql": 6080,
      "ttl": 6081,
      "PECT": 6082,
      "reset": 6083,
      "ÙĤ": 6084,
      "Ġseg": 6085,
      "ĠUS": 6086,
      "Ġexpression": 6087,
      "Initial": 6088,
      "Ġente": 6089,
      "events": 6090,
      "iers": 6091,
      "ĠUniversity": 6092,
      "Mar": 6093,
      "ãĤĮ": 6094,
      "ĠStart": 6095,
      "Ġyet": 6096,
      "topic": 6097,
      "linear": 6098,
      "gat": 6099,
      "Pool": 6100,
      "ĠThat": 6101,
      "Ġobjects": 6102,
      "=\".": 6103,
      "fmt": 6104,
      "talog": 6105,
      "II": 6106,
      "ĠLice": 6107,
      "mbed": 6108,
      "produ": 6109,
      "Ġwhy": 6110,
      "WN": 6111,
      "eak": 6112,
      "Ð»Ð¸": 6113,
      "åıĳ": 6114,
      "ĠdontDistribute": 6115,
      "iagnos": 6116,
      "Ġdecl": 6117,
      "/)": 6118,
      "Rad": 6119,
      "çĶŁ": 6120,
      "Ġpresent": 6121,
      "submit": 6122,
      "ynch": 6123,
      "PASS": 6124,
      "rong": 6125,
      "0000000000000000": 6126,
      "emma": 6127,
      "His": 6128,
      "Ġwhite": 6129,
      "Ġjo": 6130,
      "Ġ<?": 6131,
      ",âĢĿ": 6132,
      "Adapter": 6133,
      "Detail": 6134,
      "ĠNO": 6135,
      "Ùģ": 6136,
      "controller": 6137,
      "ãĥ¼ãĥ": 6138,
      "ĠPart": 6139,
      "ìļ": 6140,
      "âĢĵ": 6141,
      "Ġvector": 6142,
      "CODE": 6143,
      "llumi": 6144,
      "outh": 6145,
      "Ã©s": 6146,
      "execute": 6147,
      "USE": 6148,
      "radius": 6149,
      "ĠPat": 6150,
      "Ġrep": 6151,
      "nipp": 6152,
      "Ġ(_": 6153,
      "Par": 6154,
      "ctions": 6155,
      "ê°": 6156,
      "ÑĢÐ°Ð": 6157,
      "Ġregister": 6158,
      "ĠRun": 6159,
      "anal": 6160,
      "SV": 6161,
      "ulture": 6162,
      "UNT": 6163,
      "Laye": 6164,
      "ç±»": 6165,
      "rypt": 6166,
      "Ð¹": 6167,
      "ĠVe": 6168,
      "detail": 6169,
      "Ġask": 6170,
      "à¨": 6171,
      "xA": 6172,
      "por": 6173,
      "angle": 6174,
      ",\\": 6175,
      "Ġmed": 6176,
      "arte": 6177,
      "æ¬": 6178,
      "month": 6179,
      "Jo": 6180,
      "Cha": 6181,
      "FS": 6182,
      "****************************************************************": 6183,
      "Ġrdf": 6184,
      "pend": 6185,
      "Ġreturned": 6186,
      "Ġcharact": 6187,
      "ĉĉĉĠ": 6188,
      "Ġsetup": 6189,
      "Ġcomplete": 6190,
      "Memory": 6191,
      "Ġproba": 6192,
      "pb": 6193,
      "Compa": 6194,
      "callback": 6195,
      "handler": 6196,
      "inge": 6197,
      "Exp": 6198,
      "ĠKIND": 6199,
      "115": 6200,
      "lte": 6201,
      "Ġcategory": 6202,
      "Extensions": 6203,
      "Ġconsider": 6204,
      "Library": 6205,
      "HTML": 6206,
      "Layer": 6207,
      "extension": 6208,
      "After": 6209,
      "Ġreadonly": 6210,
      "ç¤º": 6211,
      "ãĤ¯": 6212,
      "tics": 6213,
      "EQ": 6214,
      "Ġstorage": 6215,
      "Ġruntime": 6216,
      "Ġnecess": 6217,
      "Ġmid": 6218,
      "pair": 6219,
      "Ġfur": 6220,
      "video": 6221,
      "449": 6222,
      "Ġelif": 6223,
      "WE": 6224,
      "ĠVal": 6225,
      "exists": 6226,
      "nant": 6227,
      "(`": 6228,
      "CHE": 6229,
      "ĠVector": 6230,
      "Ġche": 6231,
      "aws": 6232,
      "117": 6233,
      "Ġlead": 6234,
      "ability": 6235,
      "Car": 6236,
      "ìŀ": 6237,
      "shold": 6238,
      "ĠHel": 6239,
      "133": 6240,
      "Ġparam": 6241,
      "jupyter": 6242,
      "çŃ": 6243,
      "Ġconstructor": 6244,
      "Internal": 6245,
      "åĵ": 6246,
      "ĠMath": 6247,
      "Ġkeys": 6248,
      "Ġallows": 6249,
      "Ġ{:": 6250,
      "star": 6251,
      "åŃĺ": 6252,
      "Ġ2022": 6253,
      "Ġmaster": 6254,
      "Ġ(>=": 6255,
      "Ġdiv": 6256,
      "Ġ[];": 6257,
      "acc": 6258,
      "Ġlogger": 6259,
      "alert": 6260,
      "footer": 6261,
      "CN": 6262,
      "Ġblack": 6263,
      "mc": 6264,
      "Ġlater": 6265,
      "Ġtyp": 6266,
      "wards": 6267,
      "dataset": 6268,
      "ons": 6269,
      "ĠInput": 6270,
      "lon": 6271,
      "Ð½Ñĭ": 6272,
      "hreshold": 6273,
      "ĠTODO": 6274,
      "Ġfuture": 6275,
      "mea": 6276,
      "ç´": 6277,
      "icular": 6278,
      "Win": 6279,
      "Ġassociated": 6280,
      ">-": 6281,
      "ĠDEFAULT": 6282,
      "Ja": 6283,
      "Ġutil": 6284,
      "NaN": 6285,
      "force": 6286,
      "download": 6287,
      "like": 6288,
      "RES": 6289,
      "](#": 6290,
      "Ġshare": 6291,
      "ĠTa": 6292,
      "cording": 6293,
      "Ġ'\\": 6294,
      "TT": 6295,
      "Generator": 6296,
      "Ġgenerated": 6297,
      "Objects": 6298,
      "Ġupdated": 6299,
      "Ð¾Ð¼": 6300,
      "Word": 6301,
      "åº¦": 6302,
      "Ġimplied": 6303,
      "tc": 6304,
      "800": 6305,
      "Ġvideo": 6306,
      "ĠGod": 6307,
      "MAKE": 6308,
      "Ġphys": 6309,
      "loader": 6310,
      "SELECT": 6311,
      "132": 6312,
      "andom": 6313,
      "hol": 6314,
      "ĠDB": 6315,
      "There": 6316,
      "pages": 6317,
      "nil": 6318,
      "Ġrg": 6319,
      "Ġspirit": 6320,
      "Ġexit": 6321,
      "(@": 6322,
      ".'": 6323,
      "linux": 6324,
      "æķ°æį®": 6325,
      "(__": 6326,
      "ĠMessage": 6327,
      "nished": 6328,
      "Fields": 6329,
      "2000": 6330,
      "ĠWh": 6331,
      "flags": 6332,
      "ĠDoc": 6333,
      "ĠWith": 6334,
      "åľ°": 6335,
      "PU": 6336,
      "Tests": 6337,
      "Ġdig": 6338,
      "erie": 6339,
      "Ðł": 6340,
      "AME": 6341,
      "Ġcum": 6342,
      "WARE": 6343,
      "Seg": 6344,
      "Double": 6345,
      "radient": 6346,
      "Ġcontact": 6347,
      "FR": 6348,
      "Ġenabled": 6349,
      "114": 6350,
      "dig": 6351,
      "Program": 6352,
      "Sum": 6353,
      "Ġgrow": 6354,
      "ĠÑĤ": 6355,
      "equence": 6356,
      "okie": 6357,
      "999": 6358,
      "Ġindivid": 6359,
      "loss": 6360,
      "\">\"": 6361,
      "sdk": 6362,
      "arrow": 6363,
      "Selector": 6364,
      "Second": 6365,
      "Timeout": 6366,
      "Ġgl": 6367,
      "issues": 6368,
      "å»": 6369,
      "dialog": 6370,
      "childr": 6371,
      "platform": 6372,
      "192": 6373,
      "ìĿĦ": 6374,
      "ĠassetBundle": 6375,
      "Ġje": 6376,
      "fg": 6377,
      "esp": 6378,
      "ees": 6379,
      "anchor": 6380,
      "Ġcharacter": 6381,
      "hpp": 6382,
      "rgb": 6383,
      "147": 6384,
      "Domain": 6385,
      "important": 6386,
      "à¸Ļ": 6387,
      "That": 6388,
      "sim": 6389,
      "Ġcalcu": 6390,
      "Ð³": 6391,
      "éĽ": 6392,
      "_;": 6393,
      "sq": 6394,
      "Mapping": 6395,
      "ico": 6396,
      "æŀľ": 6397,
      "ĠInde": 6398,
      "oly": 6399,
      "Ġscore": 6400,
      "Controls": 6401,
      "Ġexisting": 6402,
      "Ġvisible": 6403,
      "childre": 6404,
      "fx": 6405,
      "Ġarticle": 6406,
      "children": 6407,
      "Ġ31": 6408,
      "Ġissues": 6409,
      "ItemGroup": 6410,
      "Ġunique": 6411,
      "parameters": 6412,
      "Lin": 6413,
      "æģ": 6414,
      "Īëĭ¤": 6415,
      "nb": 6416,
      "circle": 6417,
      "uly": 6418,
      "$.": 6419,
      "validat": 6420,
      ",,,": 6421,
      "ĠSh": 6422,
      ")));": 6423,
      "Ġvec": 6424,
      "111": 6425,
      "ĠSc": 6426,
      "async": 6427,
      "ication": 6428,
      "napshot": 6429,
      "\\\":": 6430,
      "DateTime": 6431,
      "sequence": 6432,
      "istent": 6433,
      "single": 6434,
      "ĠNumber": 6435,
      "directory": 6436,
      "Off": 6437,
      "toggle": 6438,
      "Descriptor": 6439,
      "ãģŁ": 6440,
      "tm": 6441,
      "VP": 6442,
      "validate": 6443,
      "mpa": 6444,
      "layers": 6445,
      "External": 6446,
      "Ø©": 6447,
      "ncip": 6448,
      "lluminate": 6449,
      "Full": 6450,
      "Java": 6451,
      "ToString": 6452,
      "Ø³": 6453,
      "Ġpersonal": 6454,
      "bon": 6455,
      "Ġarch": 6456,
      "Ġab": 6457,
      "Ġ29": 6458,
      "Ga": 6459,
      "nment": 6460,
      "103": 6461,
      "ĠFound": 6462,
      "elle": 6463,
      "ills": 6464,
      "prototype": 6465,
      "Selected": 6466,
      "ìĬ": 6467,
      "Send": 6468,
      "epository": 6469,
      "Å¾": 6470,
      "greed": 6471,
      "Ġautomat": 6472,
      "Home": 6473,
      "repository": 6474,
      "fort": 6475,
      "mpose": 6476,
      "Extension": 6477,
      "æİ¥": 6478,
      "Ġimg": 6479,
      "pool": 6480,
      "DATE": 6481,
      "Ġquestion": 6482,
      "Kind": 6483,
      "Ġlarge": 6484,
      "Ġmessages": 6485,
      "exit": 6486,
      "2001": 6487,
      "gether": 6488,
      "ĠĠĠĠĠčĊ": 6489,
      "Parse": 6490,
      "ĠConfig": 6491,
      "!(": 6492,
      "2012": 6493,
      "xes": 6494,
      "pret": 6495,
      "fun": 6496,
      "erv": 6497,
      "RT": 6498,
      "Ġmet": 6499,
      "Ġdist": 6500,
      "ku": 6501,
      "'));": 6502,
      "'d": 6503,
      "Go": 6504,
      "Ġsw": 6505,
      "nvas": 6506,
      "Ġpop": 6507,
      "ĠProperty": 6508,
      "æĢ§": 6509,
      "ĠCol": 6510,
      "Ġcore": 6511,
      "kin": 6512,
      "Ġgr": 6513,
      "Ġdue": 6514,
      "Ġvariables": 6515,
      "Ġinteg": 6516,
      "posed": 6517,
      "translate": 6518,
      "setup": 6519,
      "Transaction": 6520,
      "Ġstack": 6521,
      "hover": 6522,
      "fact": 6523,
      "wate": 6524,
      "grade": 6525,
      "exports": 6526,
      "?.": 6527,
      "Ġdescribe": 6528,
      "counte": 6529,
      "Ġsequence": 6530,
      "Compat": 6531,
      "Ġetc": 6532,
      "Named": 6533,
      "rieve": 6534,
      "Ġfu": 6535,
      "Ġscreen": 6536,
      ">',": 6537,
      "ĠWork": 6538,
      "umer": 6539,
      "Ġcompliance": 6540,
      "Cr": 6541,
      "nough": 6542,
      "ĠÐ·": 6543,
      "boot": 6544,
      "Ñĸ": 6545,
      "trics": 6546,
      "ĠHTTP": 6547,
      "Ġdepart": 6548,
      "Ġhaving": 6549,
      "MODE": 6550,
      "Ġloaded": 6551,
      "dll": 6552,
      "}'": 6553,
      "pull": 6554,
      "åı¯ä»¥": 6555,
      "AAAA": 6556,
      "oll": 6557,
      "bes": 6558,
      "Sec": 6559,
      "Ġidx": 6560,
      "GM": 6561,
      "Ġcertain": 6562,
      "Ġincludes": 6563,
      "trace": 6564,
      "Binding": 6565,
      "ein": 6566,
      "formed": 6567,
      "PropertyGroup": 6568,
      "ĠPer": 6569,
      ":`": 6570,
      "jax": 6571,
      "Ġjavax": 6572,
      "most": 6573,
      "Ġregion": 6574,
      "redit": 6575,
      "eval": 6576,
      "Begin": 6577,
      "pot": 6578,
      ">)": 6579,
      "Ġ\"${": 6580,
      "Ġenv": 6581,
      "Ġreview": 6582,
      "cfg": 6583,
      "highlight": 6584,
      "118": 6585,
      "mpt": 6586,
      "based": 6587,
      "å°±": 6588,
      "utte": 6589,
      "106": 6590,
      "commons": 6591,
      "âĸĪ": 6592,
      "Ġlines": 6593,
      "Pres": 6594,
      "Ġfar": 6595,
      "éĿ¢": 6596,
      "Visual": 6597,
      "Ġemploy": 6598,
      "ĠSource": 6599,
      "TEXT": 6600,
      "ĠArg": 6601,
      "olved": 6602,
      "Ġresources": 6603,
      "illion": 6604,
      ">${": 6605,
      "Ġani": 6606,
      "Ġsepara": 6607,
      "Ġchanged": 6608,
      "çł": 6609,
      "Ġshall": 6610,
      "(\"/": 6611,
      "maps": 6612,
      "ham": 6613,
      "rch": 6614,
      "Ġmatrix": 6615,
      "Ġsupported": 6616,
      "250": 6617,
      "ĠÐ¼": 6618,
      "002": 6619,
      "ĠMar": 6620,
      "pattern": 6621,
      "ASE": 6622,
      "RR": 6623,
      "blank": 6624,
      "FORM": 6625,
      "Ġflag": 6626,
      "Ġoptional": 6627,
      "Resources": 6628,
      "è¿ĩ": 6629,
      "ĠThes": 6630,
      "Ġagreed": 6631,
      "water": 6632,
      "Ġrelated": 6633,
      "Ġactually": 6634,
      "Ġsug": 6635,
      "Ġdevelopment": 6636,
      "ĠThese": 6637,
      "202": 6638,
      "Lock": 6639,
      "ÅĤ": 6640,
      "loaded": 6641,
      "\"</": 6642,
      "åŀ": 6643,
      "declare": 6644,
      "troy": 6645,
      "mazon": 6646,
      "===": 6647,
      "Ġloss": 6648,
      "Ġplugin": 6649,
      "how": 6650,
      "ãģ¦": 6651,
      "']['": 6652,
      "nanc": 6653,
      "ĠSQL": 6654,
      "ĉĉĉĊ": 6655,
      "foreach": 6656,
      "Err": 6657,
      "130": 6658,
      "Ġgrid": 6659,
      "Constants": 6660,
      "Ġplatform": 6661,
      "nic": 6662,
      "mitted": 6663,
      "BLE": 6664,
      "Rect": 6665,
      "pid": 6666,
      "Ġconstant": 6667,
      "FTWARE": 6668,
      "ĠRes": 6669,
      "switch": 6670,
      "ango": 6671,
      "119": 6672,
      "tored": 6673,
      "contains": 6674,
      "ĠLicensed": 6675,
      "ĠJava": 6676,
      "Ġalong": 6677,
      "ram": 6678,
      "Äį": 6679,
      "Ġcmd": 6680,
      "erson": 6681,
      "ended": 6682,
      "512": 6683,
      "etion": 6684,
      "markdown": 6685,
      "folder": 6686,
      "Ġmenu": 6687,
      "assign": 6688,
      "ifications": 6689,
      "Ġmaking": 6690,
      "more": 6691,
      "gre": 6692,
      "]]></": 6693,
      "lowe": 6694,
      "=[": 6695,
      "Ġsl": 6696,
      "eased": 6697,
      "Lim": 6698,
      "Ġvote": 6699,
      "ĠVis": 6700,
      "Ġparticular": 6701,
      "éĥ": 6702,
      "rain": 6703,
      "Ġincluded": 6704,
      "ĠCal": 6705,
      "OD": 6706,
      "Ġmakes": 6707,
      "Ġreserved": 6708,
      "Fl": 6709,
      "kind": 6710,
      "edentials": 6711,
      "ĠPlease": 6712,
      "Ġparser": 6713,
      "bose": 6714,
      "Ġdataset": 6715,
      "Ġ(:": 6716,
      "optional": 6717,
      "Ø¨": 6718,
      "Ġprefix": 6719,
      "tit": 6720,
      "FLAGS": 6721,
      "uf": 6722,
      "eway": 6723,
      "exclude": 6724,
      "bootstrap": 6725,
      "Annotation": 6726,
      "hide": 6727,
      "åĽŀ": 6728,
      "Ġds": 6729,
      "front": 6730,
      "Ġzero": 6731,
      "wrapper": 6732,
      "ĠRequest": 6733,
      "(()": 6734,
      "ABILITY": 6735,
      "protobuf": 6736,
      "Ġsimilar": 6737,
      "ournal": 6738,
      "DULE": 6739,
      "standard": 6740,
      "Rate": 6741,
      "()).": 6742,
      "plus": 6743,
      "resolve": 6744,
      "phone": 6745,
      "Ġrule": 6746,
      "dium": 6747,
      "Gu": 6748,
      "lore": 6749,
      "Ġonline": 6750,
      "ino": 6751,
      "Ġmembers": 6752,
      "unded": 6753,
      "Sync": 6754,
      "jection": 6755,
      "æ¨": 6756,
      "share": 6757,
      "kan": 6758,
      "Ġmock": 6759,
      "ires": 6760,
      "åĻ": 6761,
      "ĠForm": 6762,
      "=\"'": 6763,
      "ceed": 6764,
      "\\/": 6765,
      "/><": 6766,
      "tons": 6767,
      "ĠGo": 6768,
      "Ġcert": 6769,
      "Rea": 6770,
      "ights": 6771,
      "`)": 6772,
      "Ġhuman": 6773,
      "à¾": 6774,
      "mg": 6775,
      "done": 6776,
      "ĠĠĠĠĠĠčĊ": 6777,
      "ĠSy": 6778,
      "NU": 6779,
      "nknown": 6780,
      "Db": 6781,
      "Mark": 6782,
      "Ġcare": 6783,
      "Ġcountry": 6784,
      "Conf": 6785,
      "@@": 6786,
      "Save": 6787,
      "Namespace": 6788,
      "eter": 6789,
      "Ġpolicy": 6790,
      "ÐµÐ¼": 6791,
      "generated": 6792,
      "\"?>": 6793,
      "Ġsimp": 6794,
      "Ġ##": 6795,
      "Ġpassed": 6796,
      "lint": 6797,
      "Background": 6798,
      "pris": 6799,
      "engine": 6800,
      "Mon": 6801,
      "licat": 6802,
      "activity": 6803,
      "Ġhold": 6804,
      ".)": 6805,
      "Ġpract": 6806,
      "cv": 6807,
      "ports": 6808,
      "Ġfil": 6809,
      "Ġstarted": 6810,
      "ĠBy": 6811,
      "ĠInteger": 6812,
      "mag": 6813,
      "Ġpattern": 6814,
      "Ġfact": 6815,
      "ycle": 6816,
      "Ġagree": 6817,
      "Ġms": 6818,
      "ĠIO": 6819,
      "lea": 6820,
      "625": 6821,
      "Ġsetting": 6822,
      "Find": 6823,
      "iate": 6824,
      "Ġ2014": 6825,
      "DK": 6826,
      "cmp": 6827,
      "room": 6828,
      "EM": 6829,
      "Ġimages": 6830,
      "mis": 6831,
      "ĠON": 6832,
      "Ġheaders": 6833,
      "Ġcurrently": 6834,
      "æĦ": 6835,
      "ĠGL": 6836,
      "ison": 6837,
      "Ġexists": 6838,
      "ë¥¼": 6839,
      "Ġwate": 6840,
      "tv": 6841,
      "PA": 6842,
      "bats": 6843,
      "eries": 6844,
      "PY": 6845,
      "Ġreceived": 6846,
      "Occurs": 6847,
      "Ġotherwise": 6848,
      "complex": 6849,
      "pref": 6850,
      "nector": 6851,
      "Ġden": 6852,
      "LOC": 6853,
      "mac": 6854,
      "det": 6855,
      "Ġlat": 6856,
      "Ho": 6857,
      "Ġenough": 6858,
      "nsive": 6859,
      "ì§": 6860,
      "Language": 6861,
      "mine": 6862,
      "ĠHow": 6863,
      "Ãł": 6864,
      "nodes": 6865,
      "ĠArt": 6866,
      "Ġqua": 6867,
      "ĠÑ": 6868,
      "Ġcopyright": 6869,
      "Ġdefinition": 6870,
      "Move": 6871,
      "Ori": 6872,
      "Ġextension": 6873,
      "helper": 6874,
      "dimen": 6875,
      "HTTP": 6876,
      "DEF": 6877,
      "hh": 6878,
      "rature": 6879,
      "ases": 6880,
      "zero": 6881,
      "warning": 6882,
      "Ġrecent": 6883,
      "trip": 6884,
      "Animation": 6885,
      "Area": 6886,
      "dable": 6887,
      "ĠTOT": 6888,
      "ä¿¡": 6889,
      "ĠAuto": 6890,
      "Ġloop": 6891,
      "tatistics": 6892,
      "Ġclasse": 6893,
      "graphy": 6894,
      "convert": 6895,
      "beta": 6896,
      "ĠBuild": 6897,
      "ë¡ľ": 6898,
      "tack": 6899,
      "Screen": 6900,
      "Ġrequests": 6901,
      "lig": 6902,
      "protocol": 6903,
      "Ġengine": 6904,
      "rnet": 6905,
      "plai": 6906,
      "Ġorigin": 6907,
      "ê³": 6908,
      "=&": 6909,
      "rank": 6910,
      "Sequence": 6911,
      "è·": 6912,
      "Ġwritt": 6913,
      "Keys": 6914,
      "grams": 6915,
      "Ġwritte": 6916,
      "lients": 6917,
      "nz": 6918,
      "åĻ¨": 6919,
      "Ġwritten": 6920,
      "çĥ": 6921,
      "ury": 6922,
      "Ãª": 6923,
      "ERS": 6924,
      "Ġcost": 6925,
      "VENT": 6926,
      "nces": 6927,
      "schemas": 6928,
      "wl": 6929,
      "Register": 6930,
      "Ġ./": 6931,
      "rators": 6932,
      "ččĊ": 6933,
      "tml": 6934,
      "çĤ¹": 6935,
      "Ljava": 6936,
      "ClCompile": 6937,
      "æĻ": 6938,
      "localhost": 6939,
      "Ġmonth": 6940,
      "140": 6941,
      "Ġdefine": 6942,
      "Section": 6943,
      "Ġpull": 6944,
      "Failed": 6945,
      "mous": 6946,
      "COMP": 6947,
      "Condition": 6948,
      "=\"{": 6949,
      "guid": 6950,
      "YPE": 6951,
      "iva": 6952,
      "lpha": 6953,
      "Ġdeterm": 6954,
      "116": 6955,
      "ucation": 6956,
      "Ġwin": 6957,
      "VS": 6958,
      "tained": 6959,
      "look": 6960,
      "Ġpurpose": 6961,
      "bser": 6962,
      "tis": 6963,
      "pture": 6964,
      "ites": 6965,
      "extern": 6966,
      "Events": 6967,
      "LIB": 6968,
      "Å¡": 6969,
      "ĠBAS": 6970,
      "(['": 6971,
      "åĬ¨": 6972,
      "Loader": 6973,
      "Ġtraining": 6974,
      ":'": 6975,
      "country": 6976,
      "åŀĭ": 6977,
      "ĠPage": 6978,
      "Ġlimitations": 6979,
      "Ġmov": 6980,
      "Ġfig": 6981,
      "tream": 6982,
      "batsman": 6983,
      "JS": 6984,
      "Ġfolder": 6985,
      "rientation": 6986,
      "agen": 6987,
      "ÐµÐ»": 6988,
      "hand": 6989,
      "ĠÙħ": 6990,
      "HERE": 6991,
      "Ret": 6992,
      "NUM": 6993,
      "èĢħ": 6994,
      "ĠHowever": 6995,
      "Ġhistory": 6996,
      "ANG": 6997,
      "Äģ": 6998,
      "Ġdoing": 6999,
      "ORY": 7000,
      "Ġfixed": 7001,
      "Ġprof": 7002,
      "åŃĲ": 7003,
      "éĢļ": 7004,
      "122": 7005,
      "Ġwait": 7006,
      "mento": 7007,
      "ĠGroup": 7008,
      "inst": 7009,
      "Ġhandler": 7010,
      "159": 7011,
      "æĹ¥": 7012,
      "logical": 7013,
      "Ġoft": 7014,
      "fu": 7015,
      "Py": 7016,
      "CHAR": 7017,
      "MODULE": 7018,
      "thumb": 7019,
      "utor": 7020,
      "Pass": 7021,
      "Ġcases": 7022,
      "àª": 7023,
      "ĠBoolean": 7024,
      "åĲĪ": 7025,
      "Ġgoverning": 7026,
      "Ġcluster": 7027,
      "Fail": 7028,
      "rga": 7029,
      "345": 7030,
      "phi": 7031,
      "uthorization": 7032,
      "super": 7033,
      "Ġlive": 7034,
      "å¤ļ": 7035,
      "ĠHis": 7036,
      "ĠColor": 7037,
      "Ġothers": 7038,
      "Ġschema": 7039,
      "Ġscal": 7040,
      "outputs": 7041,
      "Ġnodes": 7042,
      "IVE": 7043,
      "Ġperiod": 7044,
      "à¥ĩ": 7045,
      "pes": 7046,
      "å¹´": 7047,
      "alloc": 7048,
      "ĠHer": 7049,
      "Ġacross": 7050,
      "ĠNe": 7051,
      "Ġbad": 7052,
      "=='": 7053,
      "Ð½Ð¾": 7054,
      "Ġìŀ": 7055,
      "seq": 7056,
      "mean": 7057,
      "voc": 7058,
      "><![": 7059,
      "road": 7060,
      "ĠMember": 7061,
      "stats": 7062,
      "alf": 7063,
      "Ġthought": 7064,
      "Ġ(<": 7065,
      "webkit": 7066,
      "iety": 7067,
      ">'": 7068,
      "ĠCan": 7069,
      "Stop": 7070,
      ">\",": 7071,
      "Ġwater": 7072,
      "ledge": 7073,
      "à½¦": 7074,
      "Information": 7075,
      "509": 7076,
      "jango": 7077,
      "tras": 7078,
      "Ð¸Ð¼": 7079,
      "çĽ®": 7080,
      "loor": 7081,
      "lear": 7082,
      "ixel": 7083,
      "ĠPy": 7084,
      "ĠìĿ": 7085,
      "ĠCONDIT": 7086,
      "Ġedge": 7087,
      "Ġhig": 7088,
      "apps": 7089,
      "Transform": 7090,
      "Login": 7091,
      "dependen": 7092,
      "Ġ\".": 7093,
      "Trace": 7094,
      "ĠOne": 7095,
      "']);": 7096,
      "Ġintere": 7097,
      "×Ļ": 7098,
      "OLD": 7099,
      "udents": 7100,
      "Ġofte": 7101,
      "Ġplaceholder": 7102,
      "Ø¹": 7103,
      "åĿ": 7104,
      "ĠDir": 7105,
      "compa": 7106,
      "Ġequal": 7107,
      "åĢ¼": 7108,
      "\">&": 7109,
      "Drawing": 7110,
      "Ùĥ": 7111,
      "å®ŀ": 7112,
      "centage": 7113,
      "Ġfetch": 7114,
      "Ġfeel": 7115,
      "ĠĠĠĠĠĠĠĠĠĠĠĠĠĠĠĠĠĠĠĠĠĊ": 7116,
      "124": 7117,
      "Ġem": 7118,
      "development": 7119,
      "Ġbr": 7120,
      "Ġproducts": 7121,
      "Ġsecurity": 7122,
      "ĠGoogle": 7123,
      "socket": 7124,
      "eans": 7125,
      "Ġoften": 7126,
      "Required": 7127,
      "Ġperformance": 7128,
      "pkg": 7129,
      "xsl": 7130,
      "121": 7131,
      "stu": 7132,
      "PM": 7133,
      "unity": 7134,
      "ĠYour": 7135,
      "decode": 7136,
      "generate": 7137,
      "Ð¾Ð³": 7138,
      "ĠAny": 7139,
      "2011": 7140,
      "ĠSpec": 7141,
      "But": 7142,
      "Ġfocus": 7143,
      "Ġbelie": 7144,
      "Ġfmt": 7145,
      "skip": 7146,
      "Ġimplements": 7147,
      "ors": 7148,
      "ban": 7149,
      "ĠÃł": 7150,
      "Ġraw": 7151,
      "Ġmys": 7152,
      "Sig": 7153,
      "Ġdeploy": 7154,
      "Math": 7155,
      "Ġroute": 7156,
      "ĠCONDITIONS": 7157,
      "Ġknown": 7158,
      "Ġuna": 7159,
      "fire": 7160,
      "Ġedit": 7161,
      "ĠÃ©": 7162,
      "Äħ": 7163,
      "Ġ'{": 7164,
      "ä»ĸ": 7165,
      "How": 7166,
      "Ġoptim": 7167,
      "Ġlow": 7168,
      "135": 7169,
      "Ġwar": 7170,
      "129": 7171,
      "Ġdepe": 7172,
      "à¸²à¸": 7173,
      "ĠId": 7174,
      "features": 7175,
      "aging": 7176,
      "Ġwords": 7177,
      "çĻ": 7178,
      "ãģķ": 7179,
      "Ġum": 7180,
      "REQ": 7181,
      "ĠTR": 7182,
      "iven": 7183,
      "Ġ35": 7184,
      "ĠBASIS": 7185,
      "mend": 7186,
      "ĠĠĠĠĠĠĠčĊ": 7187,
      "ĠLI": 7188,
      "LY": 7189,
      "itation": 7190,
      "Ġprovides": 7191,
      "Ġweighted": 7192,
      "ressed": 7193,
      "epare": 7194,
      "ĠGeneral": 7195,
      "ised": 7196,
      "Wrapper": 7197,
      "veloper": 7198,
      "ĠPython": 7199,
      "cluster": 7200,
      "ipo": 7201,
      "Sort": 7202,
      "enabled": 7203,
      "Ġthough": 7204,
      "Ã¨": 7205,
      "cto": 7206,
      "Ġclean": 7207,
      "å»º": 7208,
      "ãĥĥ": 7209,
      "WRITE": 7210,
      "translated": 7211,
      "Ġmetadata": 7212,
      "ĠLine": 7213,
      "éĹ´": 7214,
      "4099": 7215,
      "ĠHand": 7216,
      "Ġfilename": 7217,
      "Ġmis": 7218,
      "ĠOpe": 7219,
      "REF": 7220,
      "memory": 7221,
      "ĠSH": 7222,
      "Ġpointe": 7223,
      "ãģĻãĤĭ": 7224,
      "ÄŁ": 7225,
      "Ġdidn": 7226,
      "GO": 7227,
      "DT": 7228,
      "Proxy": 7229,
      "abc": 7230,
      "144": 7231,
      "ÐŁ": 7232,
      "rical": 7233,
      "lator": 7234,
      "Effect": 7235,
      "ĠFrame": 7236,
      "itect": 7237,
      "éĺ": 7238,
      "green": 7239,
      "Ġbuilder": 7240,
      "ĠInst": 7241,
      "Rec": 7242,
      "Ġallowed": 7243,
      "Ð°Ð»": 7244,
      "SM": 7245,
      "ëĭĪëĭ¤": 7246,
      "allenge": 7247,
      "track": 7248,
      "ĠPM": 7249,
      "æ°": 7250,
      "å¼Ģ": 7251,
      "SOUR": 7252,
      "188": 7253,
      "Ġsays": 7254,
      "005": 7255,
      "CB": 7256,
      ":**": 7257,
      "ĠRel": 7258,
      "Ġbound": 7259,
      "stat": 7260,
      "Ġpointer": 7261,
      "Ġ$('#": 7262,
      "Ġgetting": 7263,
      "attributes": 7264,
      "ĠEXPECT": 7265,
      "Book": 7266,
      "lambda": 7267,
      "å§": 7268,
      "Ġdownload": 7269,
      "Ġbuilt": 7270,
      "imension": 7271,
      "è°": 7272,
      "åĲĮ": 7273,
      "Ġtogether": 7274,
      "Ġmask": 7275,
      "Before": 7276,
      "[[": 7277,
      "rier": 7278,
      "Ġaway": 7279,
      "Ġinvest": 7280,
      "Crea": 7281,
      "Ġtoday": 7282,
      "Ġtrack": 7283,
      "Pointe": 7284,
      "=\\": 7285,
      "Ġtf": 7286,
      "Price": 7287,
      "when": 7288,
      "ç¼": 7289,
      "ĠCH": 7290,
      "\\-": 7291,
      "://$": 7292,
      "Android": 7293,
      "npm": 7294,
      "igration": 7295,
      "Ġgeneral": 7296,
      "sb": 7297,
      "åħ¶": 7298,
      "icator": 7299,
      "Uns": 7300,
      "Prefix": 7301,
      "Ġbranch": 7302,
      "Ġlooking": 7303,
      "ĠWrite": 7304,
      "Pointer": 7305,
      "Prese": 7306,
      "while": 7307,
      "hook": 7308,
      "Ġdomain": 7309,
      "Sample": 7310,
      "quote": 7311,
      "Socket": 7312,
      "Ġclasses": 7313,
      "Ġdf": 7314,
      "trollers": 7315,
      "Ġ_,": 7316,
      "Light": 7317,
      "Ġinsert": 7318,
      "Native": 7319,
      "GA": 7320,
      "world": 7321,
      "Ġforce": 7322,
      "Ġterm": 7323,
      "Ġprice": 7324,
      "about": 7325,
      "expect": 7326,
      "208": 7327,
      "Ġbinary": 7328,
      "fetch": 7329,
      "175": 7330,
      "plain": 7331,
      "åĨħ": 7332,
      "Ġmodify": 7333,
      "ĠLe": 7334,
      "Î¼": 7335,
      "Cancel": 7336,
      "Ġinside": 7337,
      "Ġbatch": 7338,
      "bert": 7339,
      "Ġ{};": 7340,
      "counter": 7341,
      "Des": 7342,
      "licate": 7343,
      "Br": 7344,
      ";;;;": 7345,
      "tee": 7346,
      "Ġbottom": 7347,
      "Ĥ¬": 7348,
      "157": 7349,
      ";}": 7350,
      "ìĿĺ": 7351,
      "Ġoffer": 7352,
      "but": 7353,
      "137": 7354,
      "ĠPromise": 7355,
      "gz": 7356,
      "Î»": 7357,
      "ä»¬": 7358,
      "ĠItem": 7359,
      "amount": 7360,
      "vable": 7361,
      "Usage": 7362,
      "gradle": 7363,
      "comments": 7364,
      "lower": 7365,
      "ĠĠĠĠĠĠĠĠĠĠĠĠĠĠĠĠĠĠĠĠĠĠĊ": 7366,
      "ĠGame": 7367,
      "Rep": 7368,
      "ĠSOFTWARE": 7369,
      "Score": 7370,
      "ila": 7371,
      "Ġrecom": 7372,
      "ilinx": 7373,
      "ival": 7374,
      "Ġapplications": 7375,
      "ãĥ¼ãĤ": 7376,
      "trl": 7377,
      "Ġvolume": 7378,
      "Ġenc": 7379,
      "_(": 7380,
      "matic": 7381,
      "wap": 7382,
      "compiler": 7383,
      "Ġseveral": 7384,
      "BL": 7385,
      "Connect": 7386,
      "Ġbene": 7387,
      "LOCK": 7388,
      "Ġtab": 7389,
      "ivo": 7390,
      "Play": 7391,
      "Ð¾ÑĤ": 7392,
      "ality": 7393,
      "origin": 7394,
      "Gen": 7395,
      "IA": 7396,
      "Ye": 7397,
      "Ġ({": 7398,
      "asset": 7399,
      "Private": 7400,
      "ending": 7401,
      "allation": 7402,
      "axis": 7403,
      "ĠGu": 7404,
      "Ġinvalid": 7405,
      "sync": 7406,
      "complete": 7407,
      "Now": 7408,
      "Border": 7409,
      "itions": 7410,
      "ADD": 7411,
      "hank": 7412,
      "iner": 7413,
      "Ġface": 7414,
      "driver": 7415,
      "CharacterOffset": 7416,
      "ips": 7417,
      ")\",": 7418,
      "unique": 7419,
      "%(": 7420,
      "ĠUnless": 7421,
      "ĠCHE": 7422,
      "rant": 7423,
      "Variant": 7424,
      "/_": 7425,
      "æľĢ": 7426,
      "cert": 7427,
      "Selection": 7428,
      "éľ": 7429,
      "uthors": 7430,
      "CONFIG": 7431,
      "allel": 7432,
      "Ġaria": 7433,
      "policy": 7434,
      "Ġ34": 7435,
      "coming": 7436,
      "å°ı": 7437,
      "Vec": 7438,
      "ĠĠĠĠĠĠĠĠčĊ": 7439,
      "Ġhi": 7440,
      "fff": 7441,
      "Unity": 7442,
      "113": 7443,
      "Ġ'../": 7444,
      "ãĥª": 7445,
      "Ġ\"_": 7446,
      "ĠTABLE": 7447,
      "person": 7448,
      "Ġleg": 7449,
      "~~~~~~~~": 7450,
      "145": 7451,
      "Ġrepository": 7452,
      "agent": 7453,
      "Ġ45": 7454,
      "Ġtell": 7455,
      "Progress": 7456,
      "Det": 7457,
      "ÅĻ": 7458,
      "Alignment": 7459,
      "macro": 7460,
      "Gra": 7461,
      "Ġles": 7462,
      "\\\">": 7463,
      "ĠHttp": 7464,
      "\\\\\\\\\\\\\\\\": 7465,
      "Ġcorrespo": 7466,
      "ILE": 7467,
      "ĠKe": 7468,
      "nam": 7469,
      "proxy": 7470,
      "Ġdeal": 7471,
      "ĠStates": 7472,
      "Ġ{%": 7473,
      "Ġmoney": 7474,
      "subject": 7475,
      "ignore": 7476,
      "objects": 7477,
      "live": 7478,
      "vant": 7479,
      "ively": 7480,
      "Ġcontain": 7481,
      "kg": 7482,
      "headers": 7483,
      "æĽ´": 7484,
      "éħ": 7485,
      "protected": 7486,
      "EY": 7487,
      "ĠIns": 7488,
      "ĠTable": 7489,
      "ffix": 7490,
      "ĠMark": 7491,
      "Ġprofile": 7492,
      "latest": 7493,
      "ãģĵ": 7494,
      "Ġmarket": 7495,
      "sym": 7496,
      "*,": 7497,
      "Ġtemplates": 7498,
      "çĦ": 7499,
      "ç«Ļ": 7500,
      "Ġliste": 7501,
      "utter": 7502,
      "gov": 7503,
      "brief": 7504,
      "house": 7505,
      "Di": 7506,
      "ĠSE": 7507,
      "HOME": 7508,
      "bits": 7509,
      "Ã¥": 7510,
      "PASSWORD": 7511,
      ")[": 7512,
      "×ķ": 7513,
      "éĥ¨": 7514,
      "ĉĉĉĠĠ": 7515,
      "IGHV": 7516,
      "è®¾": 7517,
      "Î·": 7518,
      "vanced": 7519,
      "Ġ([": 7520,
      "commands": 7521,
      "á¼": 7522,
      "ĠThen": 7523,
      "Ques": 7524,
      "Ġev": 7525,
      "IGHJ": 7526,
      "Ġcommunity": 7527,
      "Ġ\\\\": 7528,
      "ĠPath": 7529,
      "ARG": 7530,
      "à¤¿": 7531,
      "idator": 7532,
      "Cent": 7533,
      "ĠKo": 7534,
      "eather": 7535,
      "254": 7536,
      "Ġmerge": 7537,
      "Ïħ": 7538,
      "ifdef": 7539,
      "dependent": 7540,
      "DL": 7541,
      "bus": 7542,
      "Ġstudents": 7543,
      "rays": 7544,
      "230": 7545,
      "fol": 7546,
      "Ġshared": 7547,
      "=\"<?": 7548,
      "inger": 7549,
      "timeout": 7550,
      "Sm": 7551,
      "Ġ2013": 7552,
      "contrib": 7553,
      "cono": 7554,
      "TRUE": 7555,
      "Ġprotocol": 7556,
      "Free": 7557,
      "Ġdirection": 7558,
      "LIST": 7559,
      "reater": 7560,
      "icons": 7561,
      "Split": 7562,
      "tbody": 7563,
      "003": 7564,
      "bash": 7565,
      "Ġmip": 7566,
      "scroll": 7567,
      "Ġschool": 7568,
      "eu": 7569,
      "ggreg": 7570,
      "Single": 7571,
      "Ġanimation": 7572,
      "åĬ¡": 7573,
      "Protocol": 7574,
      "bio": 7575,
      "Ġsocial": 7576,
      "203": 7577,
      "ĠDescription": 7578,
      "Ġye": 7579,
      "INCL": 7580,
      "Ġà¦": 7581,
      "Ġensure": 7582,
      "../../../": 7583,
      "OST": 7584,
      "AUT": 7585,
      "catch": 7586,
      "INTER": 7587,
      "207": 7588,
      "Quality": 7589,
      "UND": 7590,
      "samples": 7591,
      "nator": 7592,
      "240": 7593,
      "NC": 7594,
      "Ġmissing": 7595,
      "çķ": 7596,
      "tz": 7597,
      "loop": 7598,
      "Flag": 7599,
      "ĉĉĠĠĠĠ": 7600,
      "Ġdiscuss": 7601,
      "Uri": 7602,
      "translation": 7603,
      "ĠField": 7604,
      "abs": 7605,
      "ä½ł": 7606,
      "stylesheet": 7607,
      "Contact": 7608,
      "typeof": 7609,
      "depth": 7610,
      "nancial": 7611,
      "Ġ'#": 7612,
      "ĠLabel": 7613,
      "ius": 7614,
      "Ġpush": 7615,
      "âĸĪâĸĪ": 7616,
      "zen": 7617,
      "uan": 7618,
      "tcp": 7619,
      "columns": 7620,
      "rry": 7621,
      "shadow": 7622,
      "ĠUsage": 7623,
      "/{": 7624,
      "Ġresearch": 7625,
      "Ġprogress": 7626,
      "labels": 7627,
      "Ġappend": 7628,
      "equency": 7629,
      "ĠResult": 7630,
      "ĠSelf": 7631,
      "imp": 7632,
      "Print": 7633,
      "àº": 7634,
      "allback": 7635,
      "Sharp": 7636,
      "orga": 7637,
      "Ġattributes": 7638,
      "ĠĠĠĠĠĠĠĠĠĠĠĠĠĠĠĠĠĠĠĠĠĠĠĊ": 7639,
      "feed": 7640,
      "Ġseries": 7641,
      "edu": 7642,
      "Ġdistance": 7643,
      "logo": 7644,
      "è¯·": 7645,
      "effect": 7646,
      "æĮĩ": 7647,
      "Ġesta": 7648,
      "Are": 7649,
      "CM": 7650,
      "Ġsus": 7651,
      "Theme": 7652,
      "148": 7653,
      "cheme": 7654,
      "hus": 7655,
      "ppy": 7656,
      "HintPath": 7657,
      "arshal": 7658,
      "Ġelect": 7659,
      "dynamic": 7660,
      "Ġbuf": 7661,
      "Ġdesign": 7662,
      "Ġpin": 7663,
      "éĶ": 7664,
      "ror": 7665,
      "ĠinWeight": 7666,
      "ĠoutWeight": 7667,
      "ĠweightedMode": 7668,
      "Ġ\"@": 7669,
      "IDTH": 7670,
      "Īĺ": 7671,
      "Alpha": 7672,
      "ustral": 7673,
      "Ġalte": 7674,
      "Ġtrain": 7675,
      "CHECK": 7676,
      "ÐµÐ½ÑĤ": 7677,
      "Cho": 7678,
      "Ġdev": 7679,
      "focus": 7680,
      "ĠUnited": 7681,
      "Ñī": 7682,
      "kely": 7683,
      "Ġexact": 7684,
      "Ġnothing": 7685,
      "Ġmu": 7686,
      "LS": 7687,
      "204": 7688,
      "mental": 7689,
      "ĠAug": 7690,
      "ĠReturn": 7691,
      "sup": 7692,
      "Solution": 7693,
      "Ġbasic": 7694,
      "åºĶ": 7695,
      "ãģĭ": 7696,
      "Please": 7697,
      "GT": 7698,
      "Mouse": 7699,
      "Results": 7700,
      "substr": 7701,
      "Ġwhol": 7702,
      "Ġ36": 7703,
      "Lat": 7704,
      "}>": 7705,
      "Enable": 7706,
      "ONT": 7707,
      "ĠPoint": 7708,
      "à¤¤": 7709,
      "Dynamic": 7710,
      "Ġreset": 7711,
      "(#": 7712,
      "icated": 7713,
      "Ġquick": 7714,
      "ju": 7715,
      "àµ": 7716,
      "0001": 7717,
      "ĠCHECK": 7718,
      "Ġlayout": 7719,
      "Ġwhole": 7720,
      "Ġattr": 7721,
      "Ġer": 7722,
      "]+": 7723,
      "ĠHash": 7724,
      "Ġamo": 7725,
      ">::": 7726,
      "]))": 7727,
      "wes": 7728,
      "found": 7729,
      "ytics": 7730,
      "Ids": 7731,
      "1524": 7732,
      "iving": 7733,
      "custo": 7734,
      "GER": 7735,
      "ĠQu": 7736,
      "Ġ'.": 7737,
      "Ġcharacters": 7738,
      "è¿Ľ": 7739,
      "ĠMin": 7740,
      "149": 7741,
      "assertEqual": 7742,
      "Ġflow": 7743,
      "ĠStatus": 7744,
      "Ġfront": 7745,
      "Tools": 7746,
      "middle": 7747,
      "hyp": 7748,
      "reens": 7749,
      "190": 7750,
      "ido": 7751,
      "uat": 7752,
      "Ġrules": 7753,
      "158": 7754,
      "Ġnullptr": 7755,
      "(\"%": 7756,
      "Ġsets": 7757,
      "basic": 7758,
      "NP": 7759,
      "WAR": 7760,
      "war": 7761,
      "ĠResponse": 7762,
      "139": 7763,
      ",</": 7764,
      "volume": 7765,
      "Ġuri": 7766,
      "ÑĥÐ¼": 7767,
      "Ġremote": 7768,
      "Vi": 7769,
      "rics": 7770,
      "172": 7771,
      "ĠGit": 7772,
      "Ġnecessary": 7773,
      "Ġ(`": 7774,
      "timestamp": 7775,
      "Ġ---": 7776,
      "%%%%%%%%": 7777,
      "ĠJe": 7778,
      "Comment": 7779,
      "ĠÐ±": 7780,
      "Region": 7781,
      "Unknown": 7782,
      "Ġfit": 7783,
      "ifiers": 7784,
      "Ġts": 7785,
      "Ġsteps": 7786,
      "THER": 7787,
      "Ġmajor": 7788,
      "AF": 7789,
      "Ġcover": 7790,
      "via": 7791,
      "ises": 7792,
      "emale": 7793,
      "definition": 7794,
      "Ġaff": 7795,
      "155": 7796,
      "Scan": 7797,
      "ĠComm": 7798,
      "æĪ·": 7799,
      "Ġstudy": 7800,
      "ĠCha": 7801,
      "big": 7802,
      "äºĭ": 7803,
      "gy": 7804,
      "167": 7805,
      "éĸ": 7806,
      "pital": 7807,
      "lots": 7808,
      "getElement": 7809,
      "\\\",": 7810,
      "libs": 7811,
      "Ġforward": 7812,
      "typedef": 7813,
      "ĠĠĉ": 7814,
      "Ġcli": 7815,
      "Ġanything": 7816,
      "managed": 7817,
      "Lib": 7818,
      "Scroll": 7819,
      "æģ¯": 7820,
      "gative": 7821,
      "ried": 7822,
      "scal": 7823,
      "Identity": 7824,
      "Ġlock": 7825,
      "rdf": 7826,
      "Ġka": 7827,
      "Mesh": 7828,
      "Multi": 7829,
      "Ġeasy": 7830,
      "Ġng": 7831,
      "ĠVar": 7832,
      "138": 7833,
      "Ġinstruction": 7834,
      "201": 7835,
      "Ġcomponents": 7836,
      "ubernet": 7837,
      "Ġ90": 7838,
      "Ġsql": 7839,
      "ĉĠĠĠĠĠĠĠĠ": 7840,
      "loca": 7841,
      "vention": 7842,
      "410": 7843,
      "Ġusername": 7844,
      "Cente": 7845,
      "(\"\\": 7846,
      "ubernete": 7847,
      "deploy": 7848,
      "Visible": 7849,
      "usercontent": 7850,
      "ĠIF": 7851,
      "Ġrows": 7852,
      "Ġalert": 7853,
      "Tasks": 7854,
      "grad": 7855,
      "Ġenter": 7856,
      "Ġsup": 7857,
      "symbol": 7858,
      "ubernetes": 7859,
      "Created": 7860,
      "ĠPost": 7861,
      "assertEquals": 7862,
      "HP": 7863,
      "Abstract": 7864,
      "ectories": 7865,
      "ĠApplication": 7866,
      "nvalid": 7867,
      "2009": 7868,
      "ĠĠĠĠĠĠĠĠĠĠĠĠĠĠĠĠĠĠĠĠĠĠĠĠĊ": 7869,
      "=-": 7870,
      "plan": 7871,
      "kwargs": 7872,
      "ĠOver": 7873,
      "Ġcity": 7874,
      "Ġstory": 7875,
      "windows": 7876,
      "erif": 7877,
      "Ġconc": 7878,
      "å°Ĩ": 7879,
      "Ġhidden": 7880,
      "ĠCLI": 7881,
      "uthent": 7882,
      "ĠRemove": 7883,
      "Ġtools": 7884,
      "ç¬¬": 7885,
      "Ġbrowser": 7886,
      "clean": 7887,
      "çłģ": 7888,
      "ully": 7889,
      "EOL": 7890,
      "Ġdirectly": 7891,
      "riteria": 7892,
      "ĠCounty": 7893,
      "æıĲ": 7894,
      "233": 7895,
      "åĪĹ": 7896,
      "143": 7897,
      "invalid": 7898,
      "ĠSep": 7899,
      "ĠMor": 7900,
      "High": 7901,
      "165": 7902,
      "EST": 7903,
      "htdocs": 7904,
      "åĮĸ": 7905,
      "Additional": 7906,
      "å½ĵ": 7907,
      "Ġwrong": 7908,
      "ummy": 7909,
      "ĠassertEquals": 7910,
      "(%": 7911,
      "pd": 7912,
      "Ġcolumns": 7913,
      "ĠSu": 7914,
      "Ġstar": 7915,
      "Ente": 7916,
      "126": 7917,
      "Ġsupp": 7918,
      "ndering": 7919,
      "Some": 7920,
      "ĠOff": 7921,
      "Cla": 7922,
      "Ġvisit": 7923,
      "Video": 7924,
      "æĸĩä»¶": 7925,
      "Ġmut": 7926,
      "Ġpers": 7927,
      "Ġvol": 7928,
      "IX": 7929,
      "Ġgit": 7930,
      "æĪĸ": 7931,
      "NotNull": 7932,
      "Ġ',": 7933,
      "Ġqueue": 7934,
      "LIN": 7935,
      "Day": 7936,
      "ClInclude": 7937,
      "ivities": 7938,
      "Ġtea": 7939,
      "ellow": 7940,
      "NABLE": 7941,
      "Cluster": 7942,
      "ttle": 7943,
      "BY": 7944,
      "Ġpain": 7945,
      "Ġnumbers": 7946,
      "Ġtags": 7947,
      "Ġthird": 7948,
      "Ġunless": 7949,
      "ä»£": 7950,
      "Ġchoose": 7951,
      "course": 7952,
      "Example": 7953,
      "ãĥ«": 7954,
      "205": 7955,
      "ĠWH": 7956,
      "RECT": 7957,
      "Ġpote": 7958,
      "Export": 7959,
      "ture": 7960,
      "pai": 7961,
      "ĠSp": 7962,
      "vet": 7963,
      "Ġroom": 7964,
      "emote": 7965,
      "Head": 7966,
      "Ġgoto": 7967,
      "updated": 7968,
      "Ġnear": 7969,
      "Ġax": 7970,
      "åģ": 7971,
      "Man": 7972,
      "Ġ%>": 7973,
      "ĉĉĉĉĉĉĉĉĉĉ": 7974,
      "VAR": 7975,
      "cripts": 7976,
      "ILD": 7977,
      "&&": 7978,
      "å¾Ĺ": 7979,
      "187": 7980,
      "Ġregard": 7981,
      "finity": 7982,
      "Ġwarning": 7983,
      "had": 7984,
      "dependencies": 7985,
      "Ġpick": 7986,
      "ĠDO": 7987,
      "ĠYo": 7988,
      "asis": 7989,
      "Ġ2012": 7990,
      "istered": 7991,
      "rance": 7992,
      "Cert": 7993,
      "Notification": 7994,
      "Ġant": 7995,
      "åıĤ": 7996,
      "åįķ": 7997,
      "ating": 7998,
      "Ġ*,": 7999,
      "disabled": 8000,
      "Ġcame": 8001,
      "ifndef": 8002,
      "=\"\">": 8003,
      "mys": 8004,
      "çİ°": 8005,
      "Ġwon": 8006,
      "rrow": 8007,
      "operation": 8008,
      "dlew": 8009,
      "tainers": 8010,
      "ky": 8011,
      "Ġ48": 8012,
      "Vertex": 8013,
      "Ãº": 8014,
      "rot": 8015,
      "dx": 8016,
      "Ġassign": 8017,
      "âĶĢâĶĢâĶĢâĶĢ": 8018,
      "BIT": 8019,
      "Ġ37": 8020,
      "ĠOptional": 8021,
      "ä¹Ł": 8022,
      "tas": 8023,
      "ÄĻ": 8024,
      "COVID": 8025,
      "rew": 8026,
      "eign": 8027,
      "Compression": 8028,
      "ĠMake": 8029,
      "ĠCommand": 8030,
      "%\"": 8031,
      "XFF": 8032,
      "Ġstat": 8033,
      "Ġ\"\";": 8034,
      "Other": 8035,
      "ĠMai": 8036,
      "Ġmind": 8037,
      "Span": 8038,
      "Ġactions": 8039,
      "Speed": 8040,
      "Ġcancel": 8041,
      "Ġspecify": 8042,
      "]),": 8043,
      "Ġdict": 8044,
      "Center": 8045,
      "**:": 8046,
      "$,": 8047,
      ">`": 8048,
      "Ġproto": 8049,
      "Ġunderstand": 8050,
      "mediate": 8051,
      "Ġpad": 8052,
      "Ġ$_": 8053,
      "\"\\": 8054,
      "Ġclip": 8055,
      "¸°": 8056,
      "router": 8057,
      "ĠFrom": 8058,
      "etc": 8059,
      "Ġdestination": 8060,
      "??": 8061,
      "Ġbuilding": 8062,
      "Expr": 8063,
      "Ã©e": 8064,
      "chan": 8065,
      "proc": 8066,
      "éĤ": 8067,
      "TS": 8068,
      "DEFAULT": 8069,
      "news": 8070,
      "IME": 8071,
      "cedure": 8072,
      "Basic": 8073,
      "Ġattemp": 8074,
      "ifies": 8075,
      "Ġeverything": 8076,
      "ĠOTHER": 8077,
      "dashboard": 8078,
      "Ġfeed": 8079,
      "inf": 8080,
      "Ġmachine": 8081,
      "ĠChrist": 8082,
      "isa": 8083,
      "æ¸": 8084,
      "cpu": 8085,
      ")](": 8086,
      "references": 8087,
      "Statement": 8088,
      "360": 8089,
      "Direction": 8090,
      "Ġflags": 8091,
      "}`": 8092,
      "URI": 8093,
      "ares": 8094,
      "nix": 8095,
      "Ġcause": 8096,
      "audio": 8097,
      "ĠWorld": 8098,
      "bum": 8099,
      "ĠIndex": 8100,
      "++++": 8101,
      "validation": 8102,
      "Pu": 8103,
      "yaml": 8104,
      "Ġlogging": 8105,
      "rx": 8106,
      "TION": 8107,
      "dro": 8108,
      "ĠHTML": 8109,
      "Ġ#[": 8110,
      "ĠâĶ": 8111,
      "nh": 8112,
      "fold": 8113,
      "Symbol": 8114,
      "Ġ\"./": 8115,
      "polygon": 8116,
      "rizontal": 8117,
      "logging": 8118,
      "Ġisn": 8119,
      "ë¦": 8120,
      "toBe": 8121,
      "jet": 8122,
      "chie": 8123,
      "Ġplot": 8124,
      "404": 8125,
      "700": 8126,
      "angular": 8127,
      "ĠØ¨": 8128,
      "conv": 8129,
      "Optim": 8130,
      "ĠChange": 8131,
      "Ġexecution": 8132,
      "Distance": 8133,
      "Ġprintf": 8134,
      "ĠÑĥ": 8135,
      "ops": 8136,
      "Ġsplit": 8137,
      "scribed": 8138,
      "dump": 8139,
      "()));": 8140,
      "ndidate": 8141,
      "RIGHT": 8142,
      "Ġuseful": 8143,
      "quested": 8144,
      "rum": 8145,
      "emi": 8146,
      "Ġtorch": 8147,
      "AttributeName": 8148,
      "íķľ": 8149,
      "Ġstra": 8150,
      "264": 8151,
      "UDE": 8152,
      "Ġmaximum": 8153,
      "Elements": 8154,
      "Ġconse": 8155,
      "Interval": 8156,
      "fil": 8157,
      "134": 8158,
      "history": 8159,
      "direction": 8160,
      "erc": 8161,
      "groups": 8162,
      "gers": 8163,
      "Arch": 8164,
      "Dictionary": 8165,
      "Ġtransaction": 8166,
      "vey": 8167,
      "Threading": 8168,
      "Ġdelet": 8169,
      "Ġremoved": 8170,
      "AE": 8171,
      "githubusercontent": 8172,
      "uuid": 8173,
      "arsed": 8174,
      ";&#": 8175,
      "Ġgroups": 8176,
      "nies": 8177,
      "Ġcross": 8178,
      "()))": 8179,
      "Pair": 8180,
      "Ġ'%": 8181,
      "199": 8182,
      "Ġfurther": 8183,
      "ORS": 8184,
      "ĠAction": 8185,
      "lapse": 8186,
      "nome": 8187,
      "åŁº": 8188,
      "ĠClient": 8189,
      "Ġvan": 8190,
      "=\"$(": 8191,
      "Asm": 8192,
      "ìĭ": 8193,
      "Ð¾Ð½": 8194,
      "Ġrespect": 8195,
      "night": 8196,
      "sd": 8197,
      "Mor": 8198,
      "Ġtesting": 8199,
      "Yes": 8200,
      "locale": 8201,
      "Ġseems": 8202,
      "STRING": 8203,
      "visible": 8204,
      "clus": 8205,
      "Ġbehavior": 8206,
      "FUN": 8207,
      "coordinates": 8208,
      "SCR": 8209,
      "Ġrequires": 8210,
      "bet": 8211,
      "ä¾ĭ": 8212,
      "Ġtrying": 8213,
      "Ġrest": 8214,
      "218": 8215,
      "ëĵ": 8216,
      "ory": 8217,
      "Fragment": 8218,
      "ĠFiles": 8219,
      "170": 8220,
      ")|$(": 8221,
      "flat": 8222,
      "ceiver": 8223,
      "iny": 8224,
      "afe": 8225,
      "Ġ\"[": 8226,
      "à¥Ģ": 8227,
      "messages": 8228,
      "æ¡": 8229,
      "ãĢĢ": 8230,
      "136": 8231,
      "rome": 8232,
      "WI": 8233,
      "ÐĲ": 8234,
      "nated": 8235,
      "goo": 8236,
      "Ġè": 8237,
      "Ġfund": 8238,
      "frappe": 8239,
      "original": 8240,
      "'].": 8241,
      "Ðĺ": 8242,
      "hyphen": 8243,
      "Ġrisk": 8244,
      "lua": 8245,
      "lus": 8246,
      "wan": 8247,
      "Ġperform": 8248,
      "ruby": 8249,
      "Å¼": 8250,
      "dep": 8251,
      "iterator": 8252,
      "Ow": 8253,
      "watch": 8254,
      "ventory": 8255,
      "ĠKEY": 8256,
      "nr": 8257,
      "Ġstrings": 8258,
      "234": 8259,
      "Ġdrop": 8260,
      "slice": 8261,
      "Ġpermission": 8262,
      "'\"": 8263,
      "Ġcreating": 8264,
      "Ġlates": 8265,
      "Ġoperations": 8266,
      "Ġ}}</": 8267,
      "mobile": 8268,
      "Ġ\">": 8269,
      "Ġimprove": 8270,
      "Ġabsolute": 8271,
      "Ġcontaining": 8272,
      "Bottom": 8273,
      "RC": 8274,
      "BAR": 8275,
      "Ġlatest": 8276,
      "Registry": 8277,
      "ĠNational": 8278,
      "Ġpast": 8279,
      "Ġcontinu": 8280,
      "aran": 8281,
      "sidential": 8282,
      "mains": 8283,
      "Ġspeed": 8284,
      "perature": 8285,
      "disable": 8286,
      "AK": 8287,
      "demo": 8288,
      "364": 8289,
      "ĠMain": 8290,
      "Ġoffi": 8291,
      "gui": 8292,
      "Len": 8293,
      "154": 8294,
      "trim": 8295,
      "Ġcontroller": 8296,
      "Ġanswer": 8297,
      "Modal": 8298,
      "fied": 8299,
      "éĩı": 8300,
      "BASE": 8301,
      "Ġhours": 8302,
      "owl": 8303,
      "Ġresp": 8304,
      "chers": 8305,
      "Ġvalidate": 8306,
      "STATUS": 8307,
      "threshold": 8308,
      "Ġincrease": 8309,
      "Ġprec": 8310,
      "Ġstri": 8311,
      "Sur": 8312,
      "Ġavoid": 8313,
      "?\"": 8314,
      "Ġreading": 8315,
      "Ġshift": 8316,
      "ONG": 8317,
      "169": 8318,
      "pril": 8319,
      "Ġtheme": 8320,
      "nony": 8321,
      "ĠDec": 8322,
      "under": 8323,
      "pol": 8324,
      "åħ³": 8325,
      "displayName": 8326,
      "Ġtimeout": 8327,
      "Ġ500": 8328,
      "peaker": 8329,
      "ĠBE": 8330,
      ".\");": 8331,
      "Generate": 8332,
      "getElementById": 8333,
      "kk": 8334,
      "Ġê°": 8335,
      "Ġtakes": 8336,
      "mapping": 8337,
      "ĠOther": 8338,
      "Ġfour": 8339,
      "GEN": 8340,
      "delta": 8341,
      "ĠFree": 8342,
      "ij": 8343,
      "hub": 8344,
      "Ġmaterial": 8345,
      "pix": 8346,
      "Ġdriver": 8347,
      "ela": 8348,
      "ones": 8349,
      "nherit": 8350,
      "istant": 8351,
      "Ġlower": 8352,
      "iece": 8353,
      "twitter": 8354,
      "Ġopt": 8355,
      "Ġguide": 8356,
      "Ġprovider": 8357,
      "inherit": 8358,
      "*(": 8359,
      "Ġindus": 8360,
      "motion": 8361,
      "ĠAmerica": 8362,
      "Allow": 8363,
      "Ġmag": 8364,
      "LOW": 8365,
      "Edge": 8366,
      "icker": 8367,
      "à¶": 8368,
      "Ġ#{": 8369,
      "ĠMed": 8370,
      "att": 8371,
      "Ġil": 8372,
      "384": 8373,
      "Ġprimary": 8374,
      "fast": 8375,
      "ĠFoundation": 8376,
      "Ġproper": 8377,
      "erials": 8378,
      "================================================================": 8379,
      "mn": 8380,
      "éľĢ": 8381,
      "}_{": 8382,
      "209": 8383,
      "Ġpress": 8384,
      "ben": 8385,
      "ĠAL": 8386,
      "Cmd": 8387,
      "Inst": 8388,
      "locity": 8389,
      "Ġaccording": 8390,
      "Ġbl": 8391,
      "ntly": 8392,
      "Attr": 8393,
      "Ġ[{": 8394,
      "nglish": 8395,
      "156": 8396,
      "ĠBack": 8397,
      "uate": 8398,
      "poch": 8399,
      "AMP": 8400,
      "ued": 8401,
      "conn": 8402,
      "Ð¶": 8403,
      "Ġlearning": 8404,
      "Enter": 8405,
      "Ġexecute": 8406,
      "elcome": 8407,
      "nisation": 8408,
      "Ġaxis": 8409,
      "Cloud": 8410,
      "TAG": 8411,
      "$\\": 8412,
      "ĠÐ½Ð°": 8413,
      "Ġlonger": 8414,
      "à¸Ń": 8415,
      "FALSE": 8416,
      "164": 8417,
      "Mid": 8418,
      "Ġtermi": 8419,
      "Nodes": 8420,
      "Ġcoll": 8421,
      "ferr": 8422,
      "ĠVM": 8423,
      "Ġmanagement": 8424,
      "Tags": 8425,
      "ĠMod": 8426,
      "197": 8427,
      "MIT": 8428,
      "Iterator": 8429,
      "came": 8430,
      "owner": 8431,
      "compat": 8432,
      "Duration": 8433,
      "Ġtimestamp": 8434,
      "178": 8435,
      "Ig": 8436,
      "eview": 8437,
      "ragma": 8438,
      "dbc": 8439,
      "Ð¾Ð±": 8440,
      "2003": 8441,
      "Ġvarious": 8442,
      "eaut": 8443,
      "rin": 8444,
      "ĠStore": 8445,
      "\\.": 8446,
      "Ġabstract": 8447,
      "ä½į": 8448,
      "tuto": 8449,
      "Ġplt": 8450,
      "Ġsol": 8451,
      ",,,,,": 8452,
      "Amount": 8453,
      "Ġautomatically": 8454,
      "ĠExt": 8455,
      "232": 8456,
      "related": 8457,
      "YY": 8458,
      "Îº": 8459,
      "à¤¨": 8460,
      "Ġnews": 8461,
      "mbols": 8462,
      "gend": 8463,
      "upt": 8464,
      ">{{": 8465,
      "eams": 8466,
      "Ġtreat": 8467,
      "Ġhouse": 8468,
      "ãĤĬ": 8469,
      "Ġbring": 8470,
      "ç©": 8471,
      "extra": 8472,
      "typename": 8473,
      "Material": 8474,
      "Ġul": 8475,
      "éħį": 8476,
      "Ġdifference": 8477,
      "prod": 8478,
      "navbar": 8479,
      "ĠContent": 8480,
      "Ġseconds": 8481,
      "nders": 8482,
      "1111": 8483,
      "ãĢĤ</": 8484,
      "]['": 8485,
      "VALID": 8486,
      "146": 8487,
      "ì§Ģ": 8488,
      "377": 8489,
      "^^^^": 8490,
      "Th": 8491,
      "Ġidea": 8492,
      "ĠOutput": 8493,
      "lai": 8494,
      "Ð°Ðº": 8495,
      "elements": 8496,
      "undefined": 8497,
      "ĠCity": 8498,
      "Ġhope": 8499,
      "ä¸»": 8500,
      "rra": 8501,
      "See": 8502,
      "rnative": 8503,
      "Asset": 8504,
      "safe": 8505,
      "az": 8506,
      "=\"'$(": 8507,
      "wers": 8508,
      "ìĦľ": 8509,
      "period": 8510,
      "factory": 8511,
      "Ġitself": 8512,
      "ê°Ģ": 8513,
      "]\"": 8514,
      "Ġboard": 8515,
      "177": 8516,
      "deco": 8517,
      "Ġfs": 8518,
      "Äĩ": 8519,
      "progress": 8520,
      "ĠUN": 8521,
      "225": 8522,
      "FIX": 8523,
      "prev": 8524,
      "nitary": 8525,
      "}\",": 8526,
      "Random": 8527,
      "Nume": 8528,
      "ĠMethod": 8529,
      "æŃ¤": 8530,
      "ĠLoad": 8531,
      "bundle": 8532,
      "ĠResource": 8533,
      "à½²": 8534,
      "à¯į": 8535,
      "forEach": 8536,
      "SUB": 8537,
      "Ġdistribution": 8538,
      "alo": 8539,
      "Ġ\"{": 8540,
      "Ġpayload": 8541,
      "Ġintro": 8542,
      "Ġada": 8543,
      "remote": 8544,
      "faults": 8545,
      "isset": 8546,
      "Ġowner": 8547,
      "ĠPos": 8548,
      "glyph": 8549,
      "ĉĠĠĠĠĠĠĠĠĠ": 8550,
      "Ġhar": 8551,
      "rif": 8552,
      "ĠGra": 8553,
      "joy": 8554,
      "ĉčĊ": 8555,
      "gp": 8556,
      "WIN": 8557,
      "Ġextract": 8558,
      "Ġpd": 8559,
      "195": 8560,
      "Headers": 8561,
      "Ġgat": 8562,
      "Ġseen": 8563,
      "Contract": 8564,
      "Importe": 8565,
      "Ġredirect": 8566,
      "uplicate": 8567,
      "asm": 8568,
      "Ð¾Ð¹": 8569,
      "Ġprobably": 8570,
      "imate": 8571,
      "nuary": 8572,
      "Html": 8573,
      "tabs": 8574,
      "152": 8575,
      "Ð»Ñı": 8576,
      "142": 8577,
      "Imple": 8578,
      "configure": 8579,
      "bilities": 8580,
      "processo": 8581,
      "Ġcomes": 8582,
      "bserver": 8583,
      "Fill": 8584,
      "æłĩ": 8585,
      "Ġrelationship": 8586,
      "Ġcursor": 8587,
      "iÃ³n": 8588,
      "zzy": 8589,
      "ĠOr": 8590,
      "Ġstates": 8591,
      "Ġspo": 8592,
      "external": 8593,
      "=%": 8594,
      "Mont": 8595,
      "rono": 8596,
      "ç³": 8597,
      "Ġenergy": 8598,
      "tele": 8599,
      "Ġip": 8600,
      "Ġprojects": 8601,
      "Enume": 8602,
      "Ġrather": 8603,
      "ĠAfter": 8604,
      "Ġ38": 8605,
      "esidential": 8606,
      "goto": 8607,
      "residential": 8608,
      "rative": 8609,
      "logic": 8610,
      "branch": 8611,
      "prise": 8612,
      "tid": 8613,
      "arth": 8614,
      "åĪ¶": 8615,
      "Ġarr": 8616,
      "185": 8617,
      "Ġrepo": 8618,
      "amily": 8619,
      "nippets": 8620,
      "blisher": 8621,
      "ĠTech": 8622,
      "ãĥĹ": 8623,
      "Ġround": 8624,
      "vacy": 8625,
      "Power": 8626,
      "Ġ'';": 8627,
      "Ã¼r": 8628,
      "expression": 8629,
      "ILAsm": 8630,
      "ociation": 8631,
      "company": 8632,
      "æŃ£": 8633,
      "Ġ01": 8634,
      "elec": 8635,
      "224": 8636,
      "Ġstatement": 8637,
      "processor": 8638,
      "à½ĳ": 8639,
      "Ġprops": 8640,
      "508": 8641,
      "otlin": 8642,
      "cycle": 8643,
      "XMLSchema": 8644,
      "Audio": 8645,
      "éĥ½": 8646,
      "Bound": 8647,
      "aml": 8648,
      "Raw": 8649,
      "ãĥ©": 8650,
      "ĉĉĉĠĠĠ": 8651,
      "ĠUSE": 8652,
      "gan": 8653,
      "Ġquestions": 8654,
      "----------": 8655,
      "LD": 8656,
      "ĠLink": 8657,
      "lict": 8658,
      "rules": 8659,
      "Real": 8660,
      "Ġpopu": 8661,
      "NING": 8662,
      "179": 8663,
      "Ġwrap": 8664,
      "guide": 8665,
      "ĠProcess": 8666,
      "INST": 8667,
      "coded": 8668,
      "Ġlearn": 8669,
      "Limit": 8670,
      "cout": 8671,
      "007": 8672,
      "ĠComponent": 8673,
      "CUR": 8674,
      "dor": 8675,
      "________________": 8676,
      "Ġauth": 8677,
      "-(": 8678,
      "BD": 8679,
      "xF": 8680,
      "Short": 8681,
      "éļ": 8682,
      "istic": 8683,
      "Agent": 8684,
      "ming": 8685,
      "Ġ09": 8686,
      "Ġmulti": 8687,
      "derr": 8688,
      "éĩį": 8689,
      "Ġquality": 8690,
      "precated": 8691,
      "Ġvs": 8692,
      "hest": 8693,
      "gramm": 8694,
      "ĠWHERE": 8695,
      "Ġupon": 8696,
      "***": 8697,
      "Ġsubs": 8698,
      "DocId": 8699,
      "Ġ%(": 8700,
      "CCESS": 8701,
      "ĠÄ": 8702,
      "------------------------------------------------": 8703,
      "delivery": 8704,
      "loading": 8705,
      "198": 8706,
      "Ġmanaged": 8707,
      "EOLhyphen": 8708,
      "gmd": 8709,
      "](/": 8710,
      "CG": 8711,
      "pria": 8712,
      "åĽ½": 8713,
      "dleware": 8714,
      "Ġusage": 8715,
      "448": 8716,
      "ĠÙĪ": 8717,
      "662": 8718,
      "ĠÏĦ": 8719,
      "Ð½Ð°": 8720,
      "mouse": 8721,
      "Validation": 8722,
      "Ġshows": 8723,
      "Ġinstanceof": 8724,
      "Track": 8725,
      "166": 8726,
      "Ġlar": 8727,
      "Ġĉĉ": 8728,
      "peg": 8729,
      "TF": 8730,
      "ĠPar": 8731,
      "har": 8732,
      "Linq": 8733,
      "Ġnat": 8734,
      "rectangle": 8735,
      "mx": 8736,
      "Ġlogin": 8737,
      "sbt": 8738,
      "Clear": 8739,
      "band": 8740,
      "dn": 8741,
      "ĠEuro": 8742,
      "Ġaddition": 8743,
      "archive": 8744,
      "Bean": 8745,
      "Year": 8746,
      "667": 8747,
      "Ġanalysis": 8748,
      "segment": 8749,
      "many": 8750,
      "\\[": 8751,
      "Bl": 8752,
      "FileName": 8753,
      "Ġ39": 8754,
      "psed": 8755,
      "CMAKE": 8756,
      "âķ": 8757,
      "176": 8758,
      "Qt": 8759,
      "Drop": 8760,
      "Ġidentifier": 8761,
      "CONT": 8762,
      "ĠWi": 8763,
      "Ġrefl": 8764,
      "æ¨¡": 8765,
      "ynthe": 8766,
      "ĉĉĠĠĠĠĠ": 8767,
      "asp": 8768,
      "åĽ¾": 8769,
      "Setting": 8770,
      "Ġair": 8771,
      "Ġ'''": 8772,
      "Ġsea": 8773,
      "ÑĨÐ¸": 8774,
      "8080": 8775,
      "wall": 8776,
      "Ġcommands": 8777,
      "rtion": 8778,
      "History": 8779,
      "lood": 8780,
      "JP": 8781,
      "é»": 8782,
      "Ġendif": 8783,
      "ivate": 8784,
      "Ġbra": 8785,
      "206": 8786,
      "Ð°Ñģ": 8787,
      "fet": 8788,
      "Ð°Ð½Ð¸": 8789,
      "Ġverify": 8790,
      "Ġmoment": 8791,
      "ĠLong": 8792,
      "Git": 8793,
      "Ġhide": 8794,
      "AST": 8795,
      "Ġskip": 8796,
      "Ġindividual": 8797,
      "Bind": 8798,
      "ĠExec": 8799,
      "Ġut": 8800,
      "-----": 8801,
      "Ġpages": 8802,
      "dos": 8803,
      "keyword": 8804,
      "uff": 8805,
      "(\".": 8806,
      "lider": 8807,
      "Ġstrong": 8808,
      "Ġ75": 8809,
      "Ġignore": 8810,
      "RED": 8811,
      "uck": 8812,
      "yper": 8813,
      "Ġ08": 8814,
      "Pop": 8815,
      "ĠGets": 8816,
      "Gradient": 8817,
      "Ġspan": 8818,
      "llege": 8819,
      "ĠGa": 8820,
      "isting": 8821,
      "xE": 8822,
      "ÄĽ": 8823,
      "World": 8824,
      "Ġactivity": 8825,
      "ĠSET": 8826,
      "nchmark": 8827,
      "Ġsignal": 8828,
      "Ġreader": 8829,
      "åķ": 8830,
      "Ġxmi": 8831,
      "Ġcomplex": 8832,
      "serv": 8833,
      "è§£": 8834,
      "Volume": 8835,
      "SW": 8836,
      "tachment": 8837,
      "itecture": 8838,
      "æŁ¥": 8839,
      "though": 8840,
      "è¢": 8841,
      "Ġpositive": 8842,
      "Ġbug": 8843,
      "priat": 8844,
      "west": 8845,
      "Ġmanu": 8846,
      "plt": 8847,
      "Presen": 8848,
      "you": 8849,
      "logies": 8850,
      "COUNT": 8851,
      "ffffff": 8852,
      "Sim": 8853,
      "AU": 8854,
      "gb": 8855,
      "getName": 8856,
      "embed": 8857,
      "Ġlabels": 8858,
      "arance": 8859,
      "review": 8860,
      "jquery": 8861,
      "ifi": 8862,
      "Units": 8863,
      "Ġhy": 8864,
      "Ġtaken": 8865,
      "Ġstarting": 8866,
      "Ġsystems": 8867,
      "checked": 8868,
      "à¸£": 8869,
      "åħ¨": 8870,
      "moz": 8871,
      "ĠArrayList": 8872,
      "'=>'": 8873,
      "Ġminutes": 8874,
      "Ġhalf": 8875,
      "bserv": 8876,
      "SOURCE": 8877,
      "à±": 8878,
      "Ġtypeof": 8879,
      "compare": 8880,
      "Ġfriend": 8881,
      "ĠAmerican": 8882,
      "Ġìł": 8883,
      "Ġcalls": 8884,
      "Ġwatch": 8885,
      "Ġnume": 8886,
      "Ġps": 8887,
      "}(": 8888,
      "priority": 8889,
      "ĠDep": 8890,
      "elt": 8891,
      "ĠðŁ": 8892,
      "Ġ'-": 8893,
      "Ġespec": 8894,
      "gue": 8895,
      "ians": 8896,
      "izable": 8897,
      "lop": 8898,
      "Ġ$(\"#": 8899,
      "008": 8900,
      "004": 8901,
      "pis": 8902,
      "iler": 8903,
      "VICE": 8904,
      "roo": 8905,
      "ĠĠĠĉ": 8906,
      "$$": 8907,
      "Author": 8908,
      "Ġeq": 8909,
      "arter": 8910,
      "äºĮ": 8911,
      "Ġtro": 8912,
      "Ġproblems": 8913,
      "é«": 8914,
      "Linear": 8915,
      "Timer": 8916,
      "ĠSerial": 8917,
      "week": 8918,
      "]*": 8919,
      "Ġtw": 8920,
      "Execution": 8921,
      "}}</": 8922,
      "known": 8923,
      "260": 8924,
      "ppb": 8925,
      "SG": 8926,
      "ĠFl": 8927,
      "weet": 8928,
      "Ġdependencies": 8929,
      "Ġrespons": 8930,
      "Season": 8931,
      "ãģĹãģ¦": 8932,
      "2008": 8933,
      "Ġpartici": 8934,
      "Ġkernel": 8935,
      "Kit": 8936,
      "Mapper": 8937,
      "Ġcx": 8938,
      "Append": 8939,
      "189": 8940,
      "asi": 8941,
      "ĠBlock": 8942,
      "ĠCreated": 8943,
      "'\">": 8944,
      "ÐµÐº": 8945,
      "ãĤ¢": 8946,
      "ĠMemberName": 8947,
      "Ġlinks": 8948,
      "Ð¡Ð¢": 8949,
      "**.": 8950,
      "CREATE": 8951,
      "Ġgovernment": 8952,
      "235": 8953,
      "dark": 8954,
      "ENABLE": 8955,
      "174": 8956,
      "vp": 8957,
      "ĠJust": 8958,
      "iere": 8959,
      "æĺİ": 8960,
      "Ġyield": 8961,
      "Ġsignature": 8962,
      "åĭ": 8963,
      "Ġinstalled": 8964,
      "links": 8965,
      "rived": 8966,
      "Ġturn": 8967,
      "Ui": 8968,
      "Ġbla": 8969,
      "ĠAUT": 8970,
      "dropdown": 8971,
      "ĠSupport": 8972,
      "Environment": 8973,
      "bservable": 8974,
      "tember": 8975,
      "ÐºÐ°": 8976,
      "ĠNow": 8977,
      "question": 8978,
      "ĠMax": 8979,
      "construct": 8980,
      "Ġexc": 8981,
      "uls": 8982,
      "Lea": 8983,
      "payload": 8984,
      "============": 8985,
      "Ġdisabled": 8986,
      "pies": 8987,
      "Ġpool": 8988,
      "duction": 8989,
      "latile": 8990,
      "Ġill": 8991,
      "çľĭ": 8992,
      "[-": 8993,
      "ĠFirst": 8994,
      "èĢĮ": 8995,
      "design": 8996,
      "hose": 8997,
      "Phone": 8998,
      "Ġwen": 8999,
      "umpy": 9000,
      "ritical": 9001,
      "Ġduration": 9002,
      "Ġimplement": 9003,
      "æ¬¡": 9004,
      "empor": 9005,
      "ÅĽ": 9006,
      "à¤µ": 9007,
      "ĠJson": 9008,
      "panded": 9009,
      "ĠDeve": 9010,
      "\"];": 9011,
      "examples": 9012,
      "tributions": 9013,
      "Ġmusic": 9014,
      "Join": 9015,
      "Ġblog": 9016,
      "ãģĨ": 9017,
      "Ġfood": 9018,
      "455": 9019,
      "coi": 9020,
      "Ð¾ÑģÑĤ": 9021,
      "transaction": 9022,
      "131": 9023,
      "estri": 9024,
      "Ġjoin": 9025,
      "Encoding": 9026,
      "pedia": 9027,
      "Should": 9028,
      "merc": 9029,
      "ĠSelect": 9030,
      "Standard": 9031,
      "customer": 9032,
      "ĠTr": 9033,
      "STATE": 9034,
      "APP": 9035,
      "hd": 9036,
      "eca": 9037,
      "payment": 9038,
      "Ġresolve": 9039,
      "Ġtick": 9040,
      "ĠIMP": 9041,
      "Es": 9042,
      "VO": 9043,
      "bold": 9044,
      "Ð°Ð²": 9045,
      "ç»Ħ": 9046,
      "éĻ¤": 9047,
      "Ġpackages": 9048,
      "unce": 9049,
      "Ġnamed": 9050,
      "153": 9051,
      "ìĬ¤": 9052,
      "************": 9053,
      "arents": 9054,
      "Permission": 9055,
      "power": 9056,
      "Ġnotes": 9057,
      "Ġcompression": 9058,
      "WA": 9059,
      "runs": 9060,
      "tempor": 9061,
      "urance": 9062,
      "Ġ400": 9063,
      "unknown": 9064,
      "Ġpeak": 9065,
      "plays": 9066,
      "Ġfire": 9067,
      "WH": 9068,
      "literal": 9069,
      "184": 9070,
      "Batch": 9071,
      "lationToken": 9072,
      "çĽ¸": 9073,
      "Ġstored": 9074,
      "eth": 9075,
      "Ġscene": 9076,
      "maining": 9077,
      "Ġsomeone": 9078,
      "ĠBY": 9079,
      "è±": 9080,
      "quad": 9081,
      "ATCH": 9082,
      "Fix": 9083,
      "280": 9084,
      "ĠHome": 9085,
      "Ġcen": 9086,
      "ĠServices": 9087,
      "shell": 9088,
      "Ġtranslate": 9089,
      "cture": 9090,
      "illing": 9091,
      "prot": 9092,
      "Ġcontract": 9093,
      "icult": 9094,
      "ĠYork": 9095,
      "Ġsimply": 9096,
      "Ġwriter": 9097,
      "ÐºÐ¸": 9098,
      "ĠSm": 9099,
      "Delegate": 9100,
      "Ġwp": 9101,
      "à·": 9102,
      "nden": 9103,
      "Ġ42": 9104,
      "ĉĉĉĉĠ": 9105,
      "Ġwent": 9106,
      "Ġmass": 9107,
      "ace": 9108,
      "Ġparts": 9109,
      "DP": 9110,
      "stage": 9111,
      "æĵ": 9112,
      "ĠBi": 9113,
      "clone": 9114,
      "correct": 9115,
      "->_": 9116,
      "YES": 9117,
      "ircum": 9118,
      "flue": 9119,
      "rse": 9120,
      "Ú©": 9121,
      "UST": 9122,
      "ĠÐ¡": 9123,
      "`:": 9124,
      "................": 9125,
      "chart": 9126,
      "Ġchai": 9127,
      "vor": 9128,
      "ĠBar": 9129,
      "Importer": 9130,
      "æľį": 9131,
      "*.": 9132,
      ":%": 9133,
      "ncipal": 9134,
      "metric": 9135,
      "229": 9136,
      "ĠPort": 9137,
      "cenario": 9138,
      "æĸ¹æ³ķ": 9139,
      "Ġcurve": 9140,
      "lying": 9141,
      "wesome": 9142,
      "ĠExample": 9143,
      "hods": 9144,
      "ORK": 9145,
      "Ġ99": 9146,
      ";)": 9147,
      "elves": 9148,
      "best": 9149,
      "Ġyes": 9150,
      "dm": 9151,
      "coin": 9152,
      "GIN": 9153,
      "à¹Ģ": 9154,
      "ĉĠĠĠĠĠĠĠĠĠĠ": 9155,
      "Ġdynamic": 9156,
      "Driver": 9157,
      "variant": 9158,
      "cursor": 9159,
      "Ġways": 9160,
      "Stats": 9161,
      "Ġ).": 9162,
      "å¦Ĥæŀľ": 9163,
      "Ġscan": 9164,
      "]}": 9165,
      "Ġtrigger": 9166,
      "Errorf": 9167,
      "Vo": 9168,
      "Reset": 9169,
      "forward": 9170,
      "ĠControl": 9171,
      "Ġreaso": 9172,
      "cross": 9173,
      "ĠBO": 9174,
      "Points": 9175,
      "163": 9176,
      "Big": 9177,
      "BF": 9178,
      "override": 9179,
      "lide": 9180,
      "terr": 9181,
      "dart": 9182,
      "Ġink": 9183,
      "Term": 9184,
      "provi": 9185,
      "Scal": 9186,
      "zi": 9187,
      "din": 9188,
      "vy": 9189,
      "]\\": 9190,
      "ĠMO": 9191,
      "ctober": 9192,
      "Ġ65": 9193,
      "Ġhit": 9194,
      "ĠCall": 9195,
      "evision": 9196,
      "pho": 9197,
      "Ġland": 9198,
      "resp": 9199,
      "reader": 9200,
      "sqrt": 9201,
      "ados": 9202,
      "ackson": 9203,
      "Ġready": 9204,
      "Fr": 9205,
      "Ġcond": 9206,
      "craft": 9207,
      "ĠDA": 9208,
      "Ġbelieve": 9209,
      "NamedCell": 9210,
      "Site": 9211,
      "Proto": 9212,
      "Axis": 9213,
      "cember": 9214,
      "revision": 9215,
      "å·¥": 9216,
      "iones": 9217,
      "Ġfoo": 9218,
      "()),": 9219,
      "fficient": 9220,
      "Ġ70": 9221,
      "extras": 9222,
      "\":[": 9223,
      "à¸ģ": 9224,
      "Ġmonths": 9225,
      "ĠIlluminate": 9226,
      "Ali": 9227,
      "inv": 9228,
      "ç³»": 9229,
      "Ġ-=": 9230,
      "ĠHandl": 9231,
      "Sans": 9232,
      "ĠminOccurs": 9233,
      "åºı": 9234,
      "Ġamong": 9235,
      "lemma": 9236,
      "Curve": 9237,
      "Ġoutside": 9238,
      "animation": 9239,
      "Install": 9240,
      "program": 9241,
      "Ġtax": 9242,
      "Ġrgba": 9243,
      "alias": 9244,
      "graphics": 9245,
      "Env": 9246,
      "ĠMarch": 9247,
      "à¹Ī": 9248,
      "Ġfee": 9249,
      "Ġlibraries": 9250,
      "Ġregular": 9251,
      "Ġsymbol": 9252,
      "schedule": 9253,
      "ĠCent": 9254,
      "ãĤī": 9255,
      "Ġbuy": 9256,
      "211": 9257,
      "niz": 9258,
      "bru": 9259,
      "Ġ2010": 9260,
      "crea": 9261,
      "173": 9262,
      "-------------": 9263,
      "LC": 9264,
      "qq": 9265,
      "categories": 9266,
      "party": 9267,
      "IBUT": 9268,
      "Ġlikely": 9269,
      "udit": 9270,
      "ĠPi": 9271,
      "ustralia": 9272,
      "å·²": 9273,
      "itt": 9274,
      "ãģ¾ãģĻ": 9275,
      "Tile": 9276,
      "mesh": 9277,
      "Actions": 9278,
      "è£": 9279,
      "Ġ180": 9280,
      "White": 9281,
      "×Ļ×": 9282,
      "Ġapplied": 9283,
      "Ġcp": 9284,
      "Ġprocessing": 9285,
      "KEN": 9286,
      "gate": 9287,
      "erred": 9288,
      ")'=='": 9289,
      "Messages": 9290,
      "Rendere": 9291,
      "identifier": 9292,
      "ç¾": 9293,
      "Ã½": 9294,
      "COMM": 9295,
      "194": 9296,
      "LETE": 9297,
      "Ġwomen": 9298,
      "Renderer": 9299,
      "ï¼Ł": 9300,
      "ĠNetwork": 9301,
      "èĭ": 9302,
      "ç»ĵ": 9303,
      "vember": 9304,
      "dri": 9305,
      "heading": 9306,
      "141": 9307,
      "Ġ128": 9308,
      "cancel": 9309,
      "nsions": 9310,
      "projects": 9311,
      "added": 9312,
      "nct": 9313,
      "allery": 9314,
      "Ġdevelop": 9315,
      "Rotation": 9316,
      "FilterDatabase": 9317,
      "Ġmillion": 9318,
      ")$": 9319,
      "nÃŃ": 9320,
      "ckets": 9321,
      "itution": 9322,
      "racle": 9323,
      "æº": 9324,
      "COM": 9325,
      "Ġearly": 9326,
      "graphic": 9327,
      "Converte": 9328,
      "Ã¶r": 9329,
      "aller": 9330,
      "ĠDelete": 9331,
      "Insert": 9332,
      "writ": 9333,
      "named": 9334,
      "350": 9335,
      "Chart": 9336,
      "nteg": 9337,
      "ards": 9338,
      "sets": 9339,
      "available": 9340,
      "MC": 9341,
      "restri": 9342,
      "Converter": 9343,
      "HR": 9344,
      "trun": 9345,
      "multi": 9346,
      "xilinx": 9347,
      "ANCE": 9348,
      "spe": 9349,
      "Ġhigher": 9350,
      "pragma": 9351,
      "'}": 9352,
      "binary": 9353,
      "ceived": 9354,
      "Ø§ÙĨ": 9355,
      "nored": 9356,
      "162": 9357,
      "styles": 9358,
      "Ġ----------------------------------------------------------------": 9359,
      "Ġstrict": 9360,
      "Prov": 9361,
      "ĠĠĠĠĠĠĠĠĠĠĠĠĠĠĠĠĠĠĠĠĠĠĠĠĠĊ": 9362,
      "ista": 9363,
      "iming": 9364,
      "èª": 9365,
      "presents": 9366,
      "icates": 9367,
      "Ġcounte": 9368,
      "Ġopport": 9369,
      "ntro": 9370,
      "Schedule": 9371,
      ")-": 9372,
      "à¤²": 9373,
      "ĠGlobal": 9374,
      "Ġnative": 9375,
      "ups": 9376,
      "hadoop": 9377,
      "ĠHealth": 9378,
      "ford": 9379,
      "Ġsignifica": 9380,
      "ĠTri": 9381,
      "Endpoint": 9382,
      "Shared": 9383,
      "365": 9384,
      "Ġ}}\"": 9385,
      "bnd": 9386,
      "direct": 9387,
      "ĠOk": 9388,
      "datetime": 9389,
      "Look": 9390,
      "which": 9391,
      "Ġmodified": 9392,
      "æ·": 9393,
      "ynchron": 9394,
      "ando": 9395,
      "Ġ{\\": 9396,
      ")+": 9397,
      "Guid": 9398,
      "ĉĠĠĠĠĠĠĠĠĠĠĠ": 9399,
      "éķ": 9400,
      "wever": 9401,
      "åŃ¦": 9402,
      "Ġedges": 9403,
      "asa": 9404,
      "è¢«": 9405,
      "ĠOUT": 9406,
      "à¤ķ": 9407,
      "MAP": 9408,
      "delay": 9409,
      "åħ¬": 9410,
      "days": 9411,
      "Ġblue": 9412,
      "Ġcut": 9413,
      "ajax": 9414,
      "Ġsugges": 9415,
      "ĠXML": 9416,
      "={{": 9417,
      "İ·": 9418,
      "hin": 9419,
      "025": 9420,
      "%,": 9421,
      "integ": 9422,
      "mil": 9423,
      "tence": 9424,
      ");\"": 9425,
      "vorite": 9426,
      "sn": 9427,
      "ĠSie": 9428,
      "èĬ": 9429,
      "Ġapproach": 9430,
      "xmin": 9431,
      "ĠJune": 9432,
      "237": 9433,
      "å¥½": 9434,
      "scene": 9435,
      "SCRIP": 9436,
      "failed": 9437,
      "ÑģÑı": 9438,
      "Ġnight": 9439,
      "Ġnumpy": 9440,
      "ncia": 9441,
      "IZ": 9442,
      "Ġphone": 9443,
      "Prop": 9444,
      "Your": 9445,
      "Binary": 9446,
      "Å¿t": 9447,
      "Ġcustomer": 9448,
      "Ġaverage": 9449,
      "228": 9450,
      "Sto": 9451,
      "PD": 9452,
      "Plan": 9453,
      "Ġdy": 9454,
      "Definitions": 9455,
      "iary": 9456,
      "Ġphoto": 9457,
      "Ġ2011": 9458,
      "Ġvalidation": 9459,
      "éĢī": 9460,
      "dst": 9461,
      "priate": 9462,
      "ĠSecurity": 9463,
      "å¹¶": 9464,
      "Ġdesc": 9465,
      "uction": 9466,
      "Ġfailure": 9467,
      "what": 9468,
      "æ´": 9469,
      "Med": 9470,
      "Ġ300": 9471,
      "IMP": 9472,
      "ĠAnal": 9473,
      "ĠĠĠĠĉ": 9474,
      "vidence": 9475,
      "333": 9476,
      "ncoding": 9477,
      "untries": 9478,
      "outube": 9479,
      "PIO": 9480,
      "ĠHE": 9481,
      "2007": 9482,
      "Ġlinear": 9483,
      "serif": 9484,
      "ARD": 9485,
      "dash": 9486,
      "Sign": 9487,
      "ÐĶÐ¾Ðº": 9488,
      "voter": 9489,
      "ymin": 9490,
      "Ġdisable": 9491,
      "currency": 9492,
      "Ġalias": 9493,
      "Google": 9494,
      "ĠuserData": 9495,
      "Ġago": 9496,
      "Ġãĥ": 9497,
      "Ġplus": 9498,
      "flu": 9499,
      ";\\": 9500,
      "Ġtook": 9501,
      "Zone": 9502,
      "Tick": 9503,
      "Errors": 9504,
      "rase": 9505,
      "Ġtu": 9506,
      "Ġcomments": 9507,
      "figure": 9508,
      ">/": 9509,
      "ini": 9510,
      "ĠThanks": 9511,
      "Person": 9512,
      "xmax": 9513,
      "Lower": 9514,
      "Ġdocker": 9515,
      "Ġmanager": 9516,
      "got": 9517,
      "Ġapps": 9518,
      "ĠProduct": 9519,
      "Ġvertical": 9520,
      "ÐĿÐĿ": 9521,
      "239": 9522,
      "ĠDouble": 9523,
      "nada": 9524,
      "proj": 9525,
      "adoc": 9526,
      "ctxt": 9527,
      "RUN": 9528,
      "=\"../": 9529,
      "ĠFri": 9530,
      "UDING": 9531,
      "rous": 9532,
      "Ġpublished": 9533,
      "visual": 9534,
      "Ġsuccessfully": 9535,
      "å¸Ĥ": 9536,
      "ĠFramework": 9537,
      "ciÃ³n": 9538,
      "ouch": 9539,
      "rou": 9540,
      "Ġversions": 9541,
      "ãģ£": 9542,
      "rns": 9543,
      "Exists": 9544,
      "Ġdecide": 9545,
      "ASH": 9546,
      "Ġtransition": 9547,
[...]
